{
  "version": "1.0",
  "truncation": null,
  "padding": null,
  "added_tokens": [
    {
      "id": 0,
      "content": "<s>",
      "single_word": false,
      "lstrip": false,
      "rstrip": false,
      "normalized": true,
      "special": true
    },
    {
      "id": 1,
      "content": "<pad>",
      "single_word": false,
      "lstrip": false,
      "rstrip": false,
      "normalized": true,
      "special": true
    },
    {
      "id": 2,
      "content": "</s>",
      "single_word": false,
      "lstrip": false,
      "rstrip": false,
      "normalized": true,
      "special": true
    },
    {
      "id": 3,
      "content": "<unk>",
      "single_word": false,
      "lstrip": false,
      "rstrip": false,
      "normalized": true,
      "special": true
    },
    {
      "id": 4,
      "content": "<mask>",
      "single_word": false,
      "lstrip": true,
      "rstrip": false,
      "normalized": false,
      "special": true
    },
    {
      "id": 9000,
      "content": "<wug#0>",
      "single_word": false,
      "lstrip": false,
      "rstrip": false,
      "normalized": true,
      "special": false
    },
    {
      "id": 9001,
      "content": "<wug#1>",
      "single_word": false,
      "lstrip": false,
      "rstrip": false,
      "normalized": true,
      "special": false
    },
    {
      "id": 9002,
      "content": "<wug#2>",
      "single_word": false,
      "lstrip": false,
      "rstrip": false,
      "normalized": true,
      "special": false
    },
    {
      "id": 9003,
      "content": "<wug#3>",
      "single_word": false,
      "lstrip": false,
      "rstrip": false,
      "normalized": true,
      "special": false
    },
    {
      "id": 9004,
      "content": "<wug#4>",
      "single_word": false,
      "lstrip": false,
      "rstrip": false,
      "normalized": true,
      "special": false
    },
    {
      "id": 9005,
      "content": "<wug#5>",
      "single_word": false,
      "lstrip": false,
      "rstrip": false,
      "normalized": true,
      "special": false
    },
    {
      "id": 9006,
      "content": "<wug#6>",
      "single_word": false,
      "lstrip": false,
      "rstrip": false,
      "normalized": true,
      "special": false
    },
    {
      "id": 9007,
      "content": "<wug#7>",
      "single_word": false,
      "lstrip": false,
      "rstrip": false,
      "normalized": true,
      "special": false
    },
    {
      "id": 9008,
      "content": "<wug#8>",
      "single_word": false,
      "lstrip": false,
      "rstrip": false,
      "normalized": true,
      "special": false
    },
    {
      "id": 9009,
      "content": "<wug#9>",
      "single_word": false,
      "lstrip": false,
      "rstrip": false,
      "normalized": true,
      "special": false
    },
    {
      "id": 9010,
      "content": "<wug#10>",
      "single_word": false,
      "lstrip": false,
      "rstrip": false,
      "normalized": true,
      "special": false
    },
    {
      "id": 9011,
      "content": "<wug#11>",
      "single_word": false,
      "lstrip": false,
      "rstrip": false,
      "normalized": true,
      "special": false
    },
    {
      "id": 9012,
      "content": "<wug#12>",
      "single_word": false,
      "lstrip": false,
      "rstrip": false,
      "normalized": true,
      "special": false
    },
    {
      "id": 9013,
      "content": "<wug#13>",
      "single_word": false,
      "lstrip": false,
      "rstrip": false,
      "normalized": true,
      "special": false
    },
    {
      "id": 9014,
      "content": "<wug#14>",
      "single_word": false,
      "lstrip": false,
      "rstrip": false,
      "normalized": true,
      "special": false
    },
    {
      "id": 9015,
      "content": "<wug#15>",
      "single_word": false,
      "lstrip": false,
      "rstrip": false,
      "normalized": true,
      "special": false
    },
    {
      "id": 9016,
      "content": "<wug#16>",
      "single_word": false,
      "lstrip": false,
      "rstrip": false,
      "normalized": true,
      "special": false
    },
    {
      "id": 9017,
      "content": "<wug#17>",
      "single_word": false,
      "lstrip": false,
      "rstrip": false,
      "normalized": true,
      "special": false
    },
    {
      "id": 9018,
      "content": "<wug#18>",
      "single_word": false,
      "lstrip": false,
      "rstrip": false,
      "normalized": true,
      "special": false
    },
    {
      "id": 9019,
      "content": "<wug#19>",
      "single_word": false,
      "lstrip": false,
      "rstrip": false,
      "normalized": true,
      "special": false
    },
    {
      "id": 9020,
      "content": "<wug#20>",
      "single_word": false,
      "lstrip": false,
      "rstrip": false,
      "normalized": true,
      "special": false
    },
    {
      "id": 9021,
      "content": "<wug#21>",
      "single_word": false,
      "lstrip": false,
      "rstrip": false,
      "normalized": true,
      "special": false
    },
    {
      "id": 9022,
      "content": "<wug#22>",
      "single_word": false,
      "lstrip": false,
      "rstrip": false,
      "normalized": true,
      "special": false
    },
    {
      "id": 9023,
      "content": "<wug#23>",
      "single_word": false,
      "lstrip": false,
      "rstrip": false,
      "normalized": true,
      "special": false
    },
    {
      "id": 9024,
      "content": "<wug#24>",
      "single_word": false,
      "lstrip": false,
      "rstrip": false,
      "normalized": true,
      "special": false
    },
    {
      "id": 9025,
      "content": "<wug#25>",
      "single_word": false,
      "lstrip": false,
      "rstrip": false,
      "normalized": true,
      "special": false
    },
    {
      "id": 9026,
      "content": "<wug#26>",
      "single_word": false,
      "lstrip": false,
      "rstrip": false,
      "normalized": true,
      "special": false
    },
    {
      "id": 9027,
      "content": "<wug#27>",
      "single_word": false,
      "lstrip": false,
      "rstrip": false,
      "normalized": true,
      "special": false
    },
    {
      "id": 9028,
      "content": "<wug#28>",
      "single_word": false,
      "lstrip": false,
      "rstrip": false,
      "normalized": true,
      "special": false
    },
    {
      "id": 9029,
      "content": "<wug#29>",
      "single_word": false,
      "lstrip": false,
      "rstrip": false,
      "normalized": true,
      "special": false
    },
    {
      "id": 9030,
      "content": "<wug#30>",
      "single_word": false,
      "lstrip": false,
      "rstrip": false,
      "normalized": true,
      "special": false
    },
    {
      "id": 9031,
      "content": "<wug#31>",
      "single_word": false,
      "lstrip": false,
      "rstrip": false,
      "normalized": true,
      "special": false
    },
    {
      "id": 9032,
      "content": "<wug#32>",
      "single_word": false,
      "lstrip": false,
      "rstrip": false,
      "normalized": true,
      "special": false
    },
    {
      "id": 9033,
      "content": "<wug#33>",
      "single_word": false,
      "lstrip": false,
      "rstrip": false,
      "normalized": true,
      "special": false
    },
    {
      "id": 9034,
      "content": "<wug#34>",
      "single_word": false,
      "lstrip": false,
      "rstrip": false,
      "normalized": true,
      "special": false
    },
    {
      "id": 9035,
      "content": "<wug#35>",
      "single_word": false,
      "lstrip": false,
      "rstrip": false,
      "normalized": true,
      "special": false
    },
    {
      "id": 9036,
      "content": "<wug#36>",
      "single_word": false,
      "lstrip": false,
      "rstrip": false,
      "normalized": true,
      "special": false
    },
    {
      "id": 9037,
      "content": "<wug#37>",
      "single_word": false,
      "lstrip": false,
      "rstrip": false,
      "normalized": true,
      "special": false
    },
    {
      "id": 9038,
      "content": "<wug#38>",
      "single_word": false,
      "lstrip": false,
      "rstrip": false,
      "normalized": true,
      "special": false
    },
    {
      "id": 9039,
      "content": "<wug#39>",
      "single_word": false,
      "lstrip": false,
      "rstrip": false,
      "normalized": true,
      "special": false
    },
    {
      "id": 9040,
      "content": "<wug#40>",
      "single_word": false,
      "lstrip": false,
      "rstrip": false,
      "normalized": true,
      "special": false
    },
    {
      "id": 9041,
      "content": "<wug#41>",
      "single_word": false,
      "lstrip": false,
      "rstrip": false,
      "normalized": true,
      "special": false
    },
    {
      "id": 9042,
      "content": "<wug#42>",
      "single_word": false,
      "lstrip": false,
      "rstrip": false,
      "normalized": true,
      "special": false
    },
    {
      "id": 9043,
      "content": "<wug#43>",
      "single_word": false,
      "lstrip": false,
      "rstrip": false,
      "normalized": true,
      "special": false
    },
    {
      "id": 9044,
      "content": "<wug#44>",
      "single_word": false,
      "lstrip": false,
      "rstrip": false,
      "normalized": true,
      "special": false
    },
    {
      "id": 9045,
      "content": "<wug#45>",
      "single_word": false,
      "lstrip": false,
      "rstrip": false,
      "normalized": true,
      "special": false
    },
    {
      "id": 9046,
      "content": "<wug#46>",
      "single_word": false,
      "lstrip": false,
      "rstrip": false,
      "normalized": true,
      "special": false
    },
    {
      "id": 9047,
      "content": "<wug#47>",
      "single_word": false,
      "lstrip": false,
      "rstrip": false,
      "normalized": true,
      "special": false
    },
    {
      "id": 9048,
      "content": "<wug#48>",
      "single_word": false,
      "lstrip": false,
      "rstrip": false,
      "normalized": true,
      "special": false
    },
    {
      "id": 9049,
      "content": "<wug#49>",
      "single_word": false,
      "lstrip": false,
      "rstrip": false,
      "normalized": true,
      "special": false
    },
    {
      "id": 9050,
      "content": "<wug#50>",
      "single_word": false,
      "lstrip": false,
      "rstrip": false,
      "normalized": true,
      "special": false
    },
    {
      "id": 9051,
      "content": "<wug#51>",
      "single_word": false,
      "lstrip": false,
      "rstrip": false,
      "normalized": true,
      "special": false
    },
    {
      "id": 9052,
      "content": "<wug#52>",
      "single_word": false,
      "lstrip": false,
      "rstrip": false,
      "normalized": true,
      "special": false
    },
    {
      "id": 9053,
      "content": "<wug#53>",
      "single_word": false,
      "lstrip": false,
      "rstrip": false,
      "normalized": true,
      "special": false
    },
    {
      "id": 9054,
      "content": "<wug#54>",
      "single_word": false,
      "lstrip": false,
      "rstrip": false,
      "normalized": true,
      "special": false
    },
    {
      "id": 9055,
      "content": "<wug#55>",
      "single_word": false,
      "lstrip": false,
      "rstrip": false,
      "normalized": true,
      "special": false
    },
    {
      "id": 9056,
      "content": "<wug#56>",
      "single_word": false,
      "lstrip": false,
      "rstrip": false,
      "normalized": true,
      "special": false
    },
    {
      "id": 9057,
      "content": "<wug#57>",
      "single_word": false,
      "lstrip": false,
      "rstrip": false,
      "normalized": true,
      "special": false
    },
    {
      "id": 9058,
      "content": "<wug#58>",
      "single_word": false,
      "lstrip": false,
      "rstrip": false,
      "normalized": true,
      "special": false
    },
    {
      "id": 9059,
      "content": "<wug#59>",
      "single_word": false,
      "lstrip": false,
      "rstrip": false,
      "normalized": true,
      "special": false
    },
    {
      "id": 9060,
      "content": "<wug#60>",
      "single_word": false,
      "lstrip": false,
      "rstrip": false,
      "normalized": true,
      "special": false
    },
    {
      "id": 9061,
      "content": "<wug#61>",
      "single_word": false,
      "lstrip": false,
      "rstrip": false,
      "normalized": true,
      "special": false
    },
    {
      "id": 9062,
      "content": "<wug#62>",
      "single_word": false,
      "lstrip": false,
      "rstrip": false,
      "normalized": true,
      "special": false
    },
    {
      "id": 9063,
      "content": "<wug#63>",
      "single_word": false,
      "lstrip": false,
      "rstrip": false,
      "normalized": true,
      "special": false
    },
    {
      "id": 9064,
      "content": "<wug#64>",
      "single_word": false,
      "lstrip": false,
      "rstrip": false,
      "normalized": true,
      "special": false
    },
    {
      "id": 9065,
      "content": "<wug#65>",
      "single_word": false,
      "lstrip": false,
      "rstrip": false,
      "normalized": true,
      "special": false
    },
    {
      "id": 9066,
      "content": "<wug#66>",
      "single_word": false,
      "lstrip": false,
      "rstrip": false,
      "normalized": true,
      "special": false
    },
    {
      "id": 9067,
      "content": "<wug#67>",
      "single_word": false,
      "lstrip": false,
      "rstrip": false,
      "normalized": true,
      "special": false
    },
    {
      "id": 9068,
      "content": "<wug#68>",
      "single_word": false,
      "lstrip": false,
      "rstrip": false,
      "normalized": true,
      "special": false
    },
    {
      "id": 9069,
      "content": "<wug#69>",
      "single_word": false,
      "lstrip": false,
      "rstrip": false,
      "normalized": true,
      "special": false
    },
    {
      "id": 9070,
      "content": "<wug#70>",
      "single_word": false,
      "lstrip": false,
      "rstrip": false,
      "normalized": true,
      "special": false
    },
    {
      "id": 9071,
      "content": "<wug#71>",
      "single_word": false,
      "lstrip": false,
      "rstrip": false,
      "normalized": true,
      "special": false
    },
    {
      "id": 9072,
      "content": "<wug#72>",
      "single_word": false,
      "lstrip": false,
      "rstrip": false,
      "normalized": true,
      "special": false
    },
    {
      "id": 9073,
      "content": "<wug#73>",
      "single_word": false,
      "lstrip": false,
      "rstrip": false,
      "normalized": true,
      "special": false
    },
    {
      "id": 9074,
      "content": "<wug#74>",
      "single_word": false,
      "lstrip": false,
      "rstrip": false,
      "normalized": true,
      "special": false
    },
    {
      "id": 9075,
      "content": "<wug#75>",
      "single_word": false,
      "lstrip": false,
      "rstrip": false,
      "normalized": true,
      "special": false
    },
    {
      "id": 9076,
      "content": "<wug#76>",
      "single_word": false,
      "lstrip": false,
      "rstrip": false,
      "normalized": true,
      "special": false
    },
    {
      "id": 9077,
      "content": "<wug#77>",
      "single_word": false,
      "lstrip": false,
      "rstrip": false,
      "normalized": true,
      "special": false
    },
    {
      "id": 9078,
      "content": "<wug#78>",
      "single_word": false,
      "lstrip": false,
      "rstrip": false,
      "normalized": true,
      "special": false
    },
    {
      "id": 9079,
      "content": "<wug#79>",
      "single_word": false,
      "lstrip": false,
      "rstrip": false,
      "normalized": true,
      "special": false
    },
    {
      "id": 9080,
      "content": "<wug#80>",
      "single_word": false,
      "lstrip": false,
      "rstrip": false,
      "normalized": true,
      "special": false
    },
    {
      "id": 9081,
      "content": "<wug#81>",
      "single_word": false,
      "lstrip": false,
      "rstrip": false,
      "normalized": true,
      "special": false
    },
    {
      "id": 9082,
      "content": "<wug#82>",
      "single_word": false,
      "lstrip": false,
      "rstrip": false,
      "normalized": true,
      "special": false
    },
    {
      "id": 9083,
      "content": "<wug#83>",
      "single_word": false,
      "lstrip": false,
      "rstrip": false,
      "normalized": true,
      "special": false
    },
    {
      "id": 9084,
      "content": "<wug#84>",
      "single_word": false,
      "lstrip": false,
      "rstrip": false,
      "normalized": true,
      "special": false
    },
    {
      "id": 9085,
      "content": "<wug#85>",
      "single_word": false,
      "lstrip": false,
      "rstrip": false,
      "normalized": true,
      "special": false
    },
    {
      "id": 9086,
      "content": "<wug#86>",
      "single_word": false,
      "lstrip": false,
      "rstrip": false,
      "normalized": true,
      "special": false
    },
    {
      "id": 9087,
      "content": "<wug#87>",
      "single_word": false,
      "lstrip": false,
      "rstrip": false,
      "normalized": true,
      "special": false
    },
    {
      "id": 9088,
      "content": "<wug#88>",
      "single_word": false,
      "lstrip": false,
      "rstrip": false,
      "normalized": true,
      "special": false
    },
    {
      "id": 9089,
      "content": "<wug#89>",
      "single_word": false,
      "lstrip": false,
      "rstrip": false,
      "normalized": true,
      "special": false
    },
    {
      "id": 9090,
      "content": "<wug#90>",
      "single_word": false,
      "lstrip": false,
      "rstrip": false,
      "normalized": true,
      "special": false
    },
    {
      "id": 9091,
      "content": "<wug#91>",
      "single_word": false,
      "lstrip": false,
      "rstrip": false,
      "normalized": true,
      "special": false
    },
    {
      "id": 9092,
      "content": "<wug#92>",
      "single_word": false,
      "lstrip": false,
      "rstrip": false,
      "normalized": true,
      "special": false
    },
    {
      "id": 9093,
      "content": "<wug#93>",
      "single_word": false,
      "lstrip": false,
      "rstrip": false,
      "normalized": true,
      "special": false
    },
    {
      "id": 9094,
      "content": "<wug#94>",
      "single_word": false,
      "lstrip": false,
      "rstrip": false,
      "normalized": true,
      "special": false
    },
    {
      "id": 9095,
      "content": "<wug#95>",
      "single_word": false,
      "lstrip": false,
      "rstrip": false,
      "normalized": true,
      "special": false
    },
    {
      "id": 9096,
      "content": "<wug#96>",
      "single_word": false,
      "lstrip": false,
      "rstrip": false,
      "normalized": true,
      "special": false
    },
    {
      "id": 9097,
      "content": "<wug#97>",
      "single_word": false,
      "lstrip": false,
      "rstrip": false,
      "normalized": true,
      "special": false
    },
    {
      "id": 9098,
      "content": "<wug#98>",
      "single_word": false,
      "lstrip": false,
      "rstrip": false,
      "normalized": true,
      "special": false
    },
    {
      "id": 9099,
      "content": "<wug#99>",
      "single_word": false,
      "lstrip": false,
      "rstrip": false,
      "normalized": true,
      "special": false
    },
    {
      "id": 9100,
      "content": "<wug#100>",
      "single_word": false,
      "lstrip": false,
      "rstrip": false,
      "normalized": true,
      "special": false
    },
    {
      "id": 9101,
      "content": "<wug#101>",
      "single_word": false,
      "lstrip": false,
      "rstrip": false,
      "normalized": true,
      "special": false
    },
    {
      "id": 9102,
      "content": "<wug#102>",
      "single_word": false,
      "lstrip": false,
      "rstrip": false,
      "normalized": true,
      "special": false
    },
    {
      "id": 9103,
      "content": "<wug#103>",
      "single_word": false,
      "lstrip": false,
      "rstrip": false,
      "normalized": true,
      "special": false
    },
    {
      "id": 9104,
      "content": "<wug#104>",
      "single_word": false,
      "lstrip": false,
      "rstrip": false,
      "normalized": true,
      "special": false
    },
    {
      "id": 9105,
      "content": "<wug#105>",
      "single_word": false,
      "lstrip": false,
      "rstrip": false,
      "normalized": true,
      "special": false
    },
    {
      "id": 9106,
      "content": "<wug#106>",
      "single_word": false,
      "lstrip": false,
      "rstrip": false,
      "normalized": true,
      "special": false
    },
    {
      "id": 9107,
      "content": "<wug#107>",
      "single_word": false,
      "lstrip": false,
      "rstrip": false,
      "normalized": true,
      "special": false
    },
    {
      "id": 9108,
      "content": "<wug#108>",
      "single_word": false,
      "lstrip": false,
      "rstrip": false,
      "normalized": true,
      "special": false
    },
    {
      "id": 9109,
      "content": "<wug#109>",
      "single_word": false,
      "lstrip": false,
      "rstrip": false,
      "normalized": true,
      "special": false
    },
    {
      "id": 9110,
      "content": "<wug#110>",
      "single_word": false,
      "lstrip": false,
      "rstrip": false,
      "normalized": true,
      "special": false
    },
    {
      "id": 9111,
      "content": "<wug#111>",
      "single_word": false,
      "lstrip": false,
      "rstrip": false,
      "normalized": true,
      "special": false
    },
    {
      "id": 9112,
      "content": "<wug#112>",
      "single_word": false,
      "lstrip": false,
      "rstrip": false,
      "normalized": true,
      "special": false
    },
    {
      "id": 9113,
      "content": "<wug#113>",
      "single_word": false,
      "lstrip": false,
      "rstrip": false,
      "normalized": true,
      "special": false
    },
    {
      "id": 9114,
      "content": "<wug#114>",
      "single_word": false,
      "lstrip": false,
      "rstrip": false,
      "normalized": true,
      "special": false
    },
    {
      "id": 9115,
      "content": "<wug#115>",
      "single_word": false,
      "lstrip": false,
      "rstrip": false,
      "normalized": true,
      "special": false
    },
    {
      "id": 9116,
      "content": "<wug#116>",
      "single_word": false,
      "lstrip": false,
      "rstrip": false,
      "normalized": true,
      "special": false
    },
    {
      "id": 9117,
      "content": "<wug#117>",
      "single_word": false,
      "lstrip": false,
      "rstrip": false,
      "normalized": true,
      "special": false
    },
    {
      "id": 9118,
      "content": "<wug#118>",
      "single_word": false,
      "lstrip": false,
      "rstrip": false,
      "normalized": true,
      "special": false
    },
    {
      "id": 9119,
      "content": "<wug#119>",
      "single_word": false,
      "lstrip": false,
      "rstrip": false,
      "normalized": true,
      "special": false
    },
    {
      "id": 9120,
      "content": "<wug#120>",
      "single_word": false,
      "lstrip": false,
      "rstrip": false,
      "normalized": true,
      "special": false
    },
    {
      "id": 9121,
      "content": "<wug#121>",
      "single_word": false,
      "lstrip": false,
      "rstrip": false,
      "normalized": true,
      "special": false
    },
    {
      "id": 9122,
      "content": "<wug#122>",
      "single_word": false,
      "lstrip": false,
      "rstrip": false,
      "normalized": true,
      "special": false
    },
    {
      "id": 9123,
      "content": "<wug#123>",
      "single_word": false,
      "lstrip": false,
      "rstrip": false,
      "normalized": true,
      "special": false
    },
    {
      "id": 9124,
      "content": "<wug#124>",
      "single_word": false,
      "lstrip": false,
      "rstrip": false,
      "normalized": true,
      "special": false
    },
    {
      "id": 9125,
      "content": "<wug#125>",
      "single_word": false,
      "lstrip": false,
      "rstrip": false,
      "normalized": true,
      "special": false
    },
    {
      "id": 9126,
      "content": "<wug#126>",
      "single_word": false,
      "lstrip": false,
      "rstrip": false,
      "normalized": true,
      "special": false
    },
    {
      "id": 9127,
      "content": "<wug#127>",
      "single_word": false,
      "lstrip": false,
      "rstrip": false,
      "normalized": true,
      "special": false
    },
    {
      "id": 9128,
      "content": "<wug#128>",
      "single_word": false,
      "lstrip": false,
      "rstrip": false,
      "normalized": true,
      "special": false
    },
    {
      "id": 9129,
      "content": "<wug#129>",
      "single_word": false,
      "lstrip": false,
      "rstrip": false,
      "normalized": true,
      "special": false
    },
    {
      "id": 9130,
      "content": "<wug#130>",
      "single_word": false,
      "lstrip": false,
      "rstrip": false,
      "normalized": true,
      "special": false
    },
    {
      "id": 9131,
      "content": "<wug#131>",
      "single_word": false,
      "lstrip": false,
      "rstrip": false,
      "normalized": true,
      "special": false
    },
    {
      "id": 9132,
      "content": "<wug#132>",
      "single_word": false,
      "lstrip": false,
      "rstrip": false,
      "normalized": true,
      "special": false
    },
    {
      "id": 9133,
      "content": "<wug#133>",
      "single_word": false,
      "lstrip": false,
      "rstrip": false,
      "normalized": true,
      "special": false
    },
    {
      "id": 9134,
      "content": "<wug#134>",
      "single_word": false,
      "lstrip": false,
      "rstrip": false,
      "normalized": true,
      "special": false
    },
    {
      "id": 9135,
      "content": "<wug#135>",
      "single_word": false,
      "lstrip": false,
      "rstrip": false,
      "normalized": true,
      "special": false
    },
    {
      "id": 9136,
      "content": "<wug#136>",
      "single_word": false,
      "lstrip": false,
      "rstrip": false,
      "normalized": true,
      "special": false
    },
    {
      "id": 9137,
      "content": "<wug#137>",
      "single_word": false,
      "lstrip": false,
      "rstrip": false,
      "normalized": true,
      "special": false
    },
    {
      "id": 9138,
      "content": "<wug#138>",
      "single_word": false,
      "lstrip": false,
      "rstrip": false,
      "normalized": true,
      "special": false
    },
    {
      "id": 9139,
      "content": "<wug#139>",
      "single_word": false,
      "lstrip": false,
      "rstrip": false,
      "normalized": true,
      "special": false
    },
    {
      "id": 9140,
      "content": "<wug#140>",
      "single_word": false,
      "lstrip": false,
      "rstrip": false,
      "normalized": true,
      "special": false
    },
    {
      "id": 9141,
      "content": "<wug#141>",
      "single_word": false,
      "lstrip": false,
      "rstrip": false,
      "normalized": true,
      "special": false
    },
    {
      "id": 9142,
      "content": "<wug#142>",
      "single_word": false,
      "lstrip": false,
      "rstrip": false,
      "normalized": true,
      "special": false
    },
    {
      "id": 9143,
      "content": "<wug#143>",
      "single_word": false,
      "lstrip": false,
      "rstrip": false,
      "normalized": true,
      "special": false
    },
    {
      "id": 9144,
      "content": "<wug#144>",
      "single_word": false,
      "lstrip": false,
      "rstrip": false,
      "normalized": true,
      "special": false
    },
    {
      "id": 9145,
      "content": "<wug#145>",
      "single_word": false,
      "lstrip": false,
      "rstrip": false,
      "normalized": true,
      "special": false
    },
    {
      "id": 9146,
      "content": "<wug#146>",
      "single_word": false,
      "lstrip": false,
      "rstrip": false,
      "normalized": true,
      "special": false
    },
    {
      "id": 9147,
      "content": "<wug#147>",
      "single_word": false,
      "lstrip": false,
      "rstrip": false,
      "normalized": true,
      "special": false
    },
    {
      "id": 9148,
      "content": "<wug#148>",
      "single_word": false,
      "lstrip": false,
      "rstrip": false,
      "normalized": true,
      "special": false
    },
    {
      "id": 9149,
      "content": "<wug#149>",
      "single_word": false,
      "lstrip": false,
      "rstrip": false,
      "normalized": true,
      "special": false
    },
    {
      "id": 9150,
      "content": "<wug#150>",
      "single_word": false,
      "lstrip": false,
      "rstrip": false,
      "normalized": true,
      "special": false
    },
    {
      "id": 9151,
      "content": "<wug#151>",
      "single_word": false,
      "lstrip": false,
      "rstrip": false,
      "normalized": true,
      "special": false
    },
    {
      "id": 9152,
      "content": "<wug#152>",
      "single_word": false,
      "lstrip": false,
      "rstrip": false,
      "normalized": true,
      "special": false
    },
    {
      "id": 9153,
      "content": "<wug#153>",
      "single_word": false,
      "lstrip": false,
      "rstrip": false,
      "normalized": true,
      "special": false
    },
    {
      "id": 9154,
      "content": "<wug#154>",
      "single_word": false,
      "lstrip": false,
      "rstrip": false,
      "normalized": true,
      "special": false
    },
    {
      "id": 9155,
      "content": "<wug#155>",
      "single_word": false,
      "lstrip": false,
      "rstrip": false,
      "normalized": true,
      "special": false
    },
    {
      "id": 9156,
      "content": "<wug#156>",
      "single_word": false,
      "lstrip": false,
      "rstrip": false,
      "normalized": true,
      "special": false
    },
    {
      "id": 9157,
      "content": "<wug#157>",
      "single_word": false,
      "lstrip": false,
      "rstrip": false,
      "normalized": true,
      "special": false
    },
    {
      "id": 9158,
      "content": "<wug#158>",
      "single_word": false,
      "lstrip": false,
      "rstrip": false,
      "normalized": true,
      "special": false
    },
    {
      "id": 9159,
      "content": "<wug#159>",
      "single_word": false,
      "lstrip": false,
      "rstrip": false,
      "normalized": true,
      "special": false
    },
    {
      "id": 9160,
      "content": "<wug#160>",
      "single_word": false,
      "lstrip": false,
      "rstrip": false,
      "normalized": true,
      "special": false
    },
    {
      "id": 9161,
      "content": "<wug#161>",
      "single_word": false,
      "lstrip": false,
      "rstrip": false,
      "normalized": true,
      "special": false
    },
    {
      "id": 9162,
      "content": "<wug#162>",
      "single_word": false,
      "lstrip": false,
      "rstrip": false,
      "normalized": true,
      "special": false
    },
    {
      "id": 9163,
      "content": "<wug#163>",
      "single_word": false,
      "lstrip": false,
      "rstrip": false,
      "normalized": true,
      "special": false
    },
    {
      "id": 9164,
      "content": "<wug#164>",
      "single_word": false,
      "lstrip": false,
      "rstrip": false,
      "normalized": true,
      "special": false
    },
    {
      "id": 9165,
      "content": "<wug#165>",
      "single_word": false,
      "lstrip": false,
      "rstrip": false,
      "normalized": true,
      "special": false
    },
    {
      "id": 9166,
      "content": "<wug#166>",
      "single_word": false,
      "lstrip": false,
      "rstrip": false,
      "normalized": true,
      "special": false
    },
    {
      "id": 9167,
      "content": "<wug#167>",
      "single_word": false,
      "lstrip": false,
      "rstrip": false,
      "normalized": true,
      "special": false
    },
    {
      "id": 9168,
      "content": "<wug#168>",
      "single_word": false,
      "lstrip": false,
      "rstrip": false,
      "normalized": true,
      "special": false
    },
    {
      "id": 9169,
      "content": "<wug#169>",
      "single_word": false,
      "lstrip": false,
      "rstrip": false,
      "normalized": true,
      "special": false
    },
    {
      "id": 9170,
      "content": "<wug#170>",
      "single_word": false,
      "lstrip": false,
      "rstrip": false,
      "normalized": true,
      "special": false
    },
    {
      "id": 9171,
      "content": "<wug#171>",
      "single_word": false,
      "lstrip": false,
      "rstrip": false,
      "normalized": true,
      "special": false
    },
    {
      "id": 9172,
      "content": "<wug#172>",
      "single_word": false,
      "lstrip": false,
      "rstrip": false,
      "normalized": true,
      "special": false
    },
    {
      "id": 9173,
      "content": "<wug#173>",
      "single_word": false,
      "lstrip": false,
      "rstrip": false,
      "normalized": true,
      "special": false
    },
    {
      "id": 9174,
      "content": "<wug#174>",
      "single_word": false,
      "lstrip": false,
      "rstrip": false,
      "normalized": true,
      "special": false
    },
    {
      "id": 9175,
      "content": "<wug#175>",
      "single_word": false,
      "lstrip": false,
      "rstrip": false,
      "normalized": true,
      "special": false
    },
    {
      "id": 9176,
      "content": "<wug#176>",
      "single_word": false,
      "lstrip": false,
      "rstrip": false,
      "normalized": true,
      "special": false
    },
    {
      "id": 9177,
      "content": "<wug#177>",
      "single_word": false,
      "lstrip": false,
      "rstrip": false,
      "normalized": true,
      "special": false
    },
    {
      "id": 9178,
      "content": "<wug#178>",
      "single_word": false,
      "lstrip": false,
      "rstrip": false,
      "normalized": true,
      "special": false
    },
    {
      "id": 9179,
      "content": "<wug#179>",
      "single_word": false,
      "lstrip": false,
      "rstrip": false,
      "normalized": true,
      "special": false
    },
    {
      "id": 9180,
      "content": "<wug#180>",
      "single_word": false,
      "lstrip": false,
      "rstrip": false,
      "normalized": true,
      "special": false
    },
    {
      "id": 9181,
      "content": "<wug#181>",
      "single_word": false,
      "lstrip": false,
      "rstrip": false,
      "normalized": true,
      "special": false
    },
    {
      "id": 9182,
      "content": "<wug#182>",
      "single_word": false,
      "lstrip": false,
      "rstrip": false,
      "normalized": true,
      "special": false
    },
    {
      "id": 9183,
      "content": "<wug#183>",
      "single_word": false,
      "lstrip": false,
      "rstrip": false,
      "normalized": true,
      "special": false
    },
    {
      "id": 9184,
      "content": "<wug#184>",
      "single_word": false,
      "lstrip": false,
      "rstrip": false,
      "normalized": true,
      "special": false
    },
    {
      "id": 9185,
      "content": "<wug#185>",
      "single_word": false,
      "lstrip": false,
      "rstrip": false,
      "normalized": true,
      "special": false
    },
    {
      "id": 9186,
      "content": "<wug#186>",
      "single_word": false,
      "lstrip": false,
      "rstrip": false,
      "normalized": true,
      "special": false
    },
    {
      "id": 9187,
      "content": "<wug#187>",
      "single_word": false,
      "lstrip": false,
      "rstrip": false,
      "normalized": true,
      "special": false
    },
    {
      "id": 9188,
      "content": "<wug#188>",
      "single_word": false,
      "lstrip": false,
      "rstrip": false,
      "normalized": true,
      "special": false
    },
    {
      "id": 9189,
      "content": "<wug#189>",
      "single_word": false,
      "lstrip": false,
      "rstrip": false,
      "normalized": true,
      "special": false
    },
    {
      "id": 9190,
      "content": "<wug#190>",
      "single_word": false,
      "lstrip": false,
      "rstrip": false,
      "normalized": true,
      "special": false
    },
    {
      "id": 9191,
      "content": "<wug#191>",
      "single_word": false,
      "lstrip": false,
      "rstrip": false,
      "normalized": true,
      "special": false
    },
    {
      "id": 9192,
      "content": "<wug#192>",
      "single_word": false,
      "lstrip": false,
      "rstrip": false,
      "normalized": true,
      "special": false
    },
    {
      "id": 9193,
      "content": "<wug#193>",
      "single_word": false,
      "lstrip": false,
      "rstrip": false,
      "normalized": true,
      "special": false
    },
    {
      "id": 9194,
      "content": "<wug#194>",
      "single_word": false,
      "lstrip": false,
      "rstrip": false,
      "normalized": true,
      "special": false
    },
    {
      "id": 9195,
      "content": "<wug#195>",
      "single_word": false,
      "lstrip": false,
      "rstrip": false,
      "normalized": true,
      "special": false
    },
    {
      "id": 9196,
      "content": "<wug#196>",
      "single_word": false,
      "lstrip": false,
      "rstrip": false,
      "normalized": true,
      "special": false
    },
    {
      "id": 9197,
      "content": "<wug#197>",
      "single_word": false,
      "lstrip": false,
      "rstrip": false,
      "normalized": true,
      "special": false
    },
    {
      "id": 9198,
      "content": "<wug#198>",
      "single_word": false,
      "lstrip": false,
      "rstrip": false,
      "normalized": true,
      "special": false
    },
    {
      "id": 9199,
      "content": "<wug#199>",
      "single_word": false,
      "lstrip": false,
      "rstrip": false,
      "normalized": true,
      "special": false
    },
    {
      "id": 9200,
      "content": "<wug#200>",
      "single_word": false,
      "lstrip": false,
      "rstrip": false,
      "normalized": true,
      "special": false
    },
    {
      "id": 9201,
      "content": "<wug#201>",
      "single_word": false,
      "lstrip": false,
      "rstrip": false,
      "normalized": true,
      "special": false
    },
    {
      "id": 9202,
      "content": "<wug#202>",
      "single_word": false,
      "lstrip": false,
      "rstrip": false,
      "normalized": true,
      "special": false
    },
    {
      "id": 9203,
      "content": "<wug#203>",
      "single_word": false,
      "lstrip": false,
      "rstrip": false,
      "normalized": true,
      "special": false
    },
    {
      "id": 9204,
      "content": "<wug#204>",
      "single_word": false,
      "lstrip": false,
      "rstrip": false,
      "normalized": true,
      "special": false
    },
    {
      "id": 9205,
      "content": "<wug#205>",
      "single_word": false,
      "lstrip": false,
      "rstrip": false,
      "normalized": true,
      "special": false
    },
    {
      "id": 9206,
      "content": "<wug#206>",
      "single_word": false,
      "lstrip": false,
      "rstrip": false,
      "normalized": true,
      "special": false
    },
    {
      "id": 9207,
      "content": "<wug#207>",
      "single_word": false,
      "lstrip": false,
      "rstrip": false,
      "normalized": true,
      "special": false
    },
    {
      "id": 9208,
      "content": "<wug#208>",
      "single_word": false,
      "lstrip": false,
      "rstrip": false,
      "normalized": true,
      "special": false
    },
    {
      "id": 9209,
      "content": "<wug#209>",
      "single_word": false,
      "lstrip": false,
      "rstrip": false,
      "normalized": true,
      "special": false
    },
    {
      "id": 9210,
      "content": "<wug#210>",
      "single_word": false,
      "lstrip": false,
      "rstrip": false,
      "normalized": true,
      "special": false
    },
    {
      "id": 9211,
      "content": "<wug#211>",
      "single_word": false,
      "lstrip": false,
      "rstrip": false,
      "normalized": true,
      "special": false
    },
    {
      "id": 9212,
      "content": "<wug#212>",
      "single_word": false,
      "lstrip": false,
      "rstrip": false,
      "normalized": true,
      "special": false
    },
    {
      "id": 9213,
      "content": "<wug#213>",
      "single_word": false,
      "lstrip": false,
      "rstrip": false,
      "normalized": true,
      "special": false
    },
    {
      "id": 9214,
      "content": "<wug#214>",
      "single_word": false,
      "lstrip": false,
      "rstrip": false,
      "normalized": true,
      "special": false
    },
    {
      "id": 9215,
      "content": "<wug#215>",
      "single_word": false,
      "lstrip": false,
      "rstrip": false,
      "normalized": true,
      "special": false
    },
    {
      "id": 9216,
      "content": "<wug#216>",
      "single_word": false,
      "lstrip": false,
      "rstrip": false,
      "normalized": true,
      "special": false
    },
    {
      "id": 9217,
      "content": "<wug#217>",
      "single_word": false,
      "lstrip": false,
      "rstrip": false,
      "normalized": true,
      "special": false
    },
    {
      "id": 9218,
      "content": "<wug#218>",
      "single_word": false,
      "lstrip": false,
      "rstrip": false,
      "normalized": true,
      "special": false
    },
    {
      "id": 9219,
      "content": "<wug#219>",
      "single_word": false,
      "lstrip": false,
      "rstrip": false,
      "normalized": true,
      "special": false
    },
    {
      "id": 9220,
      "content": "<wug#220>",
      "single_word": false,
      "lstrip": false,
      "rstrip": false,
      "normalized": true,
      "special": false
    },
    {
      "id": 9221,
      "content": "<wug#221>",
      "single_word": false,
      "lstrip": false,
      "rstrip": false,
      "normalized": true,
      "special": false
    },
    {
      "id": 9222,
      "content": "<wug#222>",
      "single_word": false,
      "lstrip": false,
      "rstrip": false,
      "normalized": true,
      "special": false
    },
    {
      "id": 9223,
      "content": "<wug#223>",
      "single_word": false,
      "lstrip": false,
      "rstrip": false,
      "normalized": true,
      "special": false
    },
    {
      "id": 9224,
      "content": "<wug#224>",
      "single_word": false,
      "lstrip": false,
      "rstrip": false,
      "normalized": true,
      "special": false
    },
    {
      "id": 9225,
      "content": "<wug#225>",
      "single_word": false,
      "lstrip": false,
      "rstrip": false,
      "normalized": true,
      "special": false
    },
    {
      "id": 9226,
      "content": "<wug#226>",
      "single_word": false,
      "lstrip": false,
      "rstrip": false,
      "normalized": true,
      "special": false
    },
    {
      "id": 9227,
      "content": "<wug#227>",
      "single_word": false,
      "lstrip": false,
      "rstrip": false,
      "normalized": true,
      "special": false
    },
    {
      "id": 9228,
      "content": "<wug#228>",
      "single_word": false,
      "lstrip": false,
      "rstrip": false,
      "normalized": true,
      "special": false
    },
    {
      "id": 9229,
      "content": "<wug#229>",
      "single_word": false,
      "lstrip": false,
      "rstrip": false,
      "normalized": true,
      "special": false
    },
    {
      "id": 9230,
      "content": "<wug#230>",
      "single_word": false,
      "lstrip": false,
      "rstrip": false,
      "normalized": true,
      "special": false
    },
    {
      "id": 9231,
      "content": "<wug#231>",
      "single_word": false,
      "lstrip": false,
      "rstrip": false,
      "normalized": true,
      "special": false
    },
    {
      "id": 9232,
      "content": "<wug#232>",
      "single_word": false,
      "lstrip": false,
      "rstrip": false,
      "normalized": true,
      "special": false
    },
    {
      "id": 9233,
      "content": "<wug#233>",
      "single_word": false,
      "lstrip": false,
      "rstrip": false,
      "normalized": true,
      "special": false
    },
    {
      "id": 9234,
      "content": "<wug#234>",
      "single_word": false,
      "lstrip": false,
      "rstrip": false,
      "normalized": true,
      "special": false
    },
    {
      "id": 9235,
      "content": "<wug#235>",
      "single_word": false,
      "lstrip": false,
      "rstrip": false,
      "normalized": true,
      "special": false
    },
    {
      "id": 9236,
      "content": "<wug#236>",
      "single_word": false,
      "lstrip": false,
      "rstrip": false,
      "normalized": true,
      "special": false
    },
    {
      "id": 9237,
      "content": "<wug#237>",
      "single_word": false,
      "lstrip": false,
      "rstrip": false,
      "normalized": true,
      "special": false
    },
    {
      "id": 9238,
      "content": "<wug#238>",
      "single_word": false,
      "lstrip": false,
      "rstrip": false,
      "normalized": true,
      "special": false
    },
    {
      "id": 9239,
      "content": "<wug#239>",
      "single_word": false,
      "lstrip": false,
      "rstrip": false,
      "normalized": true,
      "special": false
    },
    {
      "id": 9240,
      "content": "<wug#240>",
      "single_word": false,
      "lstrip": false,
      "rstrip": false,
      "normalized": true,
      "special": false
    },
    {
      "id": 9241,
      "content": "<wug#241>",
      "single_word": false,
      "lstrip": false,
      "rstrip": false,
      "normalized": true,
      "special": false
    },
    {
      "id": 9242,
      "content": "<wug#242>",
      "single_word": false,
      "lstrip": false,
      "rstrip": false,
      "normalized": true,
      "special": false
    },
    {
      "id": 9243,
      "content": "<wug#243>",
      "single_word": false,
      "lstrip": false,
      "rstrip": false,
      "normalized": true,
      "special": false
    },
    {
      "id": 9244,
      "content": "<wug#244>",
      "single_word": false,
      "lstrip": false,
      "rstrip": false,
      "normalized": true,
      "special": false
    },
    {
      "id": 9245,
      "content": "<wug#245>",
      "single_word": false,
      "lstrip": false,
      "rstrip": false,
      "normalized": true,
      "special": false
    },
    {
      "id": 9246,
      "content": "<wug#246>",
      "single_word": false,
      "lstrip": false,
      "rstrip": false,
      "normalized": true,
      "special": false
    },
    {
      "id": 9247,
      "content": "<wug#247>",
      "single_word": false,
      "lstrip": false,
      "rstrip": false,
      "normalized": true,
      "special": false
    },
    {
      "id": 9248,
      "content": "<wug#248>",
      "single_word": false,
      "lstrip": false,
      "rstrip": false,
      "normalized": true,
      "special": false
    },
    {
      "id": 9249,
      "content": "<wug#249>",
      "single_word": false,
      "lstrip": false,
      "rstrip": false,
      "normalized": true,
      "special": false
    },
    {
      "id": 9250,
      "content": "<wug#250>",
      "single_word": false,
      "lstrip": false,
      "rstrip": false,
      "normalized": true,
      "special": false
    },
    {
      "id": 9251,
      "content": "<wug#251>",
      "single_word": false,
      "lstrip": false,
      "rstrip": false,
      "normalized": true,
      "special": false
    },
    {
      "id": 9252,
      "content": "<wug#252>",
      "single_word": false,
      "lstrip": false,
      "rstrip": false,
      "normalized": true,
      "special": false
    },
    {
      "id": 9253,
      "content": "<wug#253>",
      "single_word": false,
      "lstrip": false,
      "rstrip": false,
      "normalized": true,
      "special": false
    },
    {
      "id": 9254,
      "content": "<wug#254>",
      "single_word": false,
      "lstrip": false,
      "rstrip": false,
      "normalized": true,
      "special": false
    },
    {
      "id": 9255,
      "content": "<wug#255>",
      "single_word": false,
      "lstrip": false,
      "rstrip": false,
      "normalized": true,
      "special": false
    },
    {
      "id": 9256,
      "content": "<wug#256>",
      "single_word": false,
      "lstrip": false,
      "rstrip": false,
      "normalized": true,
      "special": false
    },
    {
      "id": 9257,
      "content": "<wug#257>",
      "single_word": false,
      "lstrip": false,
      "rstrip": false,
      "normalized": true,
      "special": false
    },
    {
      "id": 9258,
      "content": "<wug#258>",
      "single_word": false,
      "lstrip": false,
      "rstrip": false,
      "normalized": true,
      "special": false
    },
    {
      "id": 9259,
      "content": "<wug#259>",
      "single_word": false,
      "lstrip": false,
      "rstrip": false,
      "normalized": true,
      "special": false
    },
    {
      "id": 9260,
      "content": "<wug#260>",
      "single_word": false,
      "lstrip": false,
      "rstrip": false,
      "normalized": true,
      "special": false
    },
    {
      "id": 9261,
      "content": "<wug#261>",
      "single_word": false,
      "lstrip": false,
      "rstrip": false,
      "normalized": true,
      "special": false
    },
    {
      "id": 9262,
      "content": "<wug#262>",
      "single_word": false,
      "lstrip": false,
      "rstrip": false,
      "normalized": true,
      "special": false
    },
    {
      "id": 9263,
      "content": "<wug#263>",
      "single_word": false,
      "lstrip": false,
      "rstrip": false,
      "normalized": true,
      "special": false
    },
    {
      "id": 9264,
      "content": "<wug#264>",
      "single_word": false,
      "lstrip": false,
      "rstrip": false,
      "normalized": true,
      "special": false
    },
    {
      "id": 9265,
      "content": "<wug#265>",
      "single_word": false,
      "lstrip": false,
      "rstrip": false,
      "normalized": true,
      "special": false
    },
    {
      "id": 9266,
      "content": "<wug#266>",
      "single_word": false,
      "lstrip": false,
      "rstrip": false,
      "normalized": true,
      "special": false
    },
    {
      "id": 9267,
      "content": "<wug#267>",
      "single_word": false,
      "lstrip": false,
      "rstrip": false,
      "normalized": true,
      "special": false
    },
    {
      "id": 9268,
      "content": "<wug#268>",
      "single_word": false,
      "lstrip": false,
      "rstrip": false,
      "normalized": true,
      "special": false
    },
    {
      "id": 9269,
      "content": "<wug#269>",
      "single_word": false,
      "lstrip": false,
      "rstrip": false,
      "normalized": true,
      "special": false
    },
    {
      "id": 9270,
      "content": "<wug#270>",
      "single_word": false,
      "lstrip": false,
      "rstrip": false,
      "normalized": true,
      "special": false
    },
    {
      "id": 9271,
      "content": "<wug#271>",
      "single_word": false,
      "lstrip": false,
      "rstrip": false,
      "normalized": true,
      "special": false
    },
    {
      "id": 9272,
      "content": "<wug#272>",
      "single_word": false,
      "lstrip": false,
      "rstrip": false,
      "normalized": true,
      "special": false
    },
    {
      "id": 9273,
      "content": "<wug#273>",
      "single_word": false,
      "lstrip": false,
      "rstrip": false,
      "normalized": true,
      "special": false
    },
    {
      "id": 9274,
      "content": "<wug#274>",
      "single_word": false,
      "lstrip": false,
      "rstrip": false,
      "normalized": true,
      "special": false
    },
    {
      "id": 9275,
      "content": "<wug#275>",
      "single_word": false,
      "lstrip": false,
      "rstrip": false,
      "normalized": true,
      "special": false
    },
    {
      "id": 9276,
      "content": "<wug#276>",
      "single_word": false,
      "lstrip": false,
      "rstrip": false,
      "normalized": true,
      "special": false
    },
    {
      "id": 9277,
      "content": "<wug#277>",
      "single_word": false,
      "lstrip": false,
      "rstrip": false,
      "normalized": true,
      "special": false
    },
    {
      "id": 9278,
      "content": "<wug#278>",
      "single_word": false,
      "lstrip": false,
      "rstrip": false,
      "normalized": true,
      "special": false
    },
    {
      "id": 9279,
      "content": "<wug#279>",
      "single_word": false,
      "lstrip": false,
      "rstrip": false,
      "normalized": true,
      "special": false
    },
    {
      "id": 9280,
      "content": "<wug#280>",
      "single_word": false,
      "lstrip": false,
      "rstrip": false,
      "normalized": true,
      "special": false
    },
    {
      "id": 9281,
      "content": "<wug#281>",
      "single_word": false,
      "lstrip": false,
      "rstrip": false,
      "normalized": true,
      "special": false
    },
    {
      "id": 9282,
      "content": "<wug#282>",
      "single_word": false,
      "lstrip": false,
      "rstrip": false,
      "normalized": true,
      "special": false
    },
    {
      "id": 9283,
      "content": "<wug#283>",
      "single_word": false,
      "lstrip": false,
      "rstrip": false,
      "normalized": true,
      "special": false
    },
    {
      "id": 9284,
      "content": "<wug#284>",
      "single_word": false,
      "lstrip": false,
      "rstrip": false,
      "normalized": true,
      "special": false
    },
    {
      "id": 9285,
      "content": "<wug#285>",
      "single_word": false,
      "lstrip": false,
      "rstrip": false,
      "normalized": true,
      "special": false
    },
    {
      "id": 9286,
      "content": "<wug#286>",
      "single_word": false,
      "lstrip": false,
      "rstrip": false,
      "normalized": true,
      "special": false
    },
    {
      "id": 9287,
      "content": "<wug#287>",
      "single_word": false,
      "lstrip": false,
      "rstrip": false,
      "normalized": true,
      "special": false
    },
    {
      "id": 9288,
      "content": "<wug#288>",
      "single_word": false,
      "lstrip": false,
      "rstrip": false,
      "normalized": true,
      "special": false
    },
    {
      "id": 9289,
      "content": "<wug#289>",
      "single_word": false,
      "lstrip": false,
      "rstrip": false,
      "normalized": true,
      "special": false
    },
    {
      "id": 9290,
      "content": "<wug#290>",
      "single_word": false,
      "lstrip": false,
      "rstrip": false,
      "normalized": true,
      "special": false
    },
    {
      "id": 9291,
      "content": "<wug#291>",
      "single_word": false,
      "lstrip": false,
      "rstrip": false,
      "normalized": true,
      "special": false
    },
    {
      "id": 9292,
      "content": "<wug#292>",
      "single_word": false,
      "lstrip": false,
      "rstrip": false,
      "normalized": true,
      "special": false
    },
    {
      "id": 9293,
      "content": "<wug#293>",
      "single_word": false,
      "lstrip": false,
      "rstrip": false,
      "normalized": true,
      "special": false
    },
    {
      "id": 9294,
      "content": "<wug#294>",
      "single_word": false,
      "lstrip": false,
      "rstrip": false,
      "normalized": true,
      "special": false
    },
    {
      "id": 9295,
      "content": "<wug#295>",
      "single_word": false,
      "lstrip": false,
      "rstrip": false,
      "normalized": true,
      "special": false
    },
    {
      "id": 9296,
      "content": "<wug#296>",
      "single_word": false,
      "lstrip": false,
      "rstrip": false,
      "normalized": true,
      "special": false
    },
    {
      "id": 9297,
      "content": "<wug#297>",
      "single_word": false,
      "lstrip": false,
      "rstrip": false,
      "normalized": true,
      "special": false
    },
    {
      "id": 9298,
      "content": "<wug#298>",
      "single_word": false,
      "lstrip": false,
      "rstrip": false,
      "normalized": true,
      "special": false
    },
    {
      "id": 9299,
      "content": "<wug#299>",
      "single_word": false,
      "lstrip": false,
      "rstrip": false,
      "normalized": true,
      "special": false
    },
    {
      "id": 9300,
      "content": "<wug#300>",
      "single_word": false,
      "lstrip": false,
      "rstrip": false,
      "normalized": true,
      "special": false
    },
    {
      "id": 9301,
      "content": "<wug#301>",
      "single_word": false,
      "lstrip": false,
      "rstrip": false,
      "normalized": true,
      "special": false
    },
    {
      "id": 9302,
      "content": "<wug#302>",
      "single_word": false,
      "lstrip": false,
      "rstrip": false,
      "normalized": true,
      "special": false
    },
    {
      "id": 9303,
      "content": "<wug#303>",
      "single_word": false,
      "lstrip": false,
      "rstrip": false,
      "normalized": true,
      "special": false
    },
    {
      "id": 9304,
      "content": "<wug#304>",
      "single_word": false,
      "lstrip": false,
      "rstrip": false,
      "normalized": true,
      "special": false
    },
    {
      "id": 9305,
      "content": "<wug#305>",
      "single_word": false,
      "lstrip": false,
      "rstrip": false,
      "normalized": true,
      "special": false
    },
    {
      "id": 9306,
      "content": "<wug#306>",
      "single_word": false,
      "lstrip": false,
      "rstrip": false,
      "normalized": true,
      "special": false
    },
    {
      "id": 9307,
      "content": "<wug#307>",
      "single_word": false,
      "lstrip": false,
      "rstrip": false,
      "normalized": true,
      "special": false
    },
    {
      "id": 9308,
      "content": "<wug#308>",
      "single_word": false,
      "lstrip": false,
      "rstrip": false,
      "normalized": true,
      "special": false
    },
    {
      "id": 9309,
      "content": "<wug#309>",
      "single_word": false,
      "lstrip": false,
      "rstrip": false,
      "normalized": true,
      "special": false
    },
    {
      "id": 9310,
      "content": "<wug#310>",
      "single_word": false,
      "lstrip": false,
      "rstrip": false,
      "normalized": true,
      "special": false
    },
    {
      "id": 9311,
      "content": "<wug#311>",
      "single_word": false,
      "lstrip": false,
      "rstrip": false,
      "normalized": true,
      "special": false
    },
    {
      "id": 9312,
      "content": "<wug#312>",
      "single_word": false,
      "lstrip": false,
      "rstrip": false,
      "normalized": true,
      "special": false
    },
    {
      "id": 9313,
      "content": "<wug#313>",
      "single_word": false,
      "lstrip": false,
      "rstrip": false,
      "normalized": true,
      "special": false
    },
    {
      "id": 9314,
      "content": "<wug#314>",
      "single_word": false,
      "lstrip": false,
      "rstrip": false,
      "normalized": true,
      "special": false
    },
    {
      "id": 9315,
      "content": "<wug#315>",
      "single_word": false,
      "lstrip": false,
      "rstrip": false,
      "normalized": true,
      "special": false
    },
    {
      "id": 9316,
      "content": "<wug#316>",
      "single_word": false,
      "lstrip": false,
      "rstrip": false,
      "normalized": true,
      "special": false
    },
    {
      "id": 9317,
      "content": "<wug#317>",
      "single_word": false,
      "lstrip": false,
      "rstrip": false,
      "normalized": true,
      "special": false
    },
    {
      "id": 9318,
      "content": "<wug#318>",
      "single_word": false,
      "lstrip": false,
      "rstrip": false,
      "normalized": true,
      "special": false
    },
    {
      "id": 9319,
      "content": "<wug#319>",
      "single_word": false,
      "lstrip": false,
      "rstrip": false,
      "normalized": true,
      "special": false
    },
    {
      "id": 9320,
      "content": "<wug#320>",
      "single_word": false,
      "lstrip": false,
      "rstrip": false,
      "normalized": true,
      "special": false
    },
    {
      "id": 9321,
      "content": "<wug#321>",
      "single_word": false,
      "lstrip": false,
      "rstrip": false,
      "normalized": true,
      "special": false
    },
    {
      "id": 9322,
      "content": "<wug#322>",
      "single_word": false,
      "lstrip": false,
      "rstrip": false,
      "normalized": true,
      "special": false
    },
    {
      "id": 9323,
      "content": "<wug#323>",
      "single_word": false,
      "lstrip": false,
      "rstrip": false,
      "normalized": true,
      "special": false
    },
    {
      "id": 9324,
      "content": "<wug#324>",
      "single_word": false,
      "lstrip": false,
      "rstrip": false,
      "normalized": true,
      "special": false
    },
    {
      "id": 9325,
      "content": "<wug#325>",
      "single_word": false,
      "lstrip": false,
      "rstrip": false,
      "normalized": true,
      "special": false
    },
    {
      "id": 9326,
      "content": "<wug#326>",
      "single_word": false,
      "lstrip": false,
      "rstrip": false,
      "normalized": true,
      "special": false
    },
    {
      "id": 9327,
      "content": "<wug#327>",
      "single_word": false,
      "lstrip": false,
      "rstrip": false,
      "normalized": true,
      "special": false
    },
    {
      "id": 9328,
      "content": "<wug#328>",
      "single_word": false,
      "lstrip": false,
      "rstrip": false,
      "normalized": true,
      "special": false
    },
    {
      "id": 9329,
      "content": "<wug#329>",
      "single_word": false,
      "lstrip": false,
      "rstrip": false,
      "normalized": true,
      "special": false
    },
    {
      "id": 9330,
      "content": "<wug#330>",
      "single_word": false,
      "lstrip": false,
      "rstrip": false,
      "normalized": true,
      "special": false
    },
    {
      "id": 9331,
      "content": "<wug#331>",
      "single_word": false,
      "lstrip": false,
      "rstrip": false,
      "normalized": true,
      "special": false
    },
    {
      "id": 9332,
      "content": "<wug#332>",
      "single_word": false,
      "lstrip": false,
      "rstrip": false,
      "normalized": true,
      "special": false
    },
    {
      "id": 9333,
      "content": "<wug#333>",
      "single_word": false,
      "lstrip": false,
      "rstrip": false,
      "normalized": true,
      "special": false
    },
    {
      "id": 9334,
      "content": "<wug#334>",
      "single_word": false,
      "lstrip": false,
      "rstrip": false,
      "normalized": true,
      "special": false
    },
    {
      "id": 9335,
      "content": "<wug#335>",
      "single_word": false,
      "lstrip": false,
      "rstrip": false,
      "normalized": true,
      "special": false
    },
    {
      "id": 9336,
      "content": "<wug#336>",
      "single_word": false,
      "lstrip": false,
      "rstrip": false,
      "normalized": true,
      "special": false
    },
    {
      "id": 9337,
      "content": "<wug#337>",
      "single_word": false,
      "lstrip": false,
      "rstrip": false,
      "normalized": true,
      "special": false
    },
    {
      "id": 9338,
      "content": "<wug#338>",
      "single_word": false,
      "lstrip": false,
      "rstrip": false,
      "normalized": true,
      "special": false
    },
    {
      "id": 9339,
      "content": "<wug#339>",
      "single_word": false,
      "lstrip": false,
      "rstrip": false,
      "normalized": true,
      "special": false
    },
    {
      "id": 9340,
      "content": "<wug#340>",
      "single_word": false,
      "lstrip": false,
      "rstrip": false,
      "normalized": true,
      "special": false
    },
    {
      "id": 9341,
      "content": "<wug#341>",
      "single_word": false,
      "lstrip": false,
      "rstrip": false,
      "normalized": true,
      "special": false
    },
    {
      "id": 9342,
      "content": "<wug#342>",
      "single_word": false,
      "lstrip": false,
      "rstrip": false,
      "normalized": true,
      "special": false
    },
    {
      "id": 9343,
      "content": "<wug#343>",
      "single_word": false,
      "lstrip": false,
      "rstrip": false,
      "normalized": true,
      "special": false
    },
    {
      "id": 9344,
      "content": "<wug#344>",
      "single_word": false,
      "lstrip": false,
      "rstrip": false,
      "normalized": true,
      "special": false
    },
    {
      "id": 9345,
      "content": "<wug#345>",
      "single_word": false,
      "lstrip": false,
      "rstrip": false,
      "normalized": true,
      "special": false
    },
    {
      "id": 9346,
      "content": "<wug#346>",
      "single_word": false,
      "lstrip": false,
      "rstrip": false,
      "normalized": true,
      "special": false
    },
    {
      "id": 9347,
      "content": "<wug#347>",
      "single_word": false,
      "lstrip": false,
      "rstrip": false,
      "normalized": true,
      "special": false
    },
    {
      "id": 9348,
      "content": "<wug#348>",
      "single_word": false,
      "lstrip": false,
      "rstrip": false,
      "normalized": true,
      "special": false
    },
    {
      "id": 9349,
      "content": "<wug#349>",
      "single_word": false,
      "lstrip": false,
      "rstrip": false,
      "normalized": true,
      "special": false
    },
    {
      "id": 9350,
      "content": "<wug#350>",
      "single_word": false,
      "lstrip": false,
      "rstrip": false,
      "normalized": true,
      "special": false
    },
    {
      "id": 9351,
      "content": "<wug#351>",
      "single_word": false,
      "lstrip": false,
      "rstrip": false,
      "normalized": true,
      "special": false
    },
    {
      "id": 9352,
      "content": "<wug#352>",
      "single_word": false,
      "lstrip": false,
      "rstrip": false,
      "normalized": true,
      "special": false
    },
    {
      "id": 9353,
      "content": "<wug#353>",
      "single_word": false,
      "lstrip": false,
      "rstrip": false,
      "normalized": true,
      "special": false
    },
    {
      "id": 9354,
      "content": "<wug#354>",
      "single_word": false,
      "lstrip": false,
      "rstrip": false,
      "normalized": true,
      "special": false
    },
    {
      "id": 9355,
      "content": "<wug#355>",
      "single_word": false,
      "lstrip": false,
      "rstrip": false,
      "normalized": true,
      "special": false
    },
    {
      "id": 9356,
      "content": "<wug#356>",
      "single_word": false,
      "lstrip": false,
      "rstrip": false,
      "normalized": true,
      "special": false
    },
    {
      "id": 9357,
      "content": "<wug#357>",
      "single_word": false,
      "lstrip": false,
      "rstrip": false,
      "normalized": true,
      "special": false
    },
    {
      "id": 9358,
      "content": "<wug#358>",
      "single_word": false,
      "lstrip": false,
      "rstrip": false,
      "normalized": true,
      "special": false
    },
    {
      "id": 9359,
      "content": "<wug#359>",
      "single_word": false,
      "lstrip": false,
      "rstrip": false,
      "normalized": true,
      "special": false
    },
    {
      "id": 9360,
      "content": "<wug#360>",
      "single_word": false,
      "lstrip": false,
      "rstrip": false,
      "normalized": true,
      "special": false
    },
    {
      "id": 9361,
      "content": "<wug#361>",
      "single_word": false,
      "lstrip": false,
      "rstrip": false,
      "normalized": true,
      "special": false
    },
    {
      "id": 9362,
      "content": "<wug#362>",
      "single_word": false,
      "lstrip": false,
      "rstrip": false,
      "normalized": true,
      "special": false
    },
    {
      "id": 9363,
      "content": "<wug#363>",
      "single_word": false,
      "lstrip": false,
      "rstrip": false,
      "normalized": true,
      "special": false
    },
    {
      "id": 9364,
      "content": "<wug#364>",
      "single_word": false,
      "lstrip": false,
      "rstrip": false,
      "normalized": true,
      "special": false
    },
    {
      "id": 9365,
      "content": "<wug#365>",
      "single_word": false,
      "lstrip": false,
      "rstrip": false,
      "normalized": true,
      "special": false
    },
    {
      "id": 9366,
      "content": "<wug#366>",
      "single_word": false,
      "lstrip": false,
      "rstrip": false,
      "normalized": true,
      "special": false
    },
    {
      "id": 9367,
      "content": "<wug#367>",
      "single_word": false,
      "lstrip": false,
      "rstrip": false,
      "normalized": true,
      "special": false
    },
    {
      "id": 9368,
      "content": "<wug#368>",
      "single_word": false,
      "lstrip": false,
      "rstrip": false,
      "normalized": true,
      "special": false
    },
    {
      "id": 9369,
      "content": "<wug#369>",
      "single_word": false,
      "lstrip": false,
      "rstrip": false,
      "normalized": true,
      "special": false
    },
    {
      "id": 9370,
      "content": "<wug#370>",
      "single_word": false,
      "lstrip": false,
      "rstrip": false,
      "normalized": true,
      "special": false
    },
    {
      "id": 9371,
      "content": "<wug#371>",
      "single_word": false,
      "lstrip": false,
      "rstrip": false,
      "normalized": true,
      "special": false
    },
    {
      "id": 9372,
      "content": "<wug#372>",
      "single_word": false,
      "lstrip": false,
      "rstrip": false,
      "normalized": true,
      "special": false
    },
    {
      "id": 9373,
      "content": "<wug#373>",
      "single_word": false,
      "lstrip": false,
      "rstrip": false,
      "normalized": true,
      "special": false
    },
    {
      "id": 9374,
      "content": "<wug#374>",
      "single_word": false,
      "lstrip": false,
      "rstrip": false,
      "normalized": true,
      "special": false
    },
    {
      "id": 9375,
      "content": "<wug#375>",
      "single_word": false,
      "lstrip": false,
      "rstrip": false,
      "normalized": true,
      "special": false
    },
    {
      "id": 9376,
      "content": "<wug#376>",
      "single_word": false,
      "lstrip": false,
      "rstrip": false,
      "normalized": true,
      "special": false
    },
    {
      "id": 9377,
      "content": "<wug#377>",
      "single_word": false,
      "lstrip": false,
      "rstrip": false,
      "normalized": true,
      "special": false
    },
    {
      "id": 9378,
      "content": "<wug#378>",
      "single_word": false,
      "lstrip": false,
      "rstrip": false,
      "normalized": true,
      "special": false
    },
    {
      "id": 9379,
      "content": "<wug#379>",
      "single_word": false,
      "lstrip": false,
      "rstrip": false,
      "normalized": true,
      "special": false
    },
    {
      "id": 9380,
      "content": "<wug#380>",
      "single_word": false,
      "lstrip": false,
      "rstrip": false,
      "normalized": true,
      "special": false
    },
    {
      "id": 9381,
      "content": "<wug#381>",
      "single_word": false,
      "lstrip": false,
      "rstrip": false,
      "normalized": true,
      "special": false
    },
    {
      "id": 9382,
      "content": "<wug#382>",
      "single_word": false,
      "lstrip": false,
      "rstrip": false,
      "normalized": true,
      "special": false
    },
    {
      "id": 9383,
      "content": "<wug#383>",
      "single_word": false,
      "lstrip": false,
      "rstrip": false,
      "normalized": true,
      "special": false
    },
    {
      "id": 9384,
      "content": "<wug#384>",
      "single_word": false,
      "lstrip": false,
      "rstrip": false,
      "normalized": true,
      "special": false
    },
    {
      "id": 9385,
      "content": "<wug#385>",
      "single_word": false,
      "lstrip": false,
      "rstrip": false,
      "normalized": true,
      "special": false
    },
    {
      "id": 9386,
      "content": "<wug#386>",
      "single_word": false,
      "lstrip": false,
      "rstrip": false,
      "normalized": true,
      "special": false
    },
    {
      "id": 9387,
      "content": "<wug#387>",
      "single_word": false,
      "lstrip": false,
      "rstrip": false,
      "normalized": true,
      "special": false
    },
    {
      "id": 9388,
      "content": "<wug#388>",
      "single_word": false,
      "lstrip": false,
      "rstrip": false,
      "normalized": true,
      "special": false
    },
    {
      "id": 9389,
      "content": "<wug#389>",
      "single_word": false,
      "lstrip": false,
      "rstrip": false,
      "normalized": true,
      "special": false
    },
    {
      "id": 9390,
      "content": "<wug#390>",
      "single_word": false,
      "lstrip": false,
      "rstrip": false,
      "normalized": true,
      "special": false
    },
    {
      "id": 9391,
      "content": "<wug#391>",
      "single_word": false,
      "lstrip": false,
      "rstrip": false,
      "normalized": true,
      "special": false
    },
    {
      "id": 9392,
      "content": "<wug#392>",
      "single_word": false,
      "lstrip": false,
      "rstrip": false,
      "normalized": true,
      "special": false
    },
    {
      "id": 9393,
      "content": "<wug#393>",
      "single_word": false,
      "lstrip": false,
      "rstrip": false,
      "normalized": true,
      "special": false
    },
    {
      "id": 9394,
      "content": "<wug#394>",
      "single_word": false,
      "lstrip": false,
      "rstrip": false,
      "normalized": true,
      "special": false
    },
    {
      "id": 9395,
      "content": "<wug#395>",
      "single_word": false,
      "lstrip": false,
      "rstrip": false,
      "normalized": true,
      "special": false
    },
    {
      "id": 9396,
      "content": "<wug#396>",
      "single_word": false,
      "lstrip": false,
      "rstrip": false,
      "normalized": true,
      "special": false
    },
    {
      "id": 9397,
      "content": "<wug#397>",
      "single_word": false,
      "lstrip": false,
      "rstrip": false,
      "normalized": true,
      "special": false
    },
    {
      "id": 9398,
      "content": "<wug#398>",
      "single_word": false,
      "lstrip": false,
      "rstrip": false,
      "normalized": true,
      "special": false
    },
    {
      "id": 9399,
      "content": "<wug#399>",
      "single_word": false,
      "lstrip": false,
      "rstrip": false,
      "normalized": true,
      "special": false
    },
    {
      "id": 9400,
      "content": "<wug#400>",
      "single_word": false,
      "lstrip": false,
      "rstrip": false,
      "normalized": true,
      "special": false
    },
    {
      "id": 9401,
      "content": "<wug#401>",
      "single_word": false,
      "lstrip": false,
      "rstrip": false,
      "normalized": true,
      "special": false
    },
    {
      "id": 9402,
      "content": "<wug#402>",
      "single_word": false,
      "lstrip": false,
      "rstrip": false,
      "normalized": true,
      "special": false
    },
    {
      "id": 9403,
      "content": "<wug#403>",
      "single_word": false,
      "lstrip": false,
      "rstrip": false,
      "normalized": true,
      "special": false
    },
    {
      "id": 9404,
      "content": "<wug#404>",
      "single_word": false,
      "lstrip": false,
      "rstrip": false,
      "normalized": true,
      "special": false
    },
    {
      "id": 9405,
      "content": "<wug#405>",
      "single_word": false,
      "lstrip": false,
      "rstrip": false,
      "normalized": true,
      "special": false
    },
    {
      "id": 9406,
      "content": "<wug#406>",
      "single_word": false,
      "lstrip": false,
      "rstrip": false,
      "normalized": true,
      "special": false
    },
    {
      "id": 9407,
      "content": "<wug#407>",
      "single_word": false,
      "lstrip": false,
      "rstrip": false,
      "normalized": true,
      "special": false
    },
    {
      "id": 9408,
      "content": "<wug#408>",
      "single_word": false,
      "lstrip": false,
      "rstrip": false,
      "normalized": true,
      "special": false
    },
    {
      "id": 9409,
      "content": "<wug#409>",
      "single_word": false,
      "lstrip": false,
      "rstrip": false,
      "normalized": true,
      "special": false
    },
    {
      "id": 9410,
      "content": "<wug#410>",
      "single_word": false,
      "lstrip": false,
      "rstrip": false,
      "normalized": true,
      "special": false
    },
    {
      "id": 9411,
      "content": "<wug#411>",
      "single_word": false,
      "lstrip": false,
      "rstrip": false,
      "normalized": true,
      "special": false
    },
    {
      "id": 9412,
      "content": "<wug#412>",
      "single_word": false,
      "lstrip": false,
      "rstrip": false,
      "normalized": true,
      "special": false
    },
    {
      "id": 9413,
      "content": "<wug#413>",
      "single_word": false,
      "lstrip": false,
      "rstrip": false,
      "normalized": true,
      "special": false
    },
    {
      "id": 9414,
      "content": "<wug#414>",
      "single_word": false,
      "lstrip": false,
      "rstrip": false,
      "normalized": true,
      "special": false
    },
    {
      "id": 9415,
      "content": "<wug#415>",
      "single_word": false,
      "lstrip": false,
      "rstrip": false,
      "normalized": true,
      "special": false
    },
    {
      "id": 9416,
      "content": "<wug#416>",
      "single_word": false,
      "lstrip": false,
      "rstrip": false,
      "normalized": true,
      "special": false
    },
    {
      "id": 9417,
      "content": "<wug#417>",
      "single_word": false,
      "lstrip": false,
      "rstrip": false,
      "normalized": true,
      "special": false
    },
    {
      "id": 9418,
      "content": "<wug#418>",
      "single_word": false,
      "lstrip": false,
      "rstrip": false,
      "normalized": true,
      "special": false
    },
    {
      "id": 9419,
      "content": "<wug#419>",
      "single_word": false,
      "lstrip": false,
      "rstrip": false,
      "normalized": true,
      "special": false
    },
    {
      "id": 9420,
      "content": "<wug#420>",
      "single_word": false,
      "lstrip": false,
      "rstrip": false,
      "normalized": true,
      "special": false
    },
    {
      "id": 9421,
      "content": "<wug#421>",
      "single_word": false,
      "lstrip": false,
      "rstrip": false,
      "normalized": true,
      "special": false
    },
    {
      "id": 9422,
      "content": "<wug#422>",
      "single_word": false,
      "lstrip": false,
      "rstrip": false,
      "normalized": true,
      "special": false
    },
    {
      "id": 9423,
      "content": "<wug#423>",
      "single_word": false,
      "lstrip": false,
      "rstrip": false,
      "normalized": true,
      "special": false
    },
    {
      "id": 9424,
      "content": "<wug#424>",
      "single_word": false,
      "lstrip": false,
      "rstrip": false,
      "normalized": true,
      "special": false
    },
    {
      "id": 9425,
      "content": "<wug#425>",
      "single_word": false,
      "lstrip": false,
      "rstrip": false,
      "normalized": true,
      "special": false
    },
    {
      "id": 9426,
      "content": "<wug#426>",
      "single_word": false,
      "lstrip": false,
      "rstrip": false,
      "normalized": true,
      "special": false
    },
    {
      "id": 9427,
      "content": "<wug#427>",
      "single_word": false,
      "lstrip": false,
      "rstrip": false,
      "normalized": true,
      "special": false
    },
    {
      "id": 9428,
      "content": "<wug#428>",
      "single_word": false,
      "lstrip": false,
      "rstrip": false,
      "normalized": true,
      "special": false
    },
    {
      "id": 9429,
      "content": "<wug#429>",
      "single_word": false,
      "lstrip": false,
      "rstrip": false,
      "normalized": true,
      "special": false
    },
    {
      "id": 9430,
      "content": "<wug#430>",
      "single_word": false,
      "lstrip": false,
      "rstrip": false,
      "normalized": true,
      "special": false
    },
    {
      "id": 9431,
      "content": "<wug#431>",
      "single_word": false,
      "lstrip": false,
      "rstrip": false,
      "normalized": true,
      "special": false
    },
    {
      "id": 9432,
      "content": "<wug#432>",
      "single_word": false,
      "lstrip": false,
      "rstrip": false,
      "normalized": true,
      "special": false
    },
    {
      "id": 9433,
      "content": "<wug#433>",
      "single_word": false,
      "lstrip": false,
      "rstrip": false,
      "normalized": true,
      "special": false
    },
    {
      "id": 9434,
      "content": "<wug#434>",
      "single_word": false,
      "lstrip": false,
      "rstrip": false,
      "normalized": true,
      "special": false
    },
    {
      "id": 9435,
      "content": "<wug#435>",
      "single_word": false,
      "lstrip": false,
      "rstrip": false,
      "normalized": true,
      "special": false
    },
    {
      "id": 9436,
      "content": "<wug#436>",
      "single_word": false,
      "lstrip": false,
      "rstrip": false,
      "normalized": true,
      "special": false
    },
    {
      "id": 9437,
      "content": "<wug#437>",
      "single_word": false,
      "lstrip": false,
      "rstrip": false,
      "normalized": true,
      "special": false
    },
    {
      "id": 9438,
      "content": "<wug#438>",
      "single_word": false,
      "lstrip": false,
      "rstrip": false,
      "normalized": true,
      "special": false
    },
    {
      "id": 9439,
      "content": "<wug#439>",
      "single_word": false,
      "lstrip": false,
      "rstrip": false,
      "normalized": true,
      "special": false
    },
    {
      "id": 9440,
      "content": "<wug#440>",
      "single_word": false,
      "lstrip": false,
      "rstrip": false,
      "normalized": true,
      "special": false
    },
    {
      "id": 9441,
      "content": "<wug#441>",
      "single_word": false,
      "lstrip": false,
      "rstrip": false,
      "normalized": true,
      "special": false
    },
    {
      "id": 9442,
      "content": "<wug#442>",
      "single_word": false,
      "lstrip": false,
      "rstrip": false,
      "normalized": true,
      "special": false
    },
    {
      "id": 9443,
      "content": "<wug#443>",
      "single_word": false,
      "lstrip": false,
      "rstrip": false,
      "normalized": true,
      "special": false
    },
    {
      "id": 9444,
      "content": "<wug#444>",
      "single_word": false,
      "lstrip": false,
      "rstrip": false,
      "normalized": true,
      "special": false
    },
    {
      "id": 9445,
      "content": "<wug#445>",
      "single_word": false,
      "lstrip": false,
      "rstrip": false,
      "normalized": true,
      "special": false
    },
    {
      "id": 9446,
      "content": "<wug#446>",
      "single_word": false,
      "lstrip": false,
      "rstrip": false,
      "normalized": true,
      "special": false
    },
    {
      "id": 9447,
      "content": "<wug#447>",
      "single_word": false,
      "lstrip": false,
      "rstrip": false,
      "normalized": true,
      "special": false
    },
    {
      "id": 9448,
      "content": "<wug#448>",
      "single_word": false,
      "lstrip": false,
      "rstrip": false,
      "normalized": true,
      "special": false
    },
    {
      "id": 9449,
      "content": "<wug#449>",
      "single_word": false,
      "lstrip": false,
      "rstrip": false,
      "normalized": true,
      "special": false
    },
    {
      "id": 9450,
      "content": "<wug#450>",
      "single_word": false,
      "lstrip": false,
      "rstrip": false,
      "normalized": true,
      "special": false
    },
    {
      "id": 9451,
      "content": "<wug#451>",
      "single_word": false,
      "lstrip": false,
      "rstrip": false,
      "normalized": true,
      "special": false
    },
    {
      "id": 9452,
      "content": "<wug#452>",
      "single_word": false,
      "lstrip": false,
      "rstrip": false,
      "normalized": true,
      "special": false
    },
    {
      "id": 9453,
      "content": "<wug#453>",
      "single_word": false,
      "lstrip": false,
      "rstrip": false,
      "normalized": true,
      "special": false
    },
    {
      "id": 9454,
      "content": "<wug#454>",
      "single_word": false,
      "lstrip": false,
      "rstrip": false,
      "normalized": true,
      "special": false
    },
    {
      "id": 9455,
      "content": "<wug#455>",
      "single_word": false,
      "lstrip": false,
      "rstrip": false,
      "normalized": true,
      "special": false
    },
    {
      "id": 9456,
      "content": "<wug#456>",
      "single_word": false,
      "lstrip": false,
      "rstrip": false,
      "normalized": true,
      "special": false
    },
    {
      "id": 9457,
      "content": "<wug#457>",
      "single_word": false,
      "lstrip": false,
      "rstrip": false,
      "normalized": true,
      "special": false
    },
    {
      "id": 9458,
      "content": "<wug#458>",
      "single_word": false,
      "lstrip": false,
      "rstrip": false,
      "normalized": true,
      "special": false
    },
    {
      "id": 9459,
      "content": "<wug#459>",
      "single_word": false,
      "lstrip": false,
      "rstrip": false,
      "normalized": true,
      "special": false
    },
    {
      "id": 9460,
      "content": "<wug#460>",
      "single_word": false,
      "lstrip": false,
      "rstrip": false,
      "normalized": true,
      "special": false
    },
    {
      "id": 9461,
      "content": "<wug#461>",
      "single_word": false,
      "lstrip": false,
      "rstrip": false,
      "normalized": true,
      "special": false
    },
    {
      "id": 9462,
      "content": "<wug#462>",
      "single_word": false,
      "lstrip": false,
      "rstrip": false,
      "normalized": true,
      "special": false
    },
    {
      "id": 9463,
      "content": "<wug#463>",
      "single_word": false,
      "lstrip": false,
      "rstrip": false,
      "normalized": true,
      "special": false
    },
    {
      "id": 9464,
      "content": "<wug#464>",
      "single_word": false,
      "lstrip": false,
      "rstrip": false,
      "normalized": true,
      "special": false
    },
    {
      "id": 9465,
      "content": "<wug#465>",
      "single_word": false,
      "lstrip": false,
      "rstrip": false,
      "normalized": true,
      "special": false
    },
    {
      "id": 9466,
      "content": "<wug#466>",
      "single_word": false,
      "lstrip": false,
      "rstrip": false,
      "normalized": true,
      "special": false
    },
    {
      "id": 9467,
      "content": "<wug#467>",
      "single_word": false,
      "lstrip": false,
      "rstrip": false,
      "normalized": true,
      "special": false
    },
    {
      "id": 9468,
      "content": "<wug#468>",
      "single_word": false,
      "lstrip": false,
      "rstrip": false,
      "normalized": true,
      "special": false
    },
    {
      "id": 9469,
      "content": "<wug#469>",
      "single_word": false,
      "lstrip": false,
      "rstrip": false,
      "normalized": true,
      "special": false
    },
    {
      "id": 9470,
      "content": "<wug#470>",
      "single_word": false,
      "lstrip": false,
      "rstrip": false,
      "normalized": true,
      "special": false
    },
    {
      "id": 9471,
      "content": "<wug#471>",
      "single_word": false,
      "lstrip": false,
      "rstrip": false,
      "normalized": true,
      "special": false
    },
    {
      "id": 9472,
      "content": "<wug#472>",
      "single_word": false,
      "lstrip": false,
      "rstrip": false,
      "normalized": true,
      "special": false
    },
    {
      "id": 9473,
      "content": "<wug#473>",
      "single_word": false,
      "lstrip": false,
      "rstrip": false,
      "normalized": true,
      "special": false
    },
    {
      "id": 9474,
      "content": "<wug#474>",
      "single_word": false,
      "lstrip": false,
      "rstrip": false,
      "normalized": true,
      "special": false
    },
    {
      "id": 9475,
      "content": "<wug#475>",
      "single_word": false,
      "lstrip": false,
      "rstrip": false,
      "normalized": true,
      "special": false
    },
    {
      "id": 9476,
      "content": "<wug#476>",
      "single_word": false,
      "lstrip": false,
      "rstrip": false,
      "normalized": true,
      "special": false
    },
    {
      "id": 9477,
      "content": "<wug#477>",
      "single_word": false,
      "lstrip": false,
      "rstrip": false,
      "normalized": true,
      "special": false
    },
    {
      "id": 9478,
      "content": "<wug#478>",
      "single_word": false,
      "lstrip": false,
      "rstrip": false,
      "normalized": true,
      "special": false
    },
    {
      "id": 9479,
      "content": "<wug#479>",
      "single_word": false,
      "lstrip": false,
      "rstrip": false,
      "normalized": true,
      "special": false
    },
    {
      "id": 9480,
      "content": "<wug#480>",
      "single_word": false,
      "lstrip": false,
      "rstrip": false,
      "normalized": true,
      "special": false
    },
    {
      "id": 9481,
      "content": "<wug#481>",
      "single_word": false,
      "lstrip": false,
      "rstrip": false,
      "normalized": true,
      "special": false
    },
    {
      "id": 9482,
      "content": "<wug#482>",
      "single_word": false,
      "lstrip": false,
      "rstrip": false,
      "normalized": true,
      "special": false
    },
    {
      "id": 9483,
      "content": "<wug#483>",
      "single_word": false,
      "lstrip": false,
      "rstrip": false,
      "normalized": true,
      "special": false
    },
    {
      "id": 9484,
      "content": "<wug#484>",
      "single_word": false,
      "lstrip": false,
      "rstrip": false,
      "normalized": true,
      "special": false
    },
    {
      "id": 9485,
      "content": "<wug#485>",
      "single_word": false,
      "lstrip": false,
      "rstrip": false,
      "normalized": true,
      "special": false
    },
    {
      "id": 9486,
      "content": "<wug#486>",
      "single_word": false,
      "lstrip": false,
      "rstrip": false,
      "normalized": true,
      "special": false
    },
    {
      "id": 9487,
      "content": "<wug#487>",
      "single_word": false,
      "lstrip": false,
      "rstrip": false,
      "normalized": true,
      "special": false
    },
    {
      "id": 9488,
      "content": "<wug#488>",
      "single_word": false,
      "lstrip": false,
      "rstrip": false,
      "normalized": true,
      "special": false
    },
    {
      "id": 9489,
      "content": "<wug#489>",
      "single_word": false,
      "lstrip": false,
      "rstrip": false,
      "normalized": true,
      "special": false
    },
    {
      "id": 9490,
      "content": "<wug#490>",
      "single_word": false,
      "lstrip": false,
      "rstrip": false,
      "normalized": true,
      "special": false
    },
    {
      "id": 9491,
      "content": "<wug#491>",
      "single_word": false,
      "lstrip": false,
      "rstrip": false,
      "normalized": true,
      "special": false
    },
    {
      "id": 9492,
      "content": "<wug#492>",
      "single_word": false,
      "lstrip": false,
      "rstrip": false,
      "normalized": true,
      "special": false
    },
    {
      "id": 9493,
      "content": "<wug#493>",
      "single_word": false,
      "lstrip": false,
      "rstrip": false,
      "normalized": true,
      "special": false
    },
    {
      "id": 9494,
      "content": "<wug#494>",
      "single_word": false,
      "lstrip": false,
      "rstrip": false,
      "normalized": true,
      "special": false
    },
    {
      "id": 9495,
      "content": "<wug#495>",
      "single_word": false,
      "lstrip": false,
      "rstrip": false,
      "normalized": true,
      "special": false
    },
    {
      "id": 9496,
      "content": "<wug#496>",
      "single_word": false,
      "lstrip": false,
      "rstrip": false,
      "normalized": true,
      "special": false
    },
    {
      "id": 9497,
      "content": "<wug#497>",
      "single_word": false,
      "lstrip": false,
      "rstrip": false,
      "normalized": true,
      "special": false
    },
    {
      "id": 9498,
      "content": "<wug#498>",
      "single_word": false,
      "lstrip": false,
      "rstrip": false,
      "normalized": true,
      "special": false
    },
    {
      "id": 9499,
      "content": "<wug#499>",
      "single_word": false,
      "lstrip": false,
      "rstrip": false,
      "normalized": true,
      "special": false
    },
    {
      "id": 9500,
      "content": "<wug#500>",
      "single_word": false,
      "lstrip": false,
      "rstrip": false,
      "normalized": true,
      "special": false
    },
    {
      "id": 9501,
      "content": "<wug#501>",
      "single_word": false,
      "lstrip": false,
      "rstrip": false,
      "normalized": true,
      "special": false
    },
    {
      "id": 9502,
      "content": "<wug#502>",
      "single_word": false,
      "lstrip": false,
      "rstrip": false,
      "normalized": true,
      "special": false
    },
    {
      "id": 9503,
      "content": "<wug#503>",
      "single_word": false,
      "lstrip": false,
      "rstrip": false,
      "normalized": true,
      "special": false
    },
    {
      "id": 9504,
      "content": "<wug#504>",
      "single_word": false,
      "lstrip": false,
      "rstrip": false,
      "normalized": true,
      "special": false
    },
    {
      "id": 9505,
      "content": "<wug#505>",
      "single_word": false,
      "lstrip": false,
      "rstrip": false,
      "normalized": true,
      "special": false
    },
    {
      "id": 9506,
      "content": "<wug#506>",
      "single_word": false,
      "lstrip": false,
      "rstrip": false,
      "normalized": true,
      "special": false
    },
    {
      "id": 9507,
      "content": "<wug#507>",
      "single_word": false,
      "lstrip": false,
      "rstrip": false,
      "normalized": true,
      "special": false
    },
    {
      "id": 9508,
      "content": "<wug#508>",
      "single_word": false,
      "lstrip": false,
      "rstrip": false,
      "normalized": true,
      "special": false
    },
    {
      "id": 9509,
      "content": "<wug#509>",
      "single_word": false,
      "lstrip": false,
      "rstrip": false,
      "normalized": true,
      "special": false
    },
    {
      "id": 9510,
      "content": "<wug#510>",
      "single_word": false,
      "lstrip": false,
      "rstrip": false,
      "normalized": true,
      "special": false
    },
    {
      "id": 9511,
      "content": "<wug#511>",
      "single_word": false,
      "lstrip": false,
      "rstrip": false,
      "normalized": true,
      "special": false
    },
    {
      "id": 9512,
      "content": "<wug#512>",
      "single_word": false,
      "lstrip": false,
      "rstrip": false,
      "normalized": true,
      "special": false
    },
    {
      "id": 9513,
      "content": "<wug#513>",
      "single_word": false,
      "lstrip": false,
      "rstrip": false,
      "normalized": true,
      "special": false
    },
    {
      "id": 9514,
      "content": "<wug#514>",
      "single_word": false,
      "lstrip": false,
      "rstrip": false,
      "normalized": true,
      "special": false
    },
    {
      "id": 9515,
      "content": "<wug#515>",
      "single_word": false,
      "lstrip": false,
      "rstrip": false,
      "normalized": true,
      "special": false
    },
    {
      "id": 9516,
      "content": "<wug#516>",
      "single_word": false,
      "lstrip": false,
      "rstrip": false,
      "normalized": true,
      "special": false
    },
    {
      "id": 9517,
      "content": "<wug#517>",
      "single_word": false,
      "lstrip": false,
      "rstrip": false,
      "normalized": true,
      "special": false
    },
    {
      "id": 9518,
      "content": "<wug#518>",
      "single_word": false,
      "lstrip": false,
      "rstrip": false,
      "normalized": true,
      "special": false
    },
    {
      "id": 9519,
      "content": "<wug#519>",
      "single_word": false,
      "lstrip": false,
      "rstrip": false,
      "normalized": true,
      "special": false
    },
    {
      "id": 9520,
      "content": "<wug#520>",
      "single_word": false,
      "lstrip": false,
      "rstrip": false,
      "normalized": true,
      "special": false
    },
    {
      "id": 9521,
      "content": "<wug#521>",
      "single_word": false,
      "lstrip": false,
      "rstrip": false,
      "normalized": true,
      "special": false
    },
    {
      "id": 9522,
      "content": "<wug#522>",
      "single_word": false,
      "lstrip": false,
      "rstrip": false,
      "normalized": true,
      "special": false
    },
    {
      "id": 9523,
      "content": "<wug#523>",
      "single_word": false,
      "lstrip": false,
      "rstrip": false,
      "normalized": true,
      "special": false
    },
    {
      "id": 9524,
      "content": "<wug#524>",
      "single_word": false,
      "lstrip": false,
      "rstrip": false,
      "normalized": true,
      "special": false
    },
    {
      "id": 9525,
      "content": "<wug#525>",
      "single_word": false,
      "lstrip": false,
      "rstrip": false,
      "normalized": true,
      "special": false
    },
    {
      "id": 9526,
      "content": "<wug#526>",
      "single_word": false,
      "lstrip": false,
      "rstrip": false,
      "normalized": true,
      "special": false
    },
    {
      "id": 9527,
      "content": "<wug#527>",
      "single_word": false,
      "lstrip": false,
      "rstrip": false,
      "normalized": true,
      "special": false
    },
    {
      "id": 9528,
      "content": "<wug#528>",
      "single_word": false,
      "lstrip": false,
      "rstrip": false,
      "normalized": true,
      "special": false
    },
    {
      "id": 9529,
      "content": "<wug#529>",
      "single_word": false,
      "lstrip": false,
      "rstrip": false,
      "normalized": true,
      "special": false
    },
    {
      "id": 9530,
      "content": "<wug#530>",
      "single_word": false,
      "lstrip": false,
      "rstrip": false,
      "normalized": true,
      "special": false
    },
    {
      "id": 9531,
      "content": "<wug#531>",
      "single_word": false,
      "lstrip": false,
      "rstrip": false,
      "normalized": true,
      "special": false
    },
    {
      "id": 9532,
      "content": "<wug#532>",
      "single_word": false,
      "lstrip": false,
      "rstrip": false,
      "normalized": true,
      "special": false
    },
    {
      "id": 9533,
      "content": "<wug#533>",
      "single_word": false,
      "lstrip": false,
      "rstrip": false,
      "normalized": true,
      "special": false
    },
    {
      "id": 9534,
      "content": "<wug#534>",
      "single_word": false,
      "lstrip": false,
      "rstrip": false,
      "normalized": true,
      "special": false
    },
    {
      "id": 9535,
      "content": "<wug#535>",
      "single_word": false,
      "lstrip": false,
      "rstrip": false,
      "normalized": true,
      "special": false
    },
    {
      "id": 9536,
      "content": "<wug#536>",
      "single_word": false,
      "lstrip": false,
      "rstrip": false,
      "normalized": true,
      "special": false
    },
    {
      "id": 9537,
      "content": "<wug#537>",
      "single_word": false,
      "lstrip": false,
      "rstrip": false,
      "normalized": true,
      "special": false
    },
    {
      "id": 9538,
      "content": "<wug#538>",
      "single_word": false,
      "lstrip": false,
      "rstrip": false,
      "normalized": true,
      "special": false
    },
    {
      "id": 9539,
      "content": "<wug#539>",
      "single_word": false,
      "lstrip": false,
      "rstrip": false,
      "normalized": true,
      "special": false
    },
    {
      "id": 9540,
      "content": "<wug#540>",
      "single_word": false,
      "lstrip": false,
      "rstrip": false,
      "normalized": true,
      "special": false
    },
    {
      "id": 9541,
      "content": "<wug#541>",
      "single_word": false,
      "lstrip": false,
      "rstrip": false,
      "normalized": true,
      "special": false
    },
    {
      "id": 9542,
      "content": "<wug#542>",
      "single_word": false,
      "lstrip": false,
      "rstrip": false,
      "normalized": true,
      "special": false
    },
    {
      "id": 9543,
      "content": "<wug#543>",
      "single_word": false,
      "lstrip": false,
      "rstrip": false,
      "normalized": true,
      "special": false
    },
    {
      "id": 9544,
      "content": "<wug#544>",
      "single_word": false,
      "lstrip": false,
      "rstrip": false,
      "normalized": true,
      "special": false
    },
    {
      "id": 9545,
      "content": "<wug#545>",
      "single_word": false,
      "lstrip": false,
      "rstrip": false,
      "normalized": true,
      "special": false
    },
    {
      "id": 9546,
      "content": "<wug#546>",
      "single_word": false,
      "lstrip": false,
      "rstrip": false,
      "normalized": true,
      "special": false
    },
    {
      "id": 9547,
      "content": "<wug#547>",
      "single_word": false,
      "lstrip": false,
      "rstrip": false,
      "normalized": true,
      "special": false
    },
    {
      "id": 9548,
      "content": "<wug#548>",
      "single_word": false,
      "lstrip": false,
      "rstrip": false,
      "normalized": true,
      "special": false
    },
    {
      "id": 9549,
      "content": "<wug#549>",
      "single_word": false,
      "lstrip": false,
      "rstrip": false,
      "normalized": true,
      "special": false
    },
    {
      "id": 9550,
      "content": "<wug#550>",
      "single_word": false,
      "lstrip": false,
      "rstrip": false,
      "normalized": true,
      "special": false
    },
    {
      "id": 9551,
      "content": "<wug#551>",
      "single_word": false,
      "lstrip": false,
      "rstrip": false,
      "normalized": true,
      "special": false
    },
    {
      "id": 9552,
      "content": "<wug#552>",
      "single_word": false,
      "lstrip": false,
      "rstrip": false,
      "normalized": true,
      "special": false
    },
    {
      "id": 9553,
      "content": "<wug#553>",
      "single_word": false,
      "lstrip": false,
      "rstrip": false,
      "normalized": true,
      "special": false
    },
    {
      "id": 9554,
      "content": "<wug#554>",
      "single_word": false,
      "lstrip": false,
      "rstrip": false,
      "normalized": true,
      "special": false
    },
    {
      "id": 9555,
      "content": "<wug#555>",
      "single_word": false,
      "lstrip": false,
      "rstrip": false,
      "normalized": true,
      "special": false
    },
    {
      "id": 9556,
      "content": "<wug#556>",
      "single_word": false,
      "lstrip": false,
      "rstrip": false,
      "normalized": true,
      "special": false
    },
    {
      "id": 9557,
      "content": "<wug#557>",
      "single_word": false,
      "lstrip": false,
      "rstrip": false,
      "normalized": true,
      "special": false
    },
    {
      "id": 9558,
      "content": "<wug#558>",
      "single_word": false,
      "lstrip": false,
      "rstrip": false,
      "normalized": true,
      "special": false
    },
    {
      "id": 9559,
      "content": "<wug#559>",
      "single_word": false,
      "lstrip": false,
      "rstrip": false,
      "normalized": true,
      "special": false
    },
    {
      "id": 9560,
      "content": "<wug#560>",
      "single_word": false,
      "lstrip": false,
      "rstrip": false,
      "normalized": true,
      "special": false
    },
    {
      "id": 9561,
      "content": "<wug#561>",
      "single_word": false,
      "lstrip": false,
      "rstrip": false,
      "normalized": true,
      "special": false
    },
    {
      "id": 9562,
      "content": "<wug#562>",
      "single_word": false,
      "lstrip": false,
      "rstrip": false,
      "normalized": true,
      "special": false
    },
    {
      "id": 9563,
      "content": "<wug#563>",
      "single_word": false,
      "lstrip": false,
      "rstrip": false,
      "normalized": true,
      "special": false
    },
    {
      "id": 9564,
      "content": "<wug#564>",
      "single_word": false,
      "lstrip": false,
      "rstrip": false,
      "normalized": true,
      "special": false
    },
    {
      "id": 9565,
      "content": "<wug#565>",
      "single_word": false,
      "lstrip": false,
      "rstrip": false,
      "normalized": true,
      "special": false
    },
    {
      "id": 9566,
      "content": "<wug#566>",
      "single_word": false,
      "lstrip": false,
      "rstrip": false,
      "normalized": true,
      "special": false
    },
    {
      "id": 9567,
      "content": "<wug#567>",
      "single_word": false,
      "lstrip": false,
      "rstrip": false,
      "normalized": true,
      "special": false
    },
    {
      "id": 9568,
      "content": "<wug#568>",
      "single_word": false,
      "lstrip": false,
      "rstrip": false,
      "normalized": true,
      "special": false
    },
    {
      "id": 9569,
      "content": "<wug#569>",
      "single_word": false,
      "lstrip": false,
      "rstrip": false,
      "normalized": true,
      "special": false
    },
    {
      "id": 9570,
      "content": "<wug#570>",
      "single_word": false,
      "lstrip": false,
      "rstrip": false,
      "normalized": true,
      "special": false
    },
    {
      "id": 9571,
      "content": "<wug#571>",
      "single_word": false,
      "lstrip": false,
      "rstrip": false,
      "normalized": true,
      "special": false
    },
    {
      "id": 9572,
      "content": "<wug#572>",
      "single_word": false,
      "lstrip": false,
      "rstrip": false,
      "normalized": true,
      "special": false
    },
    {
      "id": 9573,
      "content": "<wug#573>",
      "single_word": false,
      "lstrip": false,
      "rstrip": false,
      "normalized": true,
      "special": false
    },
    {
      "id": 9574,
      "content": "<wug#574>",
      "single_word": false,
      "lstrip": false,
      "rstrip": false,
      "normalized": true,
      "special": false
    },
    {
      "id": 9575,
      "content": "<wug#575>",
      "single_word": false,
      "lstrip": false,
      "rstrip": false,
      "normalized": true,
      "special": false
    },
    {
      "id": 9576,
      "content": "<wug#576>",
      "single_word": false,
      "lstrip": false,
      "rstrip": false,
      "normalized": true,
      "special": false
    },
    {
      "id": 9577,
      "content": "<wug#577>",
      "single_word": false,
      "lstrip": false,
      "rstrip": false,
      "normalized": true,
      "special": false
    },
    {
      "id": 9578,
      "content": "<wug#578>",
      "single_word": false,
      "lstrip": false,
      "rstrip": false,
      "normalized": true,
      "special": false
    },
    {
      "id": 9579,
      "content": "<wug#579>",
      "single_word": false,
      "lstrip": false,
      "rstrip": false,
      "normalized": true,
      "special": false
    },
    {
      "id": 9580,
      "content": "<wug#580>",
      "single_word": false,
      "lstrip": false,
      "rstrip": false,
      "normalized": true,
      "special": false
    },
    {
      "id": 9581,
      "content": "<wug#581>",
      "single_word": false,
      "lstrip": false,
      "rstrip": false,
      "normalized": true,
      "special": false
    },
    {
      "id": 9582,
      "content": "<wug#582>",
      "single_word": false,
      "lstrip": false,
      "rstrip": false,
      "normalized": true,
      "special": false
    },
    {
      "id": 9583,
      "content": "<wug#583>",
      "single_word": false,
      "lstrip": false,
      "rstrip": false,
      "normalized": true,
      "special": false
    },
    {
      "id": 9584,
      "content": "<wug#584>",
      "single_word": false,
      "lstrip": false,
      "rstrip": false,
      "normalized": true,
      "special": false
    },
    {
      "id": 9585,
      "content": "<wug#585>",
      "single_word": false,
      "lstrip": false,
      "rstrip": false,
      "normalized": true,
      "special": false
    },
    {
      "id": 9586,
      "content": "<wug#586>",
      "single_word": false,
      "lstrip": false,
      "rstrip": false,
      "normalized": true,
      "special": false
    },
    {
      "id": 9587,
      "content": "<wug#587>",
      "single_word": false,
      "lstrip": false,
      "rstrip": false,
      "normalized": true,
      "special": false
    },
    {
      "id": 9588,
      "content": "<wug#588>",
      "single_word": false,
      "lstrip": false,
      "rstrip": false,
      "normalized": true,
      "special": false
    },
    {
      "id": 9589,
      "content": "<wug#589>",
      "single_word": false,
      "lstrip": false,
      "rstrip": false,
      "normalized": true,
      "special": false
    },
    {
      "id": 9590,
      "content": "<wug#590>",
      "single_word": false,
      "lstrip": false,
      "rstrip": false,
      "normalized": true,
      "special": false
    },
    {
      "id": 9591,
      "content": "<wug#591>",
      "single_word": false,
      "lstrip": false,
      "rstrip": false,
      "normalized": true,
      "special": false
    },
    {
      "id": 9592,
      "content": "<wug#592>",
      "single_word": false,
      "lstrip": false,
      "rstrip": false,
      "normalized": true,
      "special": false
    },
    {
      "id": 9593,
      "content": "<wug#593>",
      "single_word": false,
      "lstrip": false,
      "rstrip": false,
      "normalized": true,
      "special": false
    },
    {
      "id": 9594,
      "content": "<wug#594>",
      "single_word": false,
      "lstrip": false,
      "rstrip": false,
      "normalized": true,
      "special": false
    },
    {
      "id": 9595,
      "content": "<wug#595>",
      "single_word": false,
      "lstrip": false,
      "rstrip": false,
      "normalized": true,
      "special": false
    },
    {
      "id": 9596,
      "content": "<wug#596>",
      "single_word": false,
      "lstrip": false,
      "rstrip": false,
      "normalized": true,
      "special": false
    },
    {
      "id": 9597,
      "content": "<wug#597>",
      "single_word": false,
      "lstrip": false,
      "rstrip": false,
      "normalized": true,
      "special": false
    },
    {
      "id": 9598,
      "content": "<wug#598>",
      "single_word": false,
      "lstrip": false,
      "rstrip": false,
      "normalized": true,
      "special": false
    },
    {
      "id": 9599,
      "content": "<wug#599>",
      "single_word": false,
      "lstrip": false,
      "rstrip": false,
      "normalized": true,
      "special": false
    }
  ],
  "normalizer": null,
  "pre_tokenizer": {
    "type": "ByteLevel",
    "add_prefix_space": false,
    "trim_offsets": true,
    "use_regex": true
  },
  "post_processor": {
    "type": "RobertaProcessing",
    "sep": [
      "</s>",
      2
    ],
    "cls": [
      "<s>",
      0
    ],
    "trim_offsets": true,
    "add_prefix_space": false
  },
  "decoder": {
    "type": "ByteLevel",
    "add_prefix_space": true,
    "trim_offsets": true,
    "use_regex": true
  },
  "model": {
    "type": "BPE",
    "dropout": null,
    "unk_token": null,
    "continuing_subword_prefix": "",
    "end_of_word_suffix": "",
    "fuse_unk": false,
    "byte_fallback": false,
    "vocab": {
      "<s>": 0,
      "<pad>": 1,
      "</s>": 2,
      "<unk>": 3,
      "<mask>": 4,
      "!": 5,
      "\"": 6,
      "#": 7,
      "$": 8,
      "%": 9,
      "&": 10,
      "'": 11,
      "(": 12,
      ")": 13,
      "*": 14,
      "+": 15,
      ",": 16,
      "-": 17,
      ".": 18,
      "/": 19,
      "0": 20,
      "1": 21,
      "2": 22,
      "3": 23,
      "4": 24,
      "5": 25,
      "6": 26,
      "7": 27,
      "8": 28,
      "9": 29,
      ":": 30,
      ";": 31,
      "<": 32,
      "=": 33,
      ">": 34,
      "?": 35,
      "@": 36,
      "A": 37,
      "B": 38,
      "C": 39,
      "D": 40,
      "E": 41,
      "F": 42,
      "G": 43,
      "H": 44,
      "I": 45,
      "J": 46,
      "K": 47,
      "L": 48,
      "M": 49,
      "N": 50,
      "O": 51,
      "P": 52,
      "Q": 53,
      "R": 54,
      "S": 55,
      "T": 56,
      "U": 57,
      "V": 58,
      "W": 59,
      "X": 60,
      "Y": 61,
      "Z": 62,
      "[": 63,
      "\\": 64,
      "]": 65,
      "^": 66,
      "_": 67,
      "`": 68,
      "a": 69,
      "b": 70,
      "c": 71,
      "d": 72,
      "e": 73,
      "f": 74,
      "g": 75,
      "h": 76,
      "i": 77,
      "j": 78,
      "k": 79,
      "l": 80,
      "m": 81,
      "n": 82,
      "o": 83,
      "p": 84,
      "q": 85,
      "r": 86,
      "s": 87,
      "t": 88,
      "u": 89,
      "v": 90,
      "w": 91,
      "x": 92,
      "y": 93,
      "z": 94,
      "{": 95,
      "|": 96,
      "}": 97,
      "~": 98,
      "¡": 99,
      "¢": 100,
      "£": 101,
      "¤": 102,
      "¥": 103,
      "¦": 104,
      "§": 105,
      "¨": 106,
      "©": 107,
      "ª": 108,
      "«": 109,
      "¬": 110,
      "®": 111,
      "¯": 112,
      "°": 113,
      "±": 114,
      "²": 115,
      "³": 116,
      "´": 117,
      "µ": 118,
      "¶": 119,
      "·": 120,
      "¸": 121,
      "¹": 122,
      "º": 123,
      "»": 124,
      "¼": 125,
      "½": 126,
      "¾": 127,
      "¿": 128,
      "À": 129,
      "Á": 130,
      "Â": 131,
      "Ã": 132,
      "Ä": 133,
      "Å": 134,
      "Æ": 135,
      "Ç": 136,
      "È": 137,
      "É": 138,
      "Ê": 139,
      "Ë": 140,
      "Ì": 141,
      "Í": 142,
      "Î": 143,
      "Ï": 144,
      "Ð": 145,
      "Ñ": 146,
      "Ò": 147,
      "Ó": 148,
      "Ô": 149,
      "Õ": 150,
      "Ö": 151,
      "×": 152,
      "Ø": 153,
      "Ù": 154,
      "Ú": 155,
      "Û": 156,
      "Ü": 157,
      "Ý": 158,
      "Þ": 159,
      "ß": 160,
      "à": 161,
      "á": 162,
      "â": 163,
      "ã": 164,
      "ä": 165,
      "å": 166,
      "æ": 167,
      "ç": 168,
      "è": 169,
      "é": 170,
      "ê": 171,
      "ë": 172,
      "ì": 173,
      "í": 174,
      "î": 175,
      "ï": 176,
      "ð": 177,
      "ñ": 178,
      "ò": 179,
      "ó": 180,
      "ô": 181,
      "õ": 182,
      "ö": 183,
      "÷": 184,
      "ø": 185,
      "ù": 186,
      "ú": 187,
      "û": 188,
      "ü": 189,
      "ý": 190,
      "þ": 191,
      "ÿ": 192,
      "Ā": 193,
      "ā": 194,
      "Ă": 195,
      "ă": 196,
      "Ą": 197,
      "ą": 198,
      "Ć": 199,
      "ć": 200,
      "Ĉ": 201,
      "ĉ": 202,
      "Ċ": 203,
      "ċ": 204,
      "Č": 205,
      "č": 206,
      "Ď": 207,
      "ď": 208,
      "Đ": 209,
      "đ": 210,
      "Ē": 211,
      "ē": 212,
      "Ĕ": 213,
      "ĕ": 214,
      "Ė": 215,
      "ė": 216,
      "Ę": 217,
      "ę": 218,
      "Ě": 219,
      "ě": 220,
      "Ĝ": 221,
      "ĝ": 222,
      "Ğ": 223,
      "ğ": 224,
      "Ġ": 225,
      "ġ": 226,
      "Ģ": 227,
      "ģ": 228,
      "Ĥ": 229,
      "ĥ": 230,
      "Ħ": 231,
      "ħ": 232,
      "Ĩ": 233,
      "ĩ": 234,
      "Ī": 235,
      "ī": 236,
      "Ĭ": 237,
      "ĭ": 238,
      "Į": 239,
      "į": 240,
      "İ": 241,
      "ı": 242,
      "Ĳ": 243,
      "ĳ": 244,
      "Ĵ": 245,
      "ĵ": 246,
      "Ķ": 247,
      "ķ": 248,
      "ĸ": 249,
      "Ĺ": 250,
      "ĺ": 251,
      "Ļ": 252,
      "ļ": 253,
      "Ľ": 254,
      "ľ": 255,
      "Ŀ": 256,
      "ŀ": 257,
      "Ł": 258,
      "ł": 259,
      "Ń": 260,
      "Ġt": 261,
      "Ġa": 262,
      "he": 263,
      "in": 264,
      "Ġthe": 265,
      "er": 266,
      "on": 267,
      "Ġs": 268,
      "Ġ,": 269,
      "re": 270,
      "Ġo": 271,
      "Ġc": 272,
      "at": 273,
      "en": 274,
      "Ġw": 275,
      "ed": 276,
      "an": 277,
      "is": 278,
      "Ġb": 279,
      "Ġp": 280,
      "it": 281,
      "or": 282,
      "es": 283,
      "Ġf": 284,
      "Ġof": 285,
      "al": 286,
      "Ġin": 287,
      "Ġan": 288,
      "Ġm": 289,
      "ar": 290,
      "ic": 291,
      "Ġand": 292,
      "Ġd": 293,
      "ing": 294,
      "ion": 295,
      "ro": 296,
      "as": 297,
      "Ġto": 298,
      "Ġ\"": 299,
      "Ġh": 300,
      "Ġl": 301,
      "Ġe": 302,
      "Ġn": 303,
      "ent": 304,
      "Ġre": 305,
      "le": 306,
      "ou": 307,
      "Ġg": 308,
      "Ġth": 309,
      "st": 310,
      "om": 311,
      "ly": 312,
      "the": 313,
      "ct": 314,
      "il": 315,
      "Ġ1": 316,
      "Ġbe": 317,
      "Ġu": 318,
      "ol": 319,
      "ve": 320,
      "am": 321,
      "ation": 322,
      "Ġis": 323,
      "im": 324,
      "ce": 325,
      "ad": 326,
      "Ġfor": 327,
      "ur": 328,
      "Ġas": 329,
      "Ġ-": 330,
      "id": 331,
      "ch": 332,
      "Ġst": 333,
      "th": 334,
      "ver": 335,
      "ig": 336,
      "se": 337,
      "Ġon": 338,
      "ir": 339,
      "ter": 340,
      "Ġwas": 341,
      "ul": 342,
      "Ġcon": 343,
      "ut": 344,
      "ow": 345,
      "ith": 346,
      "Ġde": 347,
      "Ġr": 348,
      "Ġal": 349,
      "Ġ(": 350,
      "Ġ)": 351,
      "et": 352,
      "ot": 353,
      "Ġwith": 354,
      "Ġthat": 355,
      "Ġwh": 356,
      "el": 357,
      "Ġby": 358,
      "Ġpro": 359,
      "ist": 360,
      "ay": 361,
      "us": 362,
      "Ġhe": 363,
      "Ġv": 364,
      "Ġsu": 365,
      "Ġor": 366,
      "ra": 367,
      "and": 368,
      "Ġcom": 369,
      "un": 370,
      "ri": 371,
      "'s": 372,
      "Ġ19": 373,
      "Ġ2": 374,
      "rom": 375,
      "um": 376,
      "em": 377,
      "Ġit": 378,
      "Ġmo": 379,
      "Ġk": 380,
      "op": 381,
      "Ġch": 382,
      "ag": 383,
      "est": 384,
      "if": 385,
      "Ġun": 386,
      "ers": 387,
      "Ġse": 388,
      "ac": 389,
      "Ġj": 390,
      "ain": 391,
      "ate": 392,
      "Ġare": 393,
      "Ġex": 394,
      "Ġat": 395,
      "os": 396,
      "res": 397,
      "ab": 398,
      "pe": 399,
      "qu": 400,
      "ity": 401,
      "ies": 402,
      "Ġfrom": 403,
      "ther": 404,
      "oun": 405,
      "od": 406,
      "iv": 407,
      "ment": 408,
      "oc": 409,
      "ich": 410,
      "ld": 411,
      "Ġne": 412,
      "ud": 413,
      "00": 414,
      "ive": 415,
      "ian": 416,
      "art": 417,
      "ess": 418,
      "ant": 419,
      "ial": 420,
      "ical": 421,
      "Ġhis": 422,
      "pp": 423,
      "ort": 424,
      "ated": 425,
      "ill": 426,
      "Ġen": 427,
      "Ġwhich": 428,
      "ere": 429,
      "igh": 430,
      "all": 431,
      "pt": 432,
      "Ġy": 433,
      "Ġle": 434,
      "ak": 435,
      "Ġwere": 436,
      "ard": 437,
      "ge": 438,
      "ction": 439,
      "gh": 440,
      "ia": 441,
      "ber": 442,
      "Ġar": 443,
      "Ġha": 444,
      "Ġsh": 445,
      "ure": 446,
      "Ġnot": 447,
      "Ġpl": 448,
      "Ġwor": 449,
      "der": 450,
      "cl": 451,
      "Ġus": 452,
      "ary": 453,
      "per": 454,
      "ame": 455,
      "og": 456,
      "Ġcomp": 457,
      "ip": 458,
      "du": 459,
      "Ġ.": 460,
      "ine": 461,
      "ast": 462,
      "so": 463,
      "Ġad": 464,
      "Ġcont": 465,
      "red": 466,
      "Ġro": 467,
      "ish": 468,
      "our": 469,
      "ous": 470,
      "ome": 471,
      "ition": 472,
      "ie": 473,
      "Ġtr": 474,
      "ong": 475,
      "ap": 476,
      "iz": 477,
      "end": 478,
      "Ġint": 479,
      "ans": 480,
      "Ġcl": 481,
      "ect": 482,
      "Ġhave": 483,
      "rit": 484,
      "Ġâ": 485,
      "Ġsp": 486,
      "Ġpart": 487,
      "ell": 488,
      "ight": 489,
      "Ġalso": 490,
      "Ġhad": 491,
      "Ġhas": 492,
      "ations": 493,
      "cc": 494,
      "ub": 495,
      "ore": 496,
      "Ġab": 497,
      "ence": 498,
      "ĠâĢ": 499,
      "Ġ20": 500,
      "ide": 501,
      "ign": 502,
      "Ġam": 503,
      "Ġcomm": 504,
      "Ġall": 505,
      "Ġper": 506,
      "ult": 507,
      "Ġcan": 508,
      "Ġman": 509,
      "Ġwhe": 510,
      "Ġres": 511,
      "Ġform": 512,
      "av": 513,
      "ff": 514,
      "ally": 515,
      "Ġim": 516,
      "ib": 517,
      "Ġtheir": 518,
      "pl": 519,
      "age": 520,
      "ry": 521,
      "ear": 522,
      "ass": 523,
      "Ġbut": 524,
      "ould": 525,
      "Ġme": 526,
      "Ġbo": 527,
      "ust": 528,
      "rou": 529,
      "Ġfir": 530,
      "Ġsc": 531,
      "Ġother": 532,
      "ire": 533,
      "vel": 534,
      "for": 535,
      "Ġ;": 536,
      "Ġits": 537,
      "over": 538,
      "Ġdis": 539,
      "her": 540,
      "ang": 541,
      "Ġthis": 542,
      "ater": 543,
      "act": 544,
      "fer": 545,
      "Ġte": 546,
      "Ġfirst": 547,
      "Ġone": 548,
      "ru": 549,
      "clud": 550,
      "man": 551,
      "Ġsy": 552,
      "ime": 553,
      "ack": 554,
      "con": 555,
      "Ġwho": 556,
      "ates": 557,
      "Ġinter": 558,
      "Ġnew": 559,
      "ount": 560,
      "ren": 561,
      "ice": 562,
      "Ġcent": 563,
      "ord": 564,
      "Ġbec": 565,
      "Ġmar": 566,
      "ue": 567,
      "Ġbeen": 568,
      "ions": 569,
      "Ġag": 570,
      "ree": 571,
      "Ġinclud": 572,
      "Ġyear": 573,
      "ory": 574,
      "Ġaf": 575,
      "Ġtw": 576,
      "ok": 577,
      "ace": 578,
      "out": 579,
      "Ġ201": 580,
      "Ġ200": 581,
      "ost": 582,
      "able": 583,
      "own": 584,
      "hed": 585,
      "Ġser": 586,
      "Ġcol": 587,
      "ance": 588,
      "ph": 589,
      "Ġsuch": 590,
      "ile": 591,
      "Ġno": 592,
      "Ġind": 593,
      "ced": 594,
      "ach": 595,
      "au": 596,
      "Ġspe": 597,
      "ke": 598,
      "ens": 599,
      "und": 600,
      "Ġpr": 601,
      "te": 602,
      "vers": 603,
      "Ġ18": 604,
      "Ġdes": 605,
      "ĠâĢĵ": 606,
      "land": 607,
      "ces": 608,
      "Ġele": 609,
      "ound": 610,
      "Ġpres": 611,
      "Ġgen": 612,
      "Ġev": 613,
      "we": 614,
      "Ġ:": 615,
      "one": 616,
      "Ġrec": 617,
      "Ġem": 618,
      "uring": 619,
      "Ġcons": 620,
      "ric": 621,
      "ough": 622,
      "lic": 623,
      "Ġ3": 624,
      "Ġmore": 625,
      "ational": 626,
      "Ġ'": 627,
      "port": 628,
      "ors": 629,
      "ts": 630,
      "Ġrel": 631,
      "Ġmost": 632,
      "Ġtwo": 633,
      "low": 634,
      "ved": 635,
      "Ġpre": 636,
      "Ġso": 637,
      "Ġph": 638,
      "Ġused": 639,
      "ism": 640,
      "Ġthey": 641,
      "ks": 642,
      "Ġi": 643,
      "Ġpol": 644,
      "ade": 645,
      "Ġover": 646,
      "Ġreg": 647,
      "ited": 648,
      "Ġpe": 649,
      "Ġear": 650,
      "ents": 651,
      "Ġinto": 652,
      "ite": 653,
      "ase": 654,
      "Ġmay": 655,
      "Ġqu": 656,
      "ose": 657,
      "ied": 658,
      "Ġapp": 659,
      "ular": 660,
      "Ġtime": 661,
      "Ġbet": 662,
      "Ġfe": 663,
      "Ġkn": 664,
      "Ġnor": 665,
      "aw": 666,
      "les": 667,
      "Ġsome": 668,
      "Ġco": 669,
      "amp": 670,
      "Ġwar": 671,
      "Ġbl": 672,
      "Ġthan": 673,
      "Ġout": 674,
      "Ġpo": 675,
      "ted": 676,
      "reat": 677,
      "rib": 678,
      "ased": 679,
      "are": 680,
      "Ġprodu": 681,
      "olog": 682,
      "ress": 683,
      "Ġafter": 684,
      "ious": 685,
      "Ġatt": 686,
      "Ġter": 687,
      "ual": 688,
      "ood": 689,
      "Ġwe": 690,
      "wn": 691,
      "rough": 692,
      "Ġsub": 693,
      "Ġwould": 694,
      "Ġoff": 695,
      "ail": 696,
      "Ġonly": 697,
      "Ġup": 698,
      "ative": 699,
      "ween": 700,
      "this": 701,
      "stem": 702,
      "Ġac": 703,
      "Ġpop": 704,
      "Ġnum": 705,
      "Ġunder": 706,
      "ind": 707,
      "Ġworld": 708,
      "Ġlar": 709,
      "Ġap": 710,
      "Ġbr": 711,
      "Ġact": 712,
      "ath": 713,
      "gan": 714,
      "ific": 715,
      "Ġsystem": 716,
      "Ġma": 717,
      "Ġli": 718,
      "Ġbetween": 719,
      "Ġcount": 720,
      "ings": 721,
      "ten": 722,
      "Ġwhen": 723,
      "iss": 724,
      "Ġ199": 725,
      "ons": 726,
      "Ġeng": 727,
      "Ġtrans": 728,
      "Ġinc": 729,
      "Ġacc": 730,
      "overn": 731,
      "li": 732,
      "ics": 733,
      "Ġgener": 734,
      "ne": 735,
      "Ġrep": 736,
      "Ġdef": 737,
      "Ġcar": 738,
      "Ġ4": 739,
      "ft": 740,
      "Ġgovern": 741,
      "form": 742,
      "Ġthere": 743,
      "Ġ%": 744,
      "Ġpar": 745,
      "Ġwork": 746,
      "ident": 747,
      "Ġfr": 748,
      "tern": 749,
      "Ġplay": 750,
      "old": 751,
      "Ġpub": 752,
      "Ġass": 753,
      "Ġdo": 754,
      "ities": 755,
      "ury": 756,
      "Ġmany": 757,
      "Ġher": 758,
      "ution": 759,
      "Ġchar": 760,
      "Ġcall": 761,
      "Ġmin": 762,
      "eric": 763,
      "ild": 764,
      "uc": 765,
      "ep": 766,
      "Ġthem": 767,
      "Ġdif": 768,
      "Ġmon": 769,
      "Ġhim": 770,
      "Ġ5": 771,
      "ject": 772,
      "Ġfl": 773,
      "Ġrem": 774,
      "als": 775,
      "Ġjo": 776,
      "Ġtra": 777,
      "velop": 778,
      "ince": 779,
      "Ġinst": 780,
      "Ġspec": 781,
      "urn": 782,
      "iet": 783,
      "Ġthrough": 784,
      "Ġyears": 785,
      "Ġsou": 786,
      "Ġsupp": 787,
      "ating": 788,
      "Ġpos": 789,
      "ll": 790,
      "ever": 791,
      "ollow": 792,
      "Ġduring": 793,
      "ake": 794,
      "ished": 795,
      "Ġinv": 796,
      "Ġuse": 797,
      "Ġeu": 798,
      "Ġdevelop": 799,
      "ower": 800,
      "io": 801,
      "ms": 802,
      "Ġob": 803,
      "Ġstates": 804,
      "Ġabout": 805,
      "Ġfil": 806,
      "ys": 807,
      "ters": 808,
      "Ġmem": 809,
      "Ġinf": 810,
      "Ġameric": 811,
      "ram": 812,
      "int": 813,
      "round": 814,
      "Ġknown": 815,
      "owever": 816,
      "Ġset": 817,
      "Ġ/": 818,
      "cept": 819,
      "ward": 820,
      "ists": 821,
      "ays": 822,
      "ines": 823,
      "af": 824,
      "ily": 825,
      "Ġwhere": 826,
      "Ġwill": 827,
      "Ġprov": 828,
      "Ġed": 829,
      "ict": 830,
      "Ġdist": 831,
      "Ġvar": 832,
      "Ġfound": 833,
      "ause": 834,
      "Ġsch": 835,
      "cted": 836,
      "very": 837,
      "ond": 838,
      "Ġstate": 839,
      "roup": 840,
      "ient": 841,
      "Ġz": 842,
      "Ġexp": 843,
      "Ġend": 844,
      "Ġ198": 845,
      "ral": 846,
      "Ġdec": 847,
      "Ġau": 848,
      "ix": 849,
      "ments": 850,
      "Ġthese": 851,
      "Ġhigh": 852,
      "cess": 853,
      "Ġconst": 854,
      "its": 855,
      "Ġstud": 856,
      "Ġfin": 857,
      "Ġcity": 858,
      "Ġmus": 859,
      "Ġest": 860,
      "hip": 861,
      "Ġsm": 862,
      "ually": 863,
      "Ġcentury": 864,
      "ures": 865,
      "Ġwell": 866,
      "Ġfollow": 867,
      "Ġimp": 868,
      "ized": 869,
      "Ġbu": 870,
      "ise": 871,
      "Ġpeop": 872,
      "Ġgroup": 873,
      "Ġsim": 874,
      "Ġmade": 875,
      "Ġloc": 876,
      "ically": 877,
      "Ġadd": 878,
      "ivers": 879,
      "fore": 880,
      "Ġincluding": 881,
      "other": 882,
      "Ġent": 883,
      "Ġagain": 884,
      "Ġ6": 885,
      "Ġcalled": 886,
      "Ġger": 887,
      "Ġlater": 888,
      "Ġmain": 889,
      "Ġeff": 890,
      "tain": 891,
      "Ġgr": 892,
      "Ġca": 893,
      "Ġnumber": 894,
      "Ġunited": 895,
      "Ġbeing": 896,
      "ck": 897,
      "Ġcor": 898,
      "sel": 899,
      "Ġ197": 900,
      "Ġair": 901,
      "Ġgovernment": 902,
      "Ġthree": 903,
      "Ġwrit": 904,
      "Ġsur": 905,
      "ium": 906,
      "ctions": 907,
      "Ġsign": 908,
      "Ġdep": 909,
      "ined": 910,
      "Ġhist": 911,
      "cond": 912,
      "Ġeuro": 913,
      "Ġbro": 914,
      "Ġbecame": 915,
      "ature": 916,
      "Ġdiffer": 917,
      "Ġboth": 918,
      "ins": 919,
      "Ġany": 920,
      "Ġext": 921,
      "Ġmed": 922,
      "Ġpeople": 923,
      "Ġthen": 924,
      "ible": 925,
      "Ġoper": 926,
      "Ġwhile": 927,
      "Ġty": 928,
      "000": 929,
      "Ġsoc": 930,
      "Ġlang": 931,
      "ural": 932,
      "cy": 933,
      "ning": 934,
      "hen": 935,
      "Ġart": 936,
      "ron": 937,
      "Ġnational": 938,
      "ered": 939,
      "ving": 940,
      "Ġlangu": 941,
      "Ġsecond": 942,
      "Ġmu": 943,
      "iel": 944,
      "ah": 945,
      "Ġ196": 946,
      "Ġearly": 947,
      "Ġcre": 948,
      "Ġrom": 949,
      "Ġpers": 950,
      "Ġgu": 951,
      "ially": 952,
      "ick": 953,
      "ale": 954,
      "ather": 955,
      "Ġeurope": 956,
      "imes": 957,
      "Ġbel": 958,
      "bers": 959,
      "ility": 960,
      "ife": 961,
      "jor": 962,
      "Ġlong": 963,
      "Ġorig": 964,
      "Ġgerman": 965,
      "led": 966,
      "Ġdire": 967,
      "tle": 968,
      "gest": 969,
      "Ġbrit": 970,
      "ars": 971,
      "Ġarm": 972,
      "Ġintern": 973,
      "Ġpartic": 974,
      "Ġlike": 975,
      "hes": 976,
      "Ġsever": 977,
      "ank": 978,
      "Ġlead": 979,
      "min": 980,
      "ton": 981,
      "Ġlo": 982,
      "Ġcontin": 983,
      "ros": 984,
      "ames": 985,
      "Ġ17": 986,
      "though": 987,
      "Ġdisc": 988,
      "lished": 989,
      "ock": 990,
      "ision": 991,
      "Ġmajor": 992,
      "Ġking": 993,
      "ty": 994,
      "ians": 995,
      "Ġcommon": 996,
      "Ġ7": 997,
      "lish": 998,
      "ages": 999,
      "Ġdesc": 1000,
      "til": 1001,
      "Ġmet": 1002,
      "Ġresult": 1003,
      "Ġret": 1004,
      "Ġ8": 1005,
      "Ġmil": 1006,
      "Ġlaw": 1007,
      "lo": 1008,
      "Ġshe": 1009,
      "ange": 1010,
      "Ġlarge": 1011,
      "ful": 1012,
      "ulation": 1013,
      "ract": 1014,
      "ula": 1015,
      "Ġhum": 1016,
      "arch": 1017,
      "ven": 1018,
      "ork": 1019,
      "Ġown": 1020,
      "Ġdem": 1021,
      "by": 1022,
      "illion": 1023,
      "Ġorigin": 1024,
      "Ġocc": 1025,
      "Ġoften": 1026,
      "row": 1027,
      "erg": 1028,
      "Ġelect": 1029,
      "Ġcomple": 1030,
      "ues": 1031,
      "Ġsame": 1032,
      "Ġmat": 1033,
      "Ġpower": 1034,
      "Ġprog": 1035,
      "Ġsa": 1036,
      "Ġmod": 1037,
      "ield": 1038,
      "Ġfam": 1039,
      "Ġfour": 1040,
      "ology": 1041,
      "Ġstr": 1042,
      "Ġunivers": 1043,
      "ived": 1044,
      "osed": 1045,
      "Ġappe": 1046,
      "Ġpa": 1047,
      "Ġcontro": 1048,
      "Ġcommun": 1049,
      "Ġval": 1050,
      "vent": 1051,
      "Ġequ": 1052,
      "Ġcould": 1053,
      "Ġif": 1054,
      "Ġsupport": 1055,
      "rist": 1056,
      "ool": 1057,
      "iew": 1058,
      "be": 1059,
      "Ġ15": 1060,
      "ording": 1061,
      "Ġfilm": 1062,
      "az": 1063,
      "ger": 1064,
      "Ġop": 1065,
      "Ġpublic": 1066,
      "Ġincre": 1067,
      "Ġclass": 1068,
      "uss": 1069,
      "ants": 1070,
      "Ġamerican": 1071,
      "hem": 1072,
      "Ġagainst": 1073,
      "ared": 1074,
      "Ġnorth": 1075,
      "ble": 1076,
      "Ġserv": 1077,
      "Ġbased": 1078,
      "iod": 1079,
      "Ġpolit": 1080,
      "Ġconsid": 1081,
      "Ġsouth": 1082,
      "to": 1083,
      "conom": 1084,
      "ample": 1085,
      "Ġ10": 1086,
      "Ġleg": 1087,
      "Ġorgan": 1088,
      "ann": 1089,
      "ired": 1090,
      "ives": 1091,
      "ting": 1092,
      "Ġpri": 1093,
      "however": 1094,
      "Ġdesign": 1095,
      "Ġseveral": 1096,
      "Ġcap": 1097,
      "Ġbefore": 1098,
      "Ġeach": 1099,
      "Ġrele": 1100,
      "Ġtrad": 1101,
      "Ġgre": 1102,
      "Ġ9": 1103,
      "Ġremain": 1104,
      "Ġconf": 1105,
      "Ġsince": 1106,
      "oy": 1107,
      "ute": 1108,
      "Ġ16": 1109,
      "anc": 1110,
      "ĠâĢĶ": 1111,
      "Ġname": 1112,
      "Ġcur": 1113,
      "Ġsmall": 1114,
      "ised": 1115,
      "Ġbecause": 1116,
      "atic": 1117,
      "Ġisland": 1118,
      "Ġcal": 1119,
      "xt": 1120,
      "Ġir": 1121,
      "Ġdifferent": 1122,
      "Ġ194": 1123,
      "Ġke": 1124,
      "ued": 1125,
      "Ġeconom": 1126,
      "Ġsl": 1127,
      "Ġland": 1128,
      "Ġshow": 1129,
      "Ġrev": 1130,
      "Ġcolle": 1131,
      "Ġref": 1132,
      "Ġgreat": 1133,
      "hn": 1134,
      "Ġins": 1135,
      "up": 1136,
      "Ġgeneral": 1137,
      "ided": 1138,
      "Ġrequ": 1139,
      "mber": 1140,
      "rent": 1141,
      "Ġperiod": 1142,
      "urch": 1143,
      "aking": 1144,
      "lu": 1145,
      "orn": 1146,
      "ices": 1147,
      "Ġfre": 1148,
      "ves": 1149,
      "Ġcour": 1150,
      "Ġright": 1151,
      "Ġsing": 1152,
      "Ġstand": 1153,
      "Ġchrist": 1154,
      "Ġuntil": 1155,
      "Ġappro": 1156,
      "Ġfun": 1157,
      "raph": 1158,
      "Ġexample": 1159,
      "Ġbook": 1160,
      "Ġdiv": 1161,
      "cer": 1162,
      "Ġday": 1163,
      "Ġlit": 1164,
      "Ġcr": 1165,
      "Ġcountry": 1166,
      "Ġcharact": 1167,
      "ccess": 1168,
      "Ġeffect": 1169,
      "Ġold": 1170,
      "Ġgo": 1171,
      "ason": 1172,
      "ier": 1173,
      "chn": 1174,
      "ries": 1175,
      "Ġsol": 1176,
      "Ġimport": 1177,
      "Ġsw": 1178,
      "Ġdid": 1179,
      "Ġes": 1180,
      "Ġback": 1181,
      "there": 1182,
      "Ġann": 1183,
      "ional": 1184,
      "Ġinclude": 1185,
      "ital": 1186,
      "ruct": 1187,
      "omin": 1188,
      "Ġrefer": 1189,
      "Ã©": 1190,
      "Ġmoder": 1191,
      "Ġmark": 1192,
      "Ġschool": 1193,
      "Ġ195": 1194,
      "Ġorder": 1195,
      "Ġrecord": 1196,
      "ave": 1197,
      "thern": 1198,
      "Ġallow": 1199,
      "iver": 1200,
      "Ġport": 1201,
      "Ġformula": 1202,
      "Ġrad": 1203,
      "way": 1204,
      "bo": 1205,
      "Ġlife": 1206,
      "Ġpresident": 1207,
      "Ġel": 1208,
      "Ġge": 1209,
      "Ġprocess": 1210,
      "Ġparty": 1211,
      "Ġpass": 1212,
      "Ġbas": 1213,
      "Ġthough": 1214,
      "Ġla": 1215,
      "Ġer": 1216,
      "Ġsec": 1217,
      "Ġseries": 1218,
      "after": 1219,
      "Ġoffic": 1220,
      "ouse": 1221,
      "Ġhy": 1222,
      "Ġbritish": 1223,
      "Ġprogram": 1224,
      "Ġaround": 1225,
      "itions": 1226,
      "ified": 1227,
      "inc": 1228,
      "Ġposs": 1229,
      "Ġprop": 1230,
      "Ġsuccess": 1231,
      "Ġx": 1232,
      "self": 1233,
      "ience": 1234,
      "Ġcult": 1235,
      "pect": 1236,
      "ides": 1237,
      "ina": 1238,
      "na": 1239,
      "Ġcompan": 1240,
      "ull": 1241,
      "Ġmid": 1242,
      "Ġthose": 1243,
      "Ġlanguage": 1244,
      "Ġprot": 1245,
      "me": 1246,
      "Ġestab": 1247,
      "ik": 1248,
      "Ġtechn": 1249,
      "Ġav": 1250,
      "Ġmag": 1251,
      "Ġmusic": 1252,
      "ene": 1253,
      "Ġmilit": 1254,
      "Ġbegan": 1255,
      "Ġdirect": 1256,
      "aim": 1257,
      "Ġant": 1258,
      "ization": 1259,
      "ner": 1260,
      "Ġnon": 1261,
      "Ġnow": 1262,
      "ane": 1263,
      "Ġpat": 1264,
      "Ġ12": 1265,
      "Ġ<": 1266,
      "Ġmillion": 1267,
      "ended": 1268,
      "ross": 1269,
      "els": 1270,
      "mb": 1271,
      "ission": 1272,
      "Ġdescrib": 1273,
      "Ġeven": 1274,
      "por": 1275,
      "Ġword": 1276,
      "ement": 1277,
      "Ġmodern": 1278,
      "Ġperson": 1279,
      "Ġexpl": 1280,
      "ird": 1281,
      "Ġopp": 1282,
      "ote": 1283,
      "ets": 1284,
      "Ġhand": 1285,
      "imate": 1286,
      "ret": 1287,
      "Ġexper": 1288,
      "ently": 1289,
      "Ġuniversity": 1290,
      "Ġdeath": 1291,
      "ov": 1292,
      "Ġpopulation": 1293,
      "Ġii": 1294,
      "Ġrepres": 1295,
      "ink": 1296,
      "Ġbat": 1297,
      "eng": 1298,
      "Ġfact": 1299,
      "Ġwithin": 1300,
      "Ġrece": 1301,
      "Ġadv": 1302,
      "most": 1303,
      "Ġterm": 1304,
      "Ġinflu": 1305,
      "Ġcoun": 1306,
      "Ġje": 1307,
      "Ġmuch": 1308,
      "Ġbar": 1309,
      "Ġlat": 1310,
      "acc": 1311,
      "Ġarea": 1312,
      "Ġindu": 1313,
      "rop": 1314,
      "Ġfore": 1315,
      "they": 1316,
      "ences": 1317,
      "ilar": 1318,
      "Ġtem": 1319,
      "Ġteam": 1320,
      "Ġamong": 1321,
      "air": 1322,
      "Ġbelie": 1323,
      "Ġinternational": 1324,
      "Ġjohn": 1325,
      "par": 1326,
      "Ġwest": 1327,
      "Ġauth": 1328,
      "son": 1329,
      "ases": 1330,
      "Ġnear": 1331,
      "Ġline": 1332,
      "ax": 1333,
      "Ġopen": 1334,
      "Ġrest": 1335,
      "ration": 1336,
      "thod": 1337,
      "Ġrun": 1338,
      "Ġpolitical": 1339,
      "iation": 1340,
      "rodu": 1341,
      "Ġ193": 1342,
      "Ġgame": 1343,
      "Ġusing": 1344,
      "Ġfollowing": 1345,
      "ug": 1346,
      "wh": 1347,
      "Ġphil": 1348,
      "these": 1349,
      "ister": 1350,
      "Ġgiv": 1351,
      "rench": 1352,
      "ize": 1353,
      "Ġhuman": 1354,
      "Ġhar": 1355,
      "Ġvery": 1356,
      "Ġcrit": 1357,
      "Ġled": 1358,
      "Ġchurch": 1359,
      "omet": 1360,
      "amed": 1361,
      "Ġstart": 1362,
      "Ġwater": 1363,
      "ius": 1364,
      "Ġtri": 1365,
      "Ġmembers": 1366,
      "used": 1367,
      "Ġpopular": 1368,
      "com": 1369,
      "Ġwhat": 1370,
      "Ġrese": 1371,
      "Ġsk": 1372,
      "Ġenglish": 1373,
      "Ġtyp": 1374,
      "Ġstat": 1375,
      "ories": 1376,
      "Ġdue": 1377,
      "cent": 1378,
      "Ġresp": 1379,
      "ense": 1380,
      "Ġjust": 1381,
      "ley": 1382,
      "Ġlast": 1383,
      "omen": 1384,
      "Ġreport": 1385,
      "Ġvers": 1386,
      "Ġhead": 1387,
      "Ġchild": 1388,
      "ament": 1389,
      "Ġstill": 1390,
      "Ġmove": 1391,
      "Ġmilitary": 1392,
      "Ġgod": 1393,
      "Ġvis": 1394,
      "yn": 1395,
      "Ġarg": 1396,
      "Ġ$": 1397,
      "Ġdown": 1398,
      "ality": 1399,
      "Ġcer": 1400,
      "iety": 1401,
      "itional": 1402,
      "ark": 1403,
      "Ġparticular": 1404,
      "Ġfield": 1405,
      "Ġfrench": 1406,
      "aced": 1407,
      "gin": 1408,
      "Ġrelig": 1409,
      "Ġve": 1410,
      "Ġreturn": 1411,
      "ness": 1412,
      "ency": 1413,
      "Ġrepresent": 1414,
      "Ġtele": 1415,
      "Ġless": 1416,
      "Ġaust": 1417,
      "Ġroman": 1418,
      "ode": 1419,
      "Ġ11": 1420,
      "Ġaff": 1421,
      "Ġlevel": 1422,
      "Ġsocial": 1423,
      "Ġeas": 1424,
      "read": 1425,
      "Ġassoc": 1426,
      "Ġeast": 1427,
      "Ġcontain": 1428,
      "Ġpresent": 1429,
      "Ġhel": 1430,
      "Ġalong": 1431,
      "Ġcharacter": 1432,
      "Ġsee": 1433,
      "Ġlim": 1434,
      "olution": 1435,
      "une": 1436,
      "tal": 1437,
      "Ġdevelopment": 1438,
      "Ġste": 1439,
      "ash": 1440,
      "ony": 1441,
      "ript": 1442,
      "oph": 1443,
      "que": 1444,
      "Ġhouse": 1445,
      "Ġhig": 1446,
      "br": 1447,
      "Ġcamp": 1448,
      "Ġhistor": 1449,
      "Ġcontrol": 1450,
      "Ġlate": 1451,
      "epend": 1452,
      "Ġmy": 1453,
      "Ġ13": 1454,
      "Ġway": 1455,
      "Ġnat": 1456,
      "Ġlab": 1457,
      "Ġep": 1458,
      "Ġ14": 1459,
      "Ġsimilar": 1460,
      "Ġsaid": 1461,
      "ator": 1462,
      "Ġhistory": 1463,
      "ival": 1464,
      "Ġbod": 1465,
      "Ġfar": 1466,
      "Ġpoint": 1467,
      "Ġide": 1468,
      "estern": 1469,
      "some": 1470,
      "Ġstandard": 1471,
      "Ġspace": 1472,
      "erv": 1473,
      "Ġwin": 1474,
      "ged": 1475,
      "Ġanother": 1476,
      "Ġsuper": 1477,
      "sc": 1478,
      "med": 1479,
      "Ġbus": 1480,
      "Ġvol": 1481,
      "ublic": 1482,
      "Ġbuild": 1483,
      "Ġhome": 1484,
      "Ġeuropean": 1485,
      "Ġprof": 1486,
      "Ġtimes": 1487,
      "Ġ192": 1488,
      "Ġplace": 1489,
      "Ġconsidered": 1490,
      "Ġhal": 1491,
      "co": 1492,
      "ograph": 1493,
      "yl": 1494,
      "Ġdev": 1495,
      "Ġmor": 1496,
      "gen": 1497,
      "Ġvi": 1498,
      "Ġiss": 1499,
      "Ġpract": 1500,
      "Ġclaim": 1501,
      "Ġred": 1502,
      "Ġindepend": 1503,
      "mer": 1504,
      "Ġdra": 1505,
      "Ġcomb": 1506,
      "Ġarch": 1507,
      "Ġmass": 1508,
      "Ġimportant": 1509,
      "Ġleft": 1510,
      "Ġident": 1511,
      "ata": 1512,
      "Ġexist": 1513,
      "Ġevery": 1514,
      "ior": 1515,
      "Ġpublished": 1516,
      "Ġtreat": 1517,
      "alth": 1518,
      "Ġang": 1519,
      "Ġindust": 1520,
      "Ġafric": 1521,
      "Ġfamily": 1522,
      "Ġcentral": 1523,
      "Ġalb": 1524,
      "Ġauthor": 1525,
      "lear": 1526,
      "Ġdecl": 1527,
      "ively": 1528,
      "Ġprim": 1529,
      "Ġshort": 1530,
      "uted": 1531,
      "ological": 1532,
      "ple": 1533,
      "Ġsal": 1534,
      "Ġview": 1535,
      "during": 1536,
      "Ġwithout": 1537,
      "ison": 1538,
      "Ġciv": 1539,
      "Ġlow": 1540,
      "Ġarmy": 1541,
      "Ġmult": 1542,
      "Ġtest": 1543,
      "Ġmen": 1544,
      "Ġband": 1545,
      "ats": 1546,
      "Ġmake": 1547,
      "ither": 1548,
      "Ġju": 1549,
      "Ġfree": 1550,
      "ont": 1551,
      "Ġcir": 1552,
      "Ġemp": 1553,
      "ler": 1554,
      "Ġalthough": 1555,
      "Ġcountries": 1556,
      "Ġsug": 1557,
      "ai": 1558,
      "Ġpur": 1559,
      "Ġrepl": 1560,
      "Ġdeveloped": 1561,
      "Ġdi": 1562,
      "urther": 1563,
      "Ġbre": 1564,
      "Ġlocal": 1565,
      "ec": 1566,
      "ured": 1567,
      "Ġgiven": 1568,
      "Ġrepublic": 1569,
      "Ġlight": 1570,
      "bs": 1571,
      "Ġsour": 1572,
      "ument": 1573,
      "Ġnet": 1574,
      "Ġintrodu": 1575,
      "oss": 1576,
      "Ġtook": 1577,
      "ese": 1578,
      "Ġtit": 1579,
      "Ġphys": 1580,
      "Ġneed": 1581,
      "Ġchang": 1582,
      "Ġlargest": 1583,
      "bert": 1584,
      "dom": 1585,
      "ried": 1586,
      "ps": 1587,
      "Ġfew": 1588,
      "Ġunion": 1589,
      "empt": 1590,
      "Ġhowever": 1591,
      "enn": 1592,
      "Ġincluded": 1593,
      "akes": 1594,
      "Ġthird": 1595,
      "Ġoccur": 1596,
      "Ġpost": 1597,
      "Ġheld": 1598,
      "iated": 1599,
      "Ġfive": 1600,
      "Ġforce": 1601,
      "Ġmethod": 1602,
      "Ġvarious": 1603,
      "day": 1604,
      "Ġbecome": 1605,
      "Ġconstit": 1606,
      "Ġstruct": 1607,
      "Ġ191": 1608,
      "according": 1609,
      "rote": 1610,
      "Ġsingle": 1611,
      "Ġblack": 1612,
      "Ġaug": 1613,
      "eder": 1614,
      "Ġwestern": 1615,
      "ling": 1616,
      "less": 1617,
      "Ġinit": 1618,
      "Ġcivil": 1619,
      "Ġusually": 1620,
      "Ġformer": 1621,
      "Ġreleased": 1622,
      "val": 1623,
      "istic": 1624,
      "Ġattack": 1625,
      "Ġreal": 1626,
      "Ġplan": 1627,
      "cil": 1628,
      "work": 1629,
      "Ġoct": 1630,
      "ctor": 1631,
      "his": 1632,
      "Ġproper": 1633,
      "ze": 1634,
      "Ġgl": 1635,
      "Ġevent": 1636,
      "Ġsystems": 1637,
      "Ġver": 1638,
      "Ġsignific": 1639,
      "ably": 1640,
      "Ġregion": 1641,
      "Ġcourt": 1642,
      "ivid": 1643,
      "Ġ]": 1644,
      "Ġtop": 1645,
      "pec": 1646,
      "ogn": 1647,
      "when": 1648,
      "Ġinvol": 1649,
      "Ġredu": 1650,
      "Ġcompany": 1651,
      "ilt": 1652,
      "Ġital": 1653,
      "Ġsix": 1654,
      "Ġcase": 1655,
      "Ġ[": 1656,
      "Ġra": 1657,
      "ember": 1658,
      "Ġjan": 1659,
      "sh": 1660,
      "Ġmot": 1661,
      "wards": 1662,
      "Ġlet": 1663,
      "mit": 1664,
      "erc": 1665,
      "Ġcond": 1666,
      "gr": 1667,
      "Ġtheory": 1668,
      "Ġage": 1669,
      "Ġbest": 1670,
      "Ġgree": 1671,
      "Ġfo": 1672,
      "ths": 1673,
      "apan": 1674,
      "Ġforces": 1675,
      "Ġprom": 1676,
      "here": 1677,
      "Ġservice": 1678,
      "Ġgrow": 1679,
      "Ġcirc": 1680,
      "Ġturn": 1681,
      "ploy": 1682,
      "Ġwrote": 1683,
      "Ġmal": 1684,
      "Ġru": 1685,
      "Ġrul": 1686,
      "ergy": 1687,
      "Ġproduction": 1688,
      "Ġaugust": 1689,
      "Ġbi": 1690,
      "Ġwide": 1691,
      "uary": 1692,
      "Ġread": 1693,
      "Ġcy": 1694,
      "Ġoriginal": 1695,
      "Ġden": 1696,
      "hest": 1697,
      "Ġspecial": 1698,
      "ae": 1699,
      "Ġactiv": 1700,
      "ividual": 1701,
      "Ġstar": 1702,
      "Ġpal": 1703,
      "Ġestablished": 1704,
      "Ġbeh": 1705,
      "Ġproduct": 1706,
      "Ġmater": 1707,
      "ential": 1708,
      "Ġinform": 1709,
      "Ġmust": 1710,
      "Ġdece": 1711,
      "ones": 1712,
      "ma": 1713,
      "Ġfunction": 1714,
      "Ġseason": 1715,
      "Ġshould": 1716,
      "Ġruss": 1717,
      "Ġjew": 1718,
      "Ġgood": 1719,
      "Ġcurrent": 1720,
      "idence": 1721,
      "Ġriver": 1722,
      "ination": 1723,
      "Ġeduc": 1724,
      "Ġmean": 1725,
      "ring": 1726,
      "Ġhow": 1727,
      "Ġsignificant": 1728,
      "Ġproduced": 1729,
      "uter": 1730,
      "Ġpress": 1731,
      "Ġproject": 1732,
      "Ġyork": 1733,
      "viet": 1734,
      "Ġwomen": 1735,
      "Ġjapan": 1736,
      "Ġwritten": 1737,
      "Ġgra": 1738,
      "let": 1739,
      "Ġdoes": 1740,
      "Ġproble": 1741,
      "ob": 1742,
      "Ġmarch": 1743,
      "Ġrole": 1744,
      "Ġareas": 1745,
      "Ġperform": 1746,
      "Ġwhite": 1747,
      "ability": 1748,
      "Ġindividual": 1749,
      "Ġattempt": 1750,
      "Ġrelations": 1751,
      "while": 1752,
      "Ġanal": 1753,
      "sequ": 1754,
      "etic": 1755,
      "Ġsum": 1756,
      "Ġnamed": 1757,
      "Ġsept": 1758,
      "Ġhaving": 1759,
      "itive": 1760,
      "Ġber": 1761,
      "Ġobs": 1762,
      "Ġaut": 1763,
      "ention": 1764,
      "Ġcame": 1765,
      "iam": 1766,
      "ining": 1767,
      "ying": 1768,
      "Ġgroups": 1769,
      "Ġbra": 1770,
      "Ġresearch": 1771,
      "Ġearth": 1772,
      "Ġstrong": 1773,
      "Ġmeas": 1774,
      "Ġobject": 1775,
      "ards": 1776,
      "Ġder": 1777,
      "ometimes": 1778,
      "Ġsun": 1779,
      "Ġsyn": 1780,
      "Ġsoviet": 1781,
      "lect": 1782,
      "Ġ0": 1783,
      "ex": 1784,
      "Ġgames": 1785,
      "Ġsepar": 1786,
      "ruction": 1787,
      "Ġsuggest": 1788,
      "ges": 1789,
      "vious": 1790,
      "Ġworks": 1791,
      "Ġdet": 1792,
      "Ġcouncil": 1793,
      "ril": 1794,
      "iving": 1795,
      "Ġdescribed": 1796,
      "Ġjanuary": 1797,
      "Ġtotal": 1798,
      "Ġengine": 1799,
      "ove": 1800,
      "ober": 1801,
      "Ġce": 1802,
      "ids": 1803,
      "Ġeconomic": 1804,
      "Ġsong": 1805,
      "ances": 1806,
      "Ġcell": 1807,
      "Ġur": 1808,
      "Ġmaterial": 1809,
      "ung": 1810,
      "Ġyou": 1811,
      "Ġbody": 1812,
      "Ġrock": 1813,
      "Ġinstit": 1814,
      "Ġanc": 1815,
      "ots": 1816,
      "raft": 1817,
      "Ġeither": 1818,
      "Ġsty": 1819,
      "Ġkingdom": 1820,
      "Ġchristian": 1821,
      "Ġoctober": 1822,
      "Ġjune": 1823,
      "Ġmic": 1824,
      "Ġtro": 1825,
      "Ġterrit": 1826,
      "lin": 1827,
      "Ġenergy": 1828,
      "yal": 1829,
      "Ġsat": 1830,
      "Ġdecember": 1831,
      "side": 1832,
      "ipp": 1833,
      "ites": 1834,
      "Ġhelp": 1835,
      "Ġcreated": 1836,
      "Ġempire": 1837,
      "Ġseptember": 1838,
      "iate": 1839,
      "ising": 1840,
      "Ġsent": 1841,
      "Ġson": 1842,
      "Ġjuly": 1843,
      "Ġjud": 1844,
      "ends": 1845,
      "Ġanim": 1846,
      "ague": 1847,
      "Ġbroad": 1848,
      "although": 1849,
      "Ġappear": 1850,
      "Ġbor": 1851,
      "Ġinterest": 1852,
      "ored": 1853,
      "Ġfurther": 1854,
      "Ġwon": 1855,
      "Ġdest": 1856,
      "Ġcat": 1857,
      "Ġtake": 1858,
      "Ġmount": 1859,
      "augh": 1860,
      "Ġofficial": 1861,
      "Ġnatural": 1862,
      "Ġsea": 1863,
      "aken": 1864,
      "thing": 1865,
      "ering": 1866,
      "aces": 1867,
      "sy": 1868,
      "ected": 1869,
      "Ġfrequ": 1870,
      "gy": 1871,
      "Ġpolic": 1872,
      "iness": 1873,
      "Ġcover": 1874,
      "Ġothers": 1875,
      "Ġlist": 1876,
      "Ġcare": 1877,
      "ware": 1878,
      "Ġpot": 1879,
      "Ġalbum": 1880,
      "ification": 1881,
      "ball": 1882,
      "Ġara": 1883,
      "Ġsometimes": 1884,
      "Ġkill": 1885,
      "Ġvir": 1886,
      "20": 1887,
      "Ġbuilt": 1888,
      "Ġexpress": 1889,
      "Ġreceived": 1890,
      "Ġrather": 1891,
      "osp": 1892,
      "pecially": 1893,
      "Ġliter": 1894,
      "with": 1895,
      "ada": 1896,
      "Ġspecies": 1897,
      "olic": 1898,
      "avy": 1899,
      "mar": 1900,
      "ox": 1901,
      "cing": 1902,
      "Ġagre": 1903,
      "Ġfund": 1904,
      "Ġgermany": 1905,
      "ott": 1906,
      "Ġpriv": 1907,
      "aster": 1908,
      "Ġtown": 1909,
      "ead": 1910,
      "Ġnove": 1911,
      "atures": 1912,
      "Ġcommand": 1913,
      "Ġfull": 1914,
      "Ġespecially": 1915,
      "asing": 1916,
      "Ġnovember": 1917,
      "su": 1918,
      "Ġdata": 1919,
      "Ġconcer": 1920,
      "rict": 1921,
      "ched": 1922,
      "Ġstre": 1923,
      "Ġchildren": 1924,
      "ham": 1925,
      "Ġyoun": 1926,
      "Ġhalf": 1927,
      "get": 1928,
      "Ġnorthern": 1929,
      "de": 1930,
      "Ġvict": 1931,
      "Ġaustral": 1932,
      "Ġrecogn": 1933,
      "Ġgenerally": 1934,
      "Ġsold": 1935,
      "Ġeth": 1936,
      "Ġearli": 1937,
      "Ġdemoc": 1938,
      "Ġcontinued": 1939,
      "Ġdeter": 1940,
      "Ġdri": 1941,
      "Ġlanguages": 1942,
      "Ġtur": 1943,
      "Ġplayed": 1944,
      "Ġnever": 1945,
      "ops": 1946,
      "Ġapril": 1947,
      "Ġcompet": 1948,
      "Ġsuff": 1949,
      "Ġpain": 1950,
      "Ġscience": 1951,
      "Ġ25": 1952,
      "Ġadmin": 1953,
      "ending": 1954,
      "Ġversion": 1955,
      "acy": 1956,
      "Ġmiss": 1957,
      "Ġblock": 1958,
      "Ġdeb": 1959,
      "Ġmanag": 1960,
      "Ġ30": 1961,
      "Ġtype": 1962,
      "Ġdr": 1963,
      "Ġstudy": 1964,
      "Ġcop": 1965,
      "Ġdiscover": 1966,
      "Ġship": 1967,
      "Ġpossible": 1968,
      "bur": 1969,
      "ways": 1970,
      "Ġfather": 1971,
      "go": 1972,
      "mon": 1973,
      "Ġinvest": 1974,
      "Ġaddition": 1975,
      "iction": 1976,
      "ming": 1977,
      "Ġnuc": 1978,
      "Ġdomin": 1979,
      "Ġscient": 1980,
      "of": 1981,
      "many": 1982,
      "Ġposition": 1983,
      "Ġfeder": 1984,
      "Ġox": 1985,
      "pre": 1986,
      "Ġbur": 1987,
      "craft": 1988,
      "Ġmaking": 1989,
      "Ġfrance": 1990,
      "vision": 1991,
      "Ġconcept": 1992,
      "Ġphilos": 1993,
      "Ġclose": 1994,
      "ned": 1995,
      "Ġlower": 1996,
      "ators": 1997,
      "Ġren": 1998,
      "anish": 1999,
      "incip": 2000,
      "Ġengland": 2001,
      "Ġside": 2002,
      "Ġavail": 2003,
      "Ġdiff": 2004,
      "enced": 2005,
      "Ġwal": 2006,
      "tic": 2007,
      "Ġprevious": 2008,
      "vir": 2009,
      "Ġcost": 2010,
      "Ġhen": 2011,
      "Ġpred": 2012,
      "Ġho": 2013,
      "Ġbal": 2014,
      "Ġmember": 2015,
      "Ġhold": 2016,
      "Ġneg": 2017,
      "dle": 2018,
      "gether": 2019,
      "Ġrange": 2020,
      "Ġaccept": 2021,
      "Ġnext": 2022,
      "Ġprincip": 2023,
      "Ġcapital": 2024,
      "utes": 2025,
      "Ġmovement": 2026,
      "ches": 2027,
      "Ġfail": 2028,
      "apt": 2029,
      "Ġsouthern": 2030,
      "Ġmarket": 2031,
      "Ġsound": 2032,
      "Ġdays": 2033,
      "Ġforeign": 2034,
      "Ġenc": 2035,
      "Ġfinal": 2036,
      "Ġimpro": 2037,
      "Ġfa": 2038,
      "ounced": 2039,
      "Ġtre": 2040,
      "ief": 2041,
      "Ġchange": 2042,
      "Ġcommit": 2043,
      "Ġcoast": 2044,
      "Ġsex": 2045,
      "Ġsel": 2046,
      "arian": 2047,
      "Ġrights": 2048,
      "Ġbattle": 2049,
      "Ġcapt": 2050,
      "Ġsubject": 2051,
      "osition": 2052,
      "ude": 2053,
      "Ġbase": 2054,
      "bru": 2055,
      "Ġknow": 2056,
      "oms": 2057,
      "utions": 2058,
      "Ġtrade": 2059,
      "Ġwee": 2060,
      "Ġgold": 2061,
      "Ġmodel": 2062,
      "orts": 2063,
      "ensive": 2064,
      "Ġterms": 2065,
      "Ġprofess": 2066,
      "Ġach": 2067,
      "ney": 2068,
      "Ġradio": 2069,
      "Ġcomplex": 2070,
      "Ġfri": 2071,
      "Ġtemper": 2072,
      "Ġprote": 2073,
      "Ġsociety": 2074,
      "Ġreligious": 2075,
      "Ġsil": 2076,
      "cul": 2077,
      "Ġbegin": 2078,
      "Ġamerica": 2079,
      "Ġ2010": 2080,
      "Ġhimself": 2081,
      "ains": 2082,
      "Ġcertain": 2083,
      "Ġ>": 2084,
      "Ġregard": 2085,
      "Ġleast": 2086,
      "Ġgreek": 2087,
      "Ã¡": 2088,
      "not": 2089,
      "ached": 2090,
      "face": 2091,
      "Ġcath": 2092,
      "Ġseen": 2093,
      "Ġcoll": 2094,
      "Ġdu": 2095,
      "Ġaward": 2096,
      "Ġhost": 2097,
      "Ġoffice": 2098,
      "Ġeastern": 2099,
      "Ġdou": 2100,
      "ints": 2101,
      "Ġformed": 2102,
      "Ġinformation": 2103,
      "imately": 2104,
      "ained": 2105,
      "Ġhigher": 2106,
      "rug": 2107,
      "Ġconstitution": 2108,
      "Ġcomplete": 2109,
      "Ġrail": 2110,
      "sp": 2111,
      "ban": 2112,
      "Ġcenter": 2113,
      "ondon": 2114,
      "Ġinte": 2115,
      "Ġtour": 2116,
      "Ġtar": 2117,
      "bruary": 2118,
      "arily": 2119,
      "Ġfac": 2120,
      "Ġaccount": 2121,
      "Ġfebruary": 2122,
      "Ġislands": 2123,
      "mal": 2124,
      "Ġchem": 2125,
      "Ġhol": 2126,
      "Ġleague": 2127,
      "ana": 2128,
      "Ġfall": 2129,
      "Ġabove": 2130,
      "Ġliber": 2131,
      "line": 2132,
      "Ġfoot": 2133,
      "Ġminister": 2134,
      "ille": 2135,
      "Ġintroduced": 2136,
      "Ġcast": 2137,
      "Ġtravel": 2138,
      "rew": 2139,
      "Ġhard": 2140,
      "Ġfem": 2141,
      "Ġstory": 2142,
      "Ġanti": 2143,
      "Ġnetwork": 2144,
      "uel": 2145,
      "inted": 2146,
      "iment": 2147,
      "Ġchina": 2148,
      "Ġthus": 2149,
      "Ġmach": 2150,
      "Ġ1990": 2151,
      "Ġmagn": 2152,
      "Ġill": 2153,
      "Ġbusiness": 2154,
      "Ġ100": 2155,
      "Ġdied": 2156,
      "Ġlondon": 2157,
      "icle": 2158,
      "Ġavailable": 2159,
      "chan": 2160,
      "ades": 2161,
      "Ġche": 2162,
      "Ġwind": 2163,
      "Ġpen": 2164,
      "pite": 2165,
      "ster": 2166,
      "Ġparts": 2167,
      "Ġfind": 2168,
      "Ġfeature": 2169,
      "she": 2170,
      "Ġcong": 2171,
      "Ġwilliam": 2172,
      "lement": 2173,
      "Ġmiddle": 2174,
      "Ġmeans": 2175,
      "Ġstyle": 2176,
      "Ġitself": 2177,
      "Ġadop": 2178,
      "Ġuk": 2179,
      "ĠÂ": 2180,
      "Ġten": 2181,
      "ky": 2182,
      "lam": 2183,
      "Ġexec": 2184,
      "Ġtax": 2185,
      "Ġfood": 2186,
      "Ġeducation": 2187,
      "Ġaccording": 2188,
      "Ġsam": 2189,
      "aries": 2190,
      "bal": 2191,
      "hib": 2192,
      "Ġ190": 2193,
      "Ġroyal": 2194,
      "Ġthroughout": 2195,
      "Ġsen": 2196,
      "Ġhor": 2197,
      "Ġoffer": 2198,
      "Ġabs": 2199,
      "Ġdoc": 2200,
      "Ġcontrib": 2201,
      "Ġrespect": 2202,
      "Ġelection": 2203,
      "Ġq": 2204,
      "Ġconsist": 2205,
      "lex": 2206,
      "Ġlog": 2207,
      "Ġgeor": 2208,
      "pr": 2209,
      "Ġemploy": 2210,
      "Ġtraditional": 2211,
      "ples": 2212,
      "rael": 2213,
      "ape": 2214,
      "Ġadminist": 2215,
      "istan": 2216,
      "Ġforms": 2217,
      "Ġtogether": 2218,
      "Ġfer": 2219,
      "Ġfollowed": 2220,
      "Ġ21": 2221,
      "Ġindic": 2222,
      "Ġnumbers": 2223,
      "ique": 2224,
      "Ġrelative": 2225,
      "Ġtelevision": 2226,
      "Ġbud": 2227,
      "Ġnovel": 2228,
      "Ġsan": 2229,
      "Ġkey": 2230,
      "Ġ2000": 2231,
      "Ġhealth": 2232,
      "ino": 2233,
      "Ġdel": 2234,
      "ta": 2235,
      "Ġhom": 2236,
      "Ġapplic": 2237,
      "Ġconn": 2238,
      "Ġrate": 2239,
      "viron": 2240,
      "forman": 2241,
      "Ġlaun": 2242,
      "Ġborn": 2243,
      "Ġground": 2244,
      "ns": 2245,
      "Ġcolon": 2246,
      "Ġaver": 2247,
      "Ġmultip": 2248,
      "Ġvo": 2249,
      "anted": 2250,
      "Ġ1980": 2251,
      "Ġlittle": 2252,
      "Ġrelated": 2253,
      "since": 2254,
      "Ġsubst": 2255,
      "ateg": 2256,
      "Ġcommunity": 2257,
      "ption": 2258,
      "Ġviol": 2259,
      "Ġdom": 2260,
      "Ġ2011": 2261,
      "Ġ2008": 2262,
      "Ġsqu": 2263,
      "Ġperforman": 2264,
      "Ġentire": 2265,
      "Ġinfluence": 2266,
      "Ġrule": 2267,
      "Ġalmost": 2268,
      "fact": 2269,
      "ha": 2270,
      "Ġclub": 2271,
      "inese": 2272,
      "Ġcross": 2273,
      "Ġhyd": 2274,
      "oted": 2275,
      "omb": 2276,
      "Ġdon": 2277,
      "Ġpsy": 2278,
      "Ġevidence": 2279,
      "Ġsem": 2280,
      "Ġacross": 2281,
      "po": 2282,
      "Ġfire": 2283,
      "Ġenviron": 2284,
      "Ġpark": 2285,
      "Ġcit": 2286,
      "Ġput": 2287,
      "Ġpercent": 2288,
      "Ġfoc": 2289,
      "Ġelements": 2290,
      "Ġsit": 2291,
      "inal": 2292,
      "Ġaccess": 2293,
      "Ġmaintain": 2294,
      "Ġfav": 2295,
      "Ġimm": 2296,
      "Ġparli": 2297,
      "Ġfig": 2298,
      "Ġachie": 2299,
      "Ġinstead": 2300,
      "Ġremained": 2301,
      "Ġparticularly": 2302,
      "ceed": 2303,
      "erous": 2304,
      "Ġtrib": 2305,
      "Ġsuccessful": 2306,
      "Ġwhose": 2307,
      "Ġindia": 2308,
      "Ġestim": 2309,
      "Ġdepart": 2310,
      "Ġcam": 2311,
      "Ġcomputer": 2312,
      "Ġ189": 2313,
      "Ġpoly": 2314,
      "Ġculture": 2315,
      "Ġupon": 2316,
      "Ġarab": 2317,
      "aves": 2318,
      "Ġschol": 2319,
      "Ġdam": 2320,
      "Ġ2009": 2321,
      "like": 2322,
      "adem": 2323,
      "Ġlost": 2324,
      "Ġball": 2325,
      "rap": 2326,
      "Ġexcept": 2327,
      "idge": 2328,
      "Ġ2007": 2329,
      "Ġstri": 2330,
      "Ġcollege": 2331,
      "icult": 2332,
      "Ġmeet": 2333,
      "aign": 2334,
      "lim": 2335,
      "oman": 2336,
      "Ġroad": 2337,
      "Ġ1970": 2338,
      "Ġsecret": 2339,
      "Ġincreased": 2340,
      "Ġglo": 2341,
      "Ġreform": 2342,
      "ened": 2343,
      "reg": 2344,
      "Ġlib": 2345,
      "Ġdisp": 2346,
      "Ġasse": 2347,
      "Ġsource": 2348,
      "Ġgrand": 2349,
      "Ġtal": 2350,
      "Ġcritic": 2351,
      "lation": 2352,
      "Ġdemocr": 2353,
      "stand": 2354,
      "Ġparliament": 2355,
      "Ġdav": 2356,
      "Ġconvent": 2357,
      "Ġrich": 2358,
      "Ġhit": 2359,
      "Ġvalue": 2360,
      "Ġrequired": 2361,
      "ror": 2362,
      "Ġaud": 2363,
      "Ġreported": 2364,
      "Ġbuilding": 2365,
      "uses": 2366,
      "Ġsoft": 2367,
      "Ġspecific": 2368,
      "Ġdistrib": 2369,
      "Ġdispl": 2370,
      "Ġcampaign": 2371,
      "Ġservices": 2372,
      "Ġthought": 2373,
      "rast": 2374,
      "Ġlatin": 2375,
      "Ġassociated": 2376,
      "Ġbc": 2377,
      "Ġchinese": 2378,
      "Ġtaken": 2379,
      "Ġ50": 2380,
      "atory": 2381,
      "hers": 2382,
      "Ġnature": 2383,
      "Ġspeed": 2384,
      "ingu": 2385,
      "ope": 2386,
      "xic": 2387,
      "Ġisrael": 2388,
      "cle": 2389,
      "Ġgreen": 2390,
      "Ġwent": 2391,
      "Ġprob": 2392,
      "Ġmechan": 2393,
      "Ġtradition": 2394,
      "Ġlive": 2395,
      "rian": 2396,
      "Ġdistin": 2397,
      "Ġdig": 2398,
      "Ġstructure": 2399,
      "thes": 2400,
      "Ġ2012": 2401,
      "Ġlocated": 2402,
      "aps": 2403,
      "Ġbrother": 2404,
      "Ġrespons": 2405,
      "Ġmoved": 2406,
      "bit": 2407,
      "Ġ&": 2408,
      "ours": 2409,
      "Ġancient": 2410,
      "Ġhon": 2411,
      "Ġpsych": 2412,
      "Ġrank": 2413,
      "Ġmajority": 2414,
      "Ġapprox": 2415,
      "king": 2416,
      "Ġwords": 2417,
      "bon": 2418,
      "Ġallowed": 2419,
      "Ġul": 2420,
      "Ġself": 2421,
      "Ġamount": 2422,
      "Ġrevolution": 2423,
      "Ġfederal": 2424,
      "rial": 2425,
      "Ġreferred": 2426,
      "Ġdefe": 2427,
      "Ġquest": 2428,
      "Ġprivate": 2429,
      "Ġsize": 2430,
      "umb": 2431,
      "ery": 2432,
      "Ġyoung": 2433,
      "wor": 2434,
      "Ġincreasing": 2435,
      "Ġmeaning": 2436,
      "ara": 2437,
      "Ġacadem": 2438,
      "Ġcities": 2439,
      "Ġcode": 2440,
      "Ġdeg": 2441,
      "Ġmonths": 2442,
      "Ġbir": 2443,
      "Ġappo": 2444,
      "Ġannounced": 2445,
      "uments": 2446,
      "Ġconsider": 2447,
      "Ġdifficult": 2448,
      "rought": 2449,
      "Ġafrica": 2450,
      "Ġpast": 2451,
      "ria": 2452,
      "set": 2453,
      "Ġ1960": 2454,
      "Ġsay": 2455,
      "Ġindian": 2456,
      "Ġexam": 2457,
      "rown": 2458,
      "Ġfilms": 2459,
      "Ġindependent": 2460,
      "Ġtext": 2461,
      "Ġdut": 2462,
      "rated": 2463,
      "Ġtransport": 2464,
      "Ġmer": 2465,
      "iers": 2466,
      "Ġgave": 2467,
      "Ġkh": 2468,
      "Ġ2006": 2469,
      "Ġindustry": 2470,
      "Ġmight": 2471,
      "Ġonce": 2472,
      "Ġprovide": 2473,
      "Ġprovided": 2474,
      "Ġbank": 2475,
      "Ġaction": 2476,
      "Ġnations": 2477,
      "Ġpolicy": 2478,
      "Ġspanish": 2479,
      "Ġcho": 2480,
      "atives": 2481,
      "iding": 2482,
      "Ġprime": 2483,
      "Ġstarted": 2484,
      "Ġrelationship": 2485,
      "ald": 2486,
      "Ġcondu": 2487,
      "Ġmac": 2488,
      "Ġcommerc": 2489,
      "Ġdefin": 2490,
      "Ġfront": 2491,
      "Ġsn": 2492,
      "Ġevents": 2493,
      "Ġable": 2494,
      "Ġelectron": 2495,
      "Ġbecom": 2496,
      "put": 2497,
      "Ã¶": 2498,
      "Ġgrad": 2499,
      "Ġast": 2500,
      "urity": 2501,
      "aff": 2502,
      "den": 2503,
      "Ġeconomy": 2504,
      "ems": 2505,
      "Ġcases": 2506,
      "usion": 2507,
      "Ġchamp": 2508,
      "Ġworking": 2509,
      "Ġess": 2510,
      "Ġcod": 2511,
      "bor": 2512,
      "Ġbelieved": 2513,
      "Ġpun": 2514,
      "ef": 2515,
      "Ġlay": 2516,
      "anch": 2517,
      "Ġmix": 2518,
      "Ġwall": 2519,
      "Ġspir": 2520,
      "Ġaverage": 2521,
      "Ġcolor": 2522,
      "Ġsaw": 2523,
      "ush": 2524,
      "Ġ2014": 2525,
      "isc": 2526,
      "Ġenvironment": 2527,
      "Ġestablish": 2528,
      "ume": 2529,
      "ols": 2530,
      "Ġsequ": 2531,
      "ength": 2532,
      "Ġfut": 2533,
      "Ġphilosoph": 2534,
      "Ġcatholic": 2535,
      "Ġsurv": 2536,
      "Ġdefined": 2537,
      "Ġlu": 2538,
      "Ġleading": 2539,
      "from": 2540,
      "Ġcreat": 2541,
      "Ġ186": 2542,
      "more": 2543,
      "Ġlimited": 2544,
      "ows": 2545,
      "Ġ2013": 2546,
      "ked": 2547,
      "ibility": 2548,
      "Ġ2015": 2549,
      "Ġmathem": 2550,
      "ii": 2551,
      "ufact": 2552,
      "Ġ24": 2553,
      "Ġquant": 2554,
      "Ġcard": 2555,
      "Ġsymb": 2556,
      "Ġincludes": 2557,
      "Ġ2016": 2558,
      "Ġregular": 2559,
      "Ġinstr": 2560,
      "ica": 2561,
      "cast": 2562,
      "Ġleaders": 2563,
      "Ġmother": 2564,
      "Ġarri": 2565,
      "Ġlack": 2566,
      "Ġoccup": 2567,
      "ought": 2568,
      "Ġeventually": 2569,
      "Ġpan": 2570,
      "ls": 2571,
      "action": 2572,
      "Ġserved": 2573,
      "Ġcommission": 2574,
      "tt": 2575,
      "Ġtoo": 2576,
      "Ġliving": 2577,
      "ties": 2578,
      "ises": 2579,
      "itor": 2580,
      "Ġparticip": 2581,
      "Ġera": 2582,
      "Ġstep": 2583,
      "Ġobser": 2584,
      "Ġflow": 2585,
      "Ġstated": 2586,
      "Ġseven": 2587,
      "Ġtex": 2588,
      "Ġcause": 2589,
      "Ġincrease": 2590,
      "Ġelected": 2591,
      "Ġ2005": 2592,
      "ford": 2593,
      "Ġaircraft": 2594,
      "Ġjer": 2595,
      "Ġchief": 2596,
      "Ġemper": 2597,
      "selves": 2598,
      "Ġ188": 2599,
      "Ġenter": 2600,
      "Ġlegal": 2601,
      "Ġdesigned": 2602,
      "Ġoutside": 2603,
      "Ġvide": 2604,
      "Ġmanufact": 2605,
      "Ġtypically": 2606,
      "Ġeight": 2607,
      "Ġpeace": 2608,
      "Ġmax": 2609,
      "Ġdyn": 2610,
      "Ġtitle": 2611,
      "icient": 2612,
      "Ġopt": 2613,
      "ires": 2614,
      "Ġreb": 2615,
      "Ġord": 2616,
      "rest": 2617,
      "Ġcontinu": 2618,
      "Ġfeatures": 2619,
      "Ġsym": 2620,
      "Ġnight": 2621,
      "Ġafrican": 2622,
      "ington": 2623,
      "Ġ187": 2624,
      "Ġappeared": 2625,
      "asion": 2626,
      "Ġhydro": 2627,
      "'t": 2628,
      "Ġbrought": 2629,
      "anks": 2630,
      "Ġcou": 2631,
      "Ġunit": 2632,
      "Ġnecess": 2633,
      "Ġcaused": 2634,
      "Ġtechnology": 2635,
      "Ġreturned": 2636,
      "Ġgrowth": 2637,
      "ama": 2638,
      "Ġet": 2639,
      "Ġwriting": 2640,
      "Ġgas": 2641,
      "Ġoil": 2642,
      "oney": 2643,
      "ray": 2644,
      "Ġconstant": 2645,
      "Ġlink": 2646,
      "Ġmedia": 2647,
      "Ġemerg": 2648,
      "Ġtypes": 2649,
      "Ġnuclear": 2650,
      "Ġaltern": 2651,
      "ands": 2652,
      "Ġcommonly": 2653,
      "che": 2654,
      "ka": 2655,
      "Ġham": 2656,
      "Ġpractice": 2657,
      "Ġpay": 2658,
      "Ġemb": 2659,
      "Ġfounded": 2660,
      "oid": 2661,
      "Ġdivision": 2662,
      "Ġchanges": 2663,
      "Ġbeginning": 2664,
      "Ġpow": 2665,
      "Ġwhether": 2666,
      "ography": 2667,
      "Ġnation": 2668,
      "Ġminor": 2669,
      "Ġwat": 2670,
      "Ġlear": 2671,
      "Ġhall": 2672,
      "Ġwidely": 2673,
      "gypt": 2674,
      "des": 2675,
      "Ġjour": 2676,
      "ilities": 2677,
      "50": 2678,
      "mediate": 2679,
      "ression": 2680,
      "Ġthemselves": 2681,
      "Ġcommunic": 2682,
      "Ġsubsequ": 2683,
      "Ġstation": 2684,
      "ify": 2685,
      "omp": 2686,
      "Ġsurface": 2687,
      "Ġcanada": 2688,
      "Ġpurp": 2689,
      "Ġcome": 2690,
      "Ġrussian": 2691,
      "itude": 2692,
      "Ġuses": 2693,
      "Ġstudents": 2694,
      "ert": 2695,
      "Ġrap": 2696,
      "Ġ2018": 2697,
      "Ġstra": 2698,
      "ulated": 2699,
      "Ġrh": 2700,
      "aint": 2701,
      "Ġterritory": 2702,
      "Ġbill": 2703,
      "Ġ2017": 2704,
      "Ġphot": 2705,
      "Ġpoints": 2706,
      "cript": 2707,
      "iting": 2708,
      "ania": 2709,
      "Ġbig": 2710,
      "uries": 2711,
      "burg": 2712,
      "Ġjewish": 2713,
      "Ġaway": 2714,
      "Ġrecorded": 2715,
      "Ġprimary": 2716,
      "Ġeffects": 2717,
      "Ġcongress": 2718,
      "ference": 2719,
      "Ġearlier": 2720,
      "Ġplayer": 2721,
      "Ġprevent": 2722,
      "Ġ=": 2723,
      "Ġhighest": 2724,
      "Ġtoday": 2725,
      "Ġperformance": 2726,
      "rad": 2727,
      "Ġever": 2728,
      "Ġ40": 2729,
      "Ġgreater": 2730,
      "Ġphysical": 2731,
      "Ġfle": 2732,
      "Ġmart": 2733,
      "Ġseparate": 2734,
      "Ġnar": 2735,
      "Ġadded": 2736,
      "orm": 2737,
      "Ġpersonal": 2738,
      "pper": 2739,
      "Ġproposed": 2740,
      "Ġloss": 2741,
      "Ġlines": 2742,
      "Ġ23": 2743,
      "Ġdim": 2744,
      "Ġbritain": 2745,
      "Ġislam": 2746,
      "ero": 2747,
      "Ġgal": 2748,
      "Ġsecurity": 2749,
      "Ġclear": 2750,
      "seum": 2751,
      "Ġproduce": 2752,
      "resp": 2753,
      "Ġrelease": 2754,
      "itch": 2755,
      "Ġmostly": 2756,
      "Ġproblem": 2757,
      "lied": 2758,
      "Ġwood": 2759,
      "Ġdeterm": 2760,
      "Ġcut": 2761,
      "Ġbow": 2762,
      "Ġjapanese": 2763,
      "Ġcand": 2764,
      "Ġnames": 2765,
      "Ġec": 2766,
      "ulf": 2767,
      "Ġassemb": 2768,
      "Ġegypt": 2769,
      "Ġlarger": 2770,
      "icles": 2771,
      "Ġbelow": 2772,
      "Ġ2019": 2773,
      "Ġget": 2774,
      "sec": 2775,
      "Ġaddress": 2776,
      "Ġbillion": 2777,
      "Ġrequire": 2778,
      "Ġpaul": 2779,
      "inary": 2780,
      "Ġelement": 2781,
      "Ġbooks": 2782,
      "Ġprec": 2783,
      "men": 2784,
      "Ġfif": 2785,
      "Ġmill": 2786,
      "hab": 2787,
      "Ġsite": 2788,
      "Ġlength": 2789,
      "Ġconver": 2790,
      "Ġrat": 2791,
      "Ġalways": 2792,
      "itect": 2793,
      "Ġmel": 2794,
      "Ġstudies": 2795,
      "Ġfuture": 2796,
      "Ġitalian": 2797,
      "ern": 2798,
      "Ġconserv": 2799,
      "Ġcommercial": 2800,
      "je": 2801,
      "Ġrome": 2802,
      "pped": 2803,
      "Ġlabor": 2804,
      "Ġemperor": 2805,
      "Ġlou": 2806,
      "ÃŃ": 2807,
      "using": 2808,
      "Ġlook": 2809,
      "aching": 2810,
      "Ġinvolved": 2811,
      "Ġaustralia": 2812,
      "Ġconstruction": 2813,
      "Ġfort": 2814,
      "lled": 2815,
      "Ġspeak": 2816,
      "Ġfinanc": 2817,
      "Ġdeal": 2818,
      "ym": 2819,
      "ension": 2820,
      "Ġlonger": 2821,
      "pected": 2822,
      "Ġvia": 2823,
      "Ġmuseum": 2824,
      "urs": 2825,
      "Ġreplaced": 2826,
      "leg": 2827,
      "Ġsoftware": 2828,
      "oll": 2829,
      "Ġschools": 2830,
      "Ġfranc": 2831,
      "Ġlegis": 2832,
      "anded": 2833,
      "Ġreason": 2834,
      "ump": 2835,
      "Ġindependence": 2836,
      "Ġsupported": 2837,
      "Ġbound": 2838,
      "anced": 2839,
      "kn": 2840,
      "ste": 2841,
      "izing": 2842,
      "Ġsitu": 2843,
      "roy": 2844,
      "ago": 2845,
      "Ġ22": 2846,
      "Ġque": 2847,
      "Ġacqu": 2848,
      "Ġ2004": 2849,
      "Ġmuslim": 2850,
      "Ġmicro": 2851,
      "Ġsus": 2852,
      "Ġboard": 2853,
      "Ġlove": 2854,
      "Ġpressure": 2855,
      "Ġprotest": 2856,
      "Ġunits": 2857,
      "Ġarchitect": 2858,
      "Ġweek": 2859,
      "Ġcitiz": 2860,
      "Ġresist": 2861,
      "Ġult": 2862,
      "Ġvariety": 2863,
      "rary": 2864,
      "Ġcust": 2865,
      "Ġplayers": 2866,
      "Ġletter": 2867,
      "Ġdocument": 2868,
      "Ġdise": 2869,
      "lands": 2870,
      "Ġimplement": 2871,
      "Ġremains": 2872,
      "another": 2873,
      "nal": 2874,
      "Äģ": 2875,
      "Ġ2001": 2876,
      "Ġvari": 2877,
      "Ġfest": 2878,
      "Ġfell": 2879,
      "asc": 2880,
      "Ġcentre": 2881,
      "Ġhun": 2882,
      "Ġresults": 2883,
      "Ġelectric": 2884,
      "Ġcultural": 2885,
      "Ġdeli": 2886,
      "isions": 2887,
      "Ġweap": 2888,
      "ysis": 2889,
      "Ġitaly": 2890,
      "Ġtreaty": 2891,
      "Ġidea": 2892,
      "Ġlargely": 2893,
      "Ġdial": 2894,
      "Ġconflic": 2895,
      "antic": 2896,
      "Ġconditions": 2897,
      "Ġethn": 2898,
      "respond": 2899,
      "Ġheav": 2900,
      "Ġoriginally": 2901,
      "Ġorganization": 2902,
      "Ġdirectly": 2903,
      "bec": 2904,
      "Ġalex": 2905,
      "Ġfra": 2906,
      "Ġnav": 2907,
      "Ġris": 2908,
      "Ġmetal": 2909,
      "Ġepis": 2910,
      "Ġcle": 2911,
      "aged": 2912,
      "off": 2913,
      "Ġpie": 2914,
      "osing": 2915,
      "mitted": 2916,
      "Ġcharacters": 2917,
      "Ġze": 2918,
      "Ġreview": 2919,
      "agn": 2920,
      "Ġbetter": 2921,
      "Ġproblems": 2922,
      "ole": 2923,
      "Ġvill": 2924,
      "quote": 2925,
      "Ġscientific": 2926,
      "ously": 2927,
      "ental": 2928,
      "Ġassist": 2929,
      "porary": 2930,
      "hel": 2931,
      "itz": 2932,
      "ari": 2933,
      "Ġdiscuss": 2934,
      "ready": 2935,
      "Ġblockquote": 2936,
      "aut": 2937,
      "jo": 2938,
      "Ġplat": 2939,
      "Ġvideo": 2940,
      "Ġfight": 2941,
      "Ġlaws": 2942,
      "ques": 2943,
      "Ġestimated": 2944,
      "Ġhot": 2945,
      "Ġmur": 2946,
      "Ġnative": 2947,
      "Ġcharles": 2948,
      "Ã¼": 2949,
      "Ġblue": 2950,
      "ledge": 2951,
      "Ġblood": 2952,
      "Ġassociation": 2953,
      "Ġjames": 2954,
      "Ġcorrespond": 2955,
      "Ġoperations": 2956,
      "Ġbehav": 2957,
      "Ġsources": 2958,
      "Ġproducts": 2959,
      "Ġbene": 2960,
      "ables": 2961,
      "unic": 2962,
      "elling": 2963,
      "Ġperformed": 2964,
      "Ġlikely": 2965,
      "Ġmathemat": 2966,
      "Ġrecent": 2967,
      "ds": 2968,
      "ugh": 2969,
      "Ġwife": 2970,
      "istry": 2971,
      "omm": 2972,
      "Ġmole": 2973,
      "Ġrot": 2974,
      "ricult": 2975,
      "then": 2976,
      "Ġspirit": 2977,
      "Ġsaf": 2978,
      "lying": 2979,
      "onse": 2980,
      "wood": 2981,
      "Ġround": 2982,
      "Ġbit": 2983,
      "Ġkilled": 2984,
      "Ġsett": 2985,
      "Ġgeorge": 2986,
      "add": 2987,
      "aving": 2988,
      "Ġhistorical": 2989,
      "Ġmeasure": 2990,
      "where": 2991,
      "Ġthreat": 2992,
      "Ġtowards": 2993,
      "Ġauthority": 2994,
      "Ġcompanies": 2995,
      "Ġcommitte": 2996,
      "Ġ2020": 2997,
      "Ġbirth": 2998,
      "Ġimper": 2999,
      "Ġparis": 3000,
      "Ġdavid": 3001,
      "Ġbreak": 3002,
      "Ġstreet": 3003,
      "Ġapproximately": 3004,
      "ift": 3005,
      "Ġadopted": 3006,
      "uch": 3007,
      "Ġ184": 3008,
      "anned": 3009,
      "Ġven": 3010,
      "Ġtemperature": 3011,
      "Ġic": 3012,
      "Ġgun": 3013,
      "Ġconsum": 3014,
      "Ġnumerous": 3015,
      "Ġextre": 3016,
      "Ġchann": 3017,
      "Ġscale": 3018,
      "berg": 3019,
      "Ġour": 3020,
      "Ġalready": 3021,
      "aring": 3022,
      "ki": 3023,
      "Ġoperation": 3024,
      "Ġreligion": 3025,
      "Ġspok": 3026,
      "Ġresponse": 3027,
      "ores": 3028,
      "oses": 3029,
      "Ġmission": 3030,
      "Ġcounty": 3031,
      "Ġcele": 3032,
      "Ġreached": 3033,
      "utive": 3034,
      "Ġclaimed": 3035,
      "Ġstage": 3036,
      "Ã³": 3037,
      "riage": 3038,
      "Ġos": 3039,
      "Ġnomin": 3040,
      "igned": 3041,
      "Ġscholars": 3042,
      "Ġsettle": 3043,
      "Ġindustrial": 3044,
      "pa": 3045,
      "Ġdone": 3046,
      "Ġsmaller": 3047,
      "Ġ26": 3048,
      "Ġquar": 3049,
      "Ġpap": 3050,
      "Ġtrue": 3051,
      "Ġbul": 3052,
      "Ġdemon": 3053,
      "Ġgar": 3054,
      "Ġdemocratic": 3055,
      "isation": 3056,
      "hist": 3057,
      "Ġkore": 3058,
      "Ġmess": 3059,
      "Ġleader": 3060,
      "Ġcareer": 3061,
      "Ġobtain": 3062,
      "Ġcry": 3063,
      "ston": 3064,
      "ini": 3065,
      "Ġborder": 3066,
      "Ġactive": 3067,
      "Ġstatus": 3068,
      "Ġda": 3069,
      "istics": 3070,
      "Ġplant": 3071,
      "Ġcreate": 3072,
      "Ġlevels": 3073,
      "Ġcompon": 3074,
      "Ġhighly": 3075,
      "can": 3076,
      "Ġparties": 3077,
      "Ġlatter": 3078,
      "ivity": 3079,
      "Ġmultiple": 3080,
      "Ġbasis": 3081,
      "Ġglobal": 3082,
      "imum": 3083,
      "Ġregions": 3084,
      "ga": 3085,
      "ners": 3086,
      "Ġgive": 3087,
      "Ġadapt": 3088,
      "itation": 3089,
      "Ġenough": 3090,
      "Ġkeep": 3091,
      "Ġtor": 3092,
      "Ġconcent": 3093,
      "Ġsoon": 3094,
      "Ġcorre": 3095,
      "Ġsele": 3096,
      "iter": 3097,
      "Ġcounter": 3098,
      "Ġdistinct": 3099,
      "Ġ28": 3100,
      "Ġquick": 3101,
      "Ġsummer": 3102,
      "Ġdisplay": 3103,
      "Ġ2003": 3104,
      "Ġtheat": 3105,
      "Ġwhole": 3106,
      "key": 3107,
      "eth": 3108,
      "Ġpack": 3109,
      "Ġmexic": 3110,
      "Ġax": 3111,
      "new": 3112,
      "iverse": 3113,
      "Ġprior": 3114,
      "Ġdivided": 3115,
      "Ġpra": 3116,
      "Ġproperty": 3117,
      "Ġlord": 3118,
      "Ġasia": 3119,
      "use": 3120,
      "Ġcateg": 3121,
      "oura": 3122,
      "Ġcenturies": 3123,
      "la": 3124,
      "Ġpath": 3125,
      "Ġrob": 3126,
      "Ġwhom": 3127,
      "Ġveh": 3128,
      "Ġhenry": 3129,
      "Ġben": 3130,
      "Ġpet": 3131,
      "Ġcred": 3132,
      "Ġagricult": 3133,
      "Ġpolice": 3134,
      "Ġmonth": 3135,
      "Ġworked": 3136,
      "Ġcannot": 3137,
      "Ġwash": 3138,
      "Ġtransl": 3139,
      "Ġflight": 3140,
      "Ġdestroy": 3141,
      "iforn": 3142,
      "ream": 3143,
      "Ġpope": 3144,
      "asons": 3145,
      "Ġmethods": 3146,
      "aughter": 3147,
      "Ġchampions": 3148,
      "Ġunderstand": 3149,
      "Ġcontem": 3150,
      "enc": 3151,
      "Ġmainly": 3152,
      "Ġdeep": 3153,
      "ander": 3154,
      "under": 3155,
      "Ġdiscovered": 3156,
      "Ġfunctions": 3157,
      "oting": 3158,
      "Ġplaced": 3159,
      "ael": 3160,
      "Ġpoor": 3161,
      "Ġhous": 3162,
      "Ġsens": 3163,
      "Ġfootball": 3164,
      "Ġtroops": 3165,
      "Ġ27": 3166,
      "Ġ2002": 3167,
      "met": 3168,
      "Ġcandid": 3169,
      "bi": 3170,
      "idents": 3171,
      "Ġshows": 3172,
      "Ġnearly": 3173,
      "Ġfinancial": 3174,
      "ĠÎ": 3175,
      "Ġcorpor": 3176,
      "Ġfreed": 3177,
      "Ġexperiment": 3178,
      "Ġforest": 3179,
      "Ġjoined": 3180,
      "Ġneigh": 3181,
      "Ġinsp": 3182,
      "Ġissues": 3183,
      "Ġchanged": 3184,
      "iance": 3185,
      "Ġrac": 3186,
      "Ġcontains": 3187,
      "Ġfemale": 3188,
      "fl": 3189,
      "Ġrecords": 3190,
      "Ġagreement": 3191,
      "ply": 3192,
      "Ġknowledge": 3193,
      "bc": 3194,
      "Ġprimarily": 3195,
      "Ġsense": 3196,
      "Ġmedical": 3197,
      "otes": 3198,
      "abor": 3199,
      "Ġtherefore": 3200,
      "Ġissue": 3201,
      "Ġchemical": 3202,
      "Ġ1950": 3203,
      "Ġimmediate": 3204,
      "Ġbelief": 3205,
      "field": 3206,
      "Ġtheore": 3207,
      "back": 3208,
      "ider": 3209,
      "bour": 3210,
      "iences": 3211,
      "Ġmoney": 3212,
      "Ġscript": 3213,
      "Ġgovernor": 3214,
      "Ġprotect": 3215,
      "reen": 3216,
      "Ġmich": 3217,
      "Ġforced": 3218,
      "Ġkind": 3219,
      "Ġcommittee": 3220,
      "Ġincor": 3221,
      "Ġmagaz": 3222,
      "Ġtransfer": 3223,
      "Ġcalend": 3224,
      "Ġcaliforn": 3225,
      "Ġairport": 3226,
      "Ġbasic": 3227,
      "Ġexch": 3228,
      "yr": 3229,
      "cont": 3230,
      "Ġinn": 3231,
      "Ġlived": 3232,
      "Ġprem": 3233,
      "Ġfamil": 3234,
      "Ġesc": 3235,
      "ulations": 3236,
      "Ġ1999": 3237,
      "ya": 3238,
      "Ġtraining": 3239,
      "mp": 3240,
      "Ġoce": 3241,
      "Ġcontrast": 3242,
      "aled": 3243,
      "oth": 3244,
      "Ġshown": 3245,
      "Ġanalysis": 3246,
      "rang": 3247,
      "Ġmarried": 3248,
      "Ġadditional": 3249,
      "wer": 3250,
      "Ġhapp": 3251,
      "uck": 3252,
      "Ġrules": 3253,
      "att": 3254,
      "but": 3255,
      "Ġ183": 3256,
      "Ġended": 3257,
      "Ġpotential": 3258,
      "Ġrelatively": 3259,
      "Ġrapid": 3260,
      "hood": 3261,
      "Ġadministration": 3262,
      "Ġtaking": 3263,
      "Ġsigned": 3264,
      "igr": 3265,
      "Ġcarbon": 3266,
      "Ġdegree": 3267,
      "head": 3268,
      "Ġiii": 3269,
      "Ġdemonst": 3270,
      "Ġbroadcast": 3271,
      "Ġmatter": 3272,
      "Ġquestion": 3273,
      "ales": 3274,
      "Ġ80": 3275,
      "Ġnavy": 3276,
      "Ġrussia": 3277,
      "Ġjack": 3278,
      "Ġexperience": 3279,
      "omas": 3280,
      "Ġupper": 3281,
      "Ġsac": 3282,
      "Ġdrug": 3283,
      "lor": 3284,
      "Ġ+": 3285,
      "Ġpac": 3286,
      "Ġacid": 3287,
      "Ġpowers": 3288,
      "Ġslow": 3289,
      "Ġdate": 3290,
      "amb": 3291,
      "Ġelectr": 3292,
      "Ġopened": 3293,
      "Ġsimple": 3294,
      "Ġactivity": 3295,
      "Ġprogress": 3296,
      "aur": 3297,
      "Ġappointed": 3298,
      "olved": 3299,
      "odes": 3300,
      "isms": 3301,
      "Ġarticle": 3302,
      "Ġdead": 3303,
      "Ġtransform": 3304,
      "well": 3305,
      "Ġire": 3306,
      "Ġthous": 3307,
      "uls": 3308,
      "Ġdepartment": 3309,
      "hol": 3310,
      "Ġib": 3311,
      "Ġwa": 3312,
      "follow": 3313,
      "Ġdetail": 3314,
      "iles": 3315,
      "Ġinfluenced": 3316,
      "Ġalg": 3317,
      "Ġclassical": 3318,
      "Ġbay": 3319,
      "erson": 3320,
      "Ġwars": 3321,
      "Ġdirector": 3322,
      "Ġhill": 3323,
      "Ġvote": 3324,
      "Ġrobert": 3325,
      "phas": 3326,
      "Ġprograms": 3327,
      "Ġcalifornia": 3328,
      "app": 3329,
      "Ġ60": 3330,
      "Ġconvention": 3331,
      "Ġsaint": 3332,
      "arm": 3333,
      "Ġbehind": 3334,
      "Ġinvestig": 3335,
      "Ġneeded": 3336,
      "ici": 3337,
      "Ġbudd": 3338,
      "Ġstop": 3339,
      "Ġnoted": 3340,
      "Ġmention": 3341,
      "Ġneut": 3342,
      "Ġresour": 3343,
      "Ġurban": 3344,
      "Ġphilosophy": 3345,
      "Ġspread": 3346,
      "Ġflu": 3347,
      "inet": 3348,
      "tered": 3349,
      "Ġiron": 3350,
      "Ġmusical": 3351,
      "Ġresulting": 3352,
      "ctr": 3353,
      "Ġmob": 3354,
      "ech": 3355,
      "Ġcub": 3356,
      "cles": 3357,
      "Ġpassed": 3358,
      "Ġextreme": 3359,
      "Ġheavy": 3360,
      "Ġcru": 3361,
      "Ġpoet": 3362,
      "wise": 3363,
      "Ġwashington": 3364,
      "Ġrace": 3365,
      "following": 3366,
      "ios": 3367,
      "wide": 3368,
      "Ġwil": 3369,
      "ellig": 3370,
      "Ġfish": 3371,
      "Ġyet": 3372,
      "Ġcompleted": 3373,
      "Ġswed": 3374,
      "Ġbish": 3375,
      "iff": 3376,
      "Ġmachine": 3377,
      "Ġcitizens": 3378,
      "Ġsexual": 3379,
      "Ġmis": 3380,
      "ev": 3381,
      "tw": 3382,
      "Ġmemory": 3383,
      "Ġliterature": 3384,
      "Ġmarriage": 3385,
      "Ġpaper": 3386,
      "Ġdecided": 3387,
      "Ġfamous": 3388,
      "izations": 3389,
      "Ġplaying": 3390,
      "Ġargued": 3391,
      "pro": 3392,
      "Ġspain": 3393,
      "Ġassum": 3394,
      "Ġnews": 3395,
      "Ġregional": 3396,
      "Ġethnic": 3397,
      "reng": 3398,
      "Ġinitial": 3399,
      "Ġcalendar": 3400,
      "Ġmov": 3401,
      "olk": 3402,
      "Ġapplied": 3403,
      "Ġrecon": 3404,
      "Ġcompared": 3405,
      "Ġautom": 3406,
      "mission": 3407,
      "Ġmakes": 3408,
      "Ġdistrict": 3409,
      "Ġheart": 3410,
      "Ġhung": 3411,
      "Ġreduced": 3412,
      "ements": 3413,
      "Ġsection": 3414,
      "Ġsuggested": 3415,
      "Ġimprove": 3416,
      "Ġdistance": 3417,
      "Ġcontract": 3418,
      "Ġcarry": 3419,
      "because": 3420,
      "Ġpromin": 3421,
      "Ġaccepted": 3422,
      "Ġdiss": 3423,
      "Ġatl": 3424,
      "ansion": 3425,
      "Ġchall": 3426,
      "Ġanimals": 3427,
      "Ġ185": 3428,
      "Ġships": 3429,
      "Ġey": 3430,
      "Ġassembly": 3431,
      "Ġ1998": 3432,
      "Ġremo": 3433,
      "Ġquality": 3434,
      "Ġapproach": 3435,
      "Ġproperties": 3436,
      "itors": 3437,
      "Ġconv": 3438,
      "Ġchap": 3439,
      "Ġfrank": 3440,
      "ris": 3441,
      "aded": 3442,
      "Ġstars": 3443,
      "view": 3444,
      "char": 3445,
      "Ġprovides": 3446,
      "rative": 3447,
      "Ġmas": 3448,
      "olf": 3449,
      "Ġequival": 3450,
      "ground": 3451,
      "thus": 3452,
      "Ġarts": 3453,
      "uting": 3454,
      "despite": 3455,
      "Ġlake": 3456,
      "Ġelections": 3457,
      "outh": 3458,
      "Ġpil": 3459,
      "Ġmind": 3460,
      "Ġthink": 3461,
      "Ġfourth": 3462,
      "Ġcompos": 3463,
      "Ġpossess": 3464,
      "oper": 3465,
      "Ġens": 3466,
      "nes": 3467,
      "eral": 3468,
      "Ġdram": 3469,
      "Ġjes": 3470,
      "Ġstreng": 3471,
      "Ġcells": 3472,
      "Ġtim": 3473,
      "Ġmad": 3474,
      "Ġhop": 3475,
      "Ġcarried": 3476,
      "cks": 3477,
      "Ġbeg": 3478,
      "Ġrare": 3479,
      "Ġimperial": 3480,
      "Ġrise": 3481,
      "rick": 3482,
      "Ġrunning": 3483,
      "Ġireland": 3484,
      "Ġcollection": 3485,
      "Ġaim": 3486,
      "Ġmut": 3487,
      "Ġ31": 3488,
      "ca": 3489,
      "Ġconnect": 3490,
      "adian": 3491,
      "iant": 3492,
      "Ġintellig": 3493,
      "Ġsurround": 3494,
      "Ġsongs": 3495,
      "Ġiv": 3496,
      "Ġtru": 3497,
      "Ġinterp": 3498,
      "Ġpreviously": 3499,
      "pri": 3500,
      "Ġtas": 3501,
      "rents": 3502,
      "Ġvalues": 3503,
      "Ġtarget": 3504,
      "Ġpattern": 3505,
      "uge": 3506,
      "Ġfriend": 3507,
      "Ġdefense": 3508,
      "no": 3509,
      "astic": 3510,
      "Ġrepe": 3511,
      "Ġoperating": 3512,
      "Ġability": 3513,
      "Ġinternet": 3514,
      "ams": 3515,
      "Ġsimply": 3516,
      "Ġwoman": 3517,
      "Ġreject": 3518,
      "Ġtreatment": 3519,
      "Ġjews": 3520,
      "nel": 3521,
      "Ġgraph": 3522,
      "Ġinitially": 3523,
      "Ġobserv": 3524,
      "Ġprobably": 3525,
      "Ġworkers": 3526,
      "Ġbenef": 3527,
      "Ġequal": 3528,
      "wa": 3529,
      "Ġappears": 3530,
      "Ġdeclared": 3531,
      "anian": 3532,
      "arc": 3533,
      "Ġlif": 3534,
      "Ġclimate": 3535,
      "Ġcontrovers": 3536,
      "Ġhours": 3537,
      "Ġcompound": 3538,
      "Ġformal": 3539,
      "Ġdraw": 3540,
      "Ġlic": 3541,
      "Ġdirection": 3542,
      "Ġsquare": 3543,
      "aches": 3544,
      "Ġstarting": 3545,
      "Ġderived": 3546,
      "Ġintended": 3547,
      "Ġ1997": 3548,
      "Ġlocation": 3549,
      "Ġprofessional": 3550,
      "Ġple": 3551,
      "Ġfiction": 3552,
      "Ġfeatured": 3553,
      "Ġban": 3554,
      "Ġstories": 3555,
      "mark": 3556,
      "west": 3557,
      "Ġemphas": 3558,
      "Ġdefinition": 3559,
      "Ġtermin": 3560,
      "da": 3561,
      "Ġletters": 3562,
      "Ġtable": 3563,
      "ola": 3564,
      "Ġshare": 3565,
      "orial": 3566,
      "Ġdip": 3567,
      "Ġ1996": 3568,
      "Ġdecre": 3569,
      "och": 3570,
      "onic": 3571,
      "Ġbecoming": 3572,
      "Ġdark": 3573,
      "ee": 3574,
      "Ġ29": 3575,
      "Ġobjects": 3576,
      "Ġsupre": 3577,
      "Ġfailed": 3578,
      "Ġreference": 3579,
      "Ġstone": 3580,
      "Ġamb": 3581,
      "Ġ181": 3582,
      "Ġtv": 3583,
      "Ġfrequently": 3584,
      "Ġly": 3585,
      "Ġcreation": 3586,
      "rich": 3587,
      "Ġjur": 3588,
      "Ġpresence": 3589,
      "both": 3590,
      "Ġdaughter": 3591,
      "ips": 3592,
      "Ġactivities": 3593,
      "dp": 3594,
      "ij": 3595,
      "Ġbond": 3596,
      "clus": 3597,
      "Ġcomposed": 3598,
      "Ġinstitute": 3599,
      "Ġmanagement": 3600,
      "edy": 3601,
      "Ġface": 3602,
      "ĠÃ": 3603,
      "Ġlin": 3604,
      "Ġspl": 3605,
      "Ġextra": 3606,
      "sey": 3607,
      "Ġdouble": 3608,
      "Ġlaunched": 3609,
      "Ġful": 3610,
      "undred": 3611,
      "Ġocean": 3612,
      "estic": 3613,
      "Ġchampionship": 3614,
      "Ġlouis": 3615,
      "Ġcas": 3616,
      "olit": 3617,
      "Ġportug": 3618,
      "Ġprovince": 3619,
      "Ġguard": 3620,
      "Ġmc": 3621,
      "Ġmale": 3622,
      "Ġreve": 3623,
      "Ġcontent": 3624,
      "Ġcontact": 3625,
      "Ġwild": 3626,
      "Ġkar": 3627,
      "Ġnormal": 3628,
      "tical": 3629,
      "uk": 3630,
      "Ġconqu": 3631,
      "ibly": 3632,
      "Ġdespite": 3633,
      "Ġextended": 3634,
      "Ġfix": 3635,
      "Ġdepend": 3636,
      "Ġcab": 3637,
      "Ġaspect": 3638,
      "Ġannual": 3639,
      "hi": 3640,
      "Ġresponsible": 3641,
      "Ġburn": 3642,
      "Ġindividuals": 3643,
      "Ġfestival": 3644,
      "Ġgram": 3645,
      "Ġdecision": 3646,
      "Ġprince": 3647,
      "Ġcoal": 3648,
      "Ġincorpor": 3649,
      "uit": 3650,
      "Ġweight": 3651,
      "bed": 3652,
      "Ġjul": 3653,
      "Ġimage": 3654,
      "Ġcelebr": 3655,
      "Ġbomb": 3656,
      "otic": 3657,
      "Ġfriends": 3658,
      "Ġjournal": 3659,
      "ging": 3660,
      "rupt": 3661,
      "Ġevolution": 3662,
      "Ġremaining": 3663,
      "Ġtrack": 3664,
      "Ġpositive": 3665,
      "bra": 3666,
      "Ġmedic": 3667,
      "Ġtun": 3668,
      "Ġpolish": 3669,
      "Ġsho": 3670,
      "Ġ1991": 3671,
      "Ġspeech": 3672,
      "Ġphen": 3673,
      "Ġhab": 3674,
      "ctors": 3675,
      "Ġbrown": 3676,
      "stein": 3677,
      "Ġopposition": 3678,
      "Ġideas": 3679,
      "Ġagreed": 3680,
      "Ġdisease": 3681,
      "Ġarmed": 3682,
      "Ġcourse": 3683,
      "Ġwave": 3684,
      "Ġattrib": 3685,
      "ensity": 3686,
      "Ġimpact": 3687,
      "Ġinternal": 3688,
      "Ġcalcul": 3689,
      "ĠÂ°": 3690,
      "Ġvan": 3691,
      "Ġfal": 3692,
      "Ġfair": 3693,
      "Ġexistence": 3694,
      "Ġnine": 3695,
      "Ġ1994": 3696,
      "board": 3697,
      "eria": 3698,
      "Ġrepresented": 3699,
      "thesis": 3700,
      "hold": 3701,
      "Ġmos": 3702,
      "Ġconsists": 3703,
      "ensus": 3704,
      "Ġpict": 3705,
      "Ġhundred": 3706,
      "Ġteams": 3707,
      "Ġcritical": 3708,
      "Ġpurch": 3709,
      "mod": 3710,
      "Ġfel": 3711,
      "Ġalph": 3712,
      "Ġvirt": 3713,
      "my": 3714,
      "Ġprison": 3715,
      "Ġapplications": 3716,
      "edic": 3717,
      "omy": 3718,
      "Ġmagazine": 3719,
      "Ġrisk": 3720,
      "chest": 3721,
      "ken": 3722,
      "Ġnecessary": 3723,
      "Ġliberal": 3724,
      "Ġdutch": 3725,
      "Ġconflict": 3726,
      "Ġ1995": 3727,
      "Ġresulted": 3728,
      "verse": 3729,
      "Ġbri": 3730,
      "Ġcombined": 3731,
      "Ġinstrument": 3732,
      "Ġwinter": 3733,
      "Ġfreedom": 3734,
      "Ġsignal": 3735,
      "âĢ": 3736,
      "ented": 3737,
      "gal": 3738,
      "Ġrang": 3739,
      "Ġfaith": 3740,
      "Ġscot": 3741,
      "Ġta": 3742,
      "Ġidentified": 3743,
      "Ġrichard": 3744,
      "Ġ1992": 3745,
      "Ġsymbol": 3746,
      "Ġalternative": 3747,
      "gar": 3748,
      "Ġbring": 3749,
      "Ġmaterials": 3750,
      "erve": 3751,
      "Ġvoc": 3752,
      "Ġsports": 3753,
      "Ġimpl": 3754,
      "har": 3755,
      "Ġrespectively": 3756,
      "Ġdistribution": 3757,
      "Ġid": 3758,
      "eles": 3759,
      "Ġpair": 3760,
      "thodox": 3761,
      "Ġachieve": 3762,
      "Ġquickly": 3763,
      "light": 3764,
      "Ġretain": 3765,
      "Ġconne": 3766,
      "inian": 3767,
      "Ġmom": 3768,
      "Ġthr": 3769,
      "Ġut": 3770,
      "Ġpoland": 3771,
      "Ġexpansion": 3772,
      "Ġcontinue": 3773,
      "Ġhumans": 3774,
      "Ġnegative": 3775,
      "mat": 3776,
      "Åį": 3777,
      "Ġexhib": 3778,
      "ternal": 3779,
      "ba": 3780,
      "akistan": 3781,
      "Ġframe": 3782,
      "Ġdistingu": 3783,
      "Ġlegisl": 3784,
      "Ġvolume": 3785,
      "Ġcurrently": 3786,
      "Ġcustom": 3787,
      "ien": 3788,
      "Ġmir": 3789,
      "Ġefforts": 3790,
      "Ġoffered": 3791,
      "Ġfuel": 3792,
      "Ġnaz": 3793,
      "Ġcompar": 3794,
      "Ġstaff": 3795,
      "Ġopposed": 3796,
      "Ġearliest": 3797,
      "Ġnorm": 3798,
      "enth": 3799,
      "Ġcup": 3800,
      "Ġice": 3801,
      "ructed": 3802,
      "Ġstudent": 3803,
      "Ġissued": 3804,
      "Ġintegr": 3805,
      "Ġcomment": 3806,
      "Ġedition": 3807,
      "Ġthings": 3808,
      "Ġoccurred": 3809,
      "Ġinhab": 3810,
      "ua": 3811,
      "Ġbab": 3812,
      "Ġhero": 3813,
      "Ġirish": 3814,
      "Ġmodels": 3815,
      "Ġholy": 3816,
      "Ġweapons": 3817,
      "ext": 3818,
      "encies": 3819,
      "sever": 3820,
      "Ġinteg": 3821,
      "Ġreaction": 3822,
      "Ġpresidential": 3823,
      "Ġexamples": 3824,
      "yond": 3825,
      "Ġkm": 3826,
      "Ġfields": 3827,
      "Ġatom": 3828,
      "Ġdigital": 3829,
      "21": 3830,
      "Ġscott": 3831,
      "Ġgreatest": 3832,
      "Ġclaims": 3833,
      "Ġguit": 3834,
      "Ġastron": 3835,
      "Ġscreen": 3836,
      "Ġpresented": 3837,
      "Ġprotection": 3838,
      "ville": 3839,
      "Ġnob": 3840,
      "Ġturned": 3841,
      "Ġexchange": 3842,
      "yth": 3843,
      "Ġpurpose": 3844,
      "Ġrecover": 3845,
      "Ġlibrary": 3846,
      "Ġchannel": 3847,
      "Ġcontemporary": 3848,
      "Ġcham": 3849,
      "Ġaffair": 3850,
      "Ġ180": 3851,
      "iques": 3852,
      "Ġcart": 3853,
      "Ġfavor": 3854,
      "Ġchic": 3855,
      "comp": 3856,
      "Ġgrowing": 3857,
      "later": 3858,
      "Ġhosp": 3859,
      "Ġphase": 3860,
      "Ġexport": 3861,
      "Ġdynast": 3862,
      "Ġtend": 3863,
      "Ġthomas": 3864,
      "Ġvary": 3865,
      "za": 3866,
      "Ġroll": 3867,
      "Ġbox": 3868,
      "Ġinterpret": 3869,
      "Ġtakes": 3870,
      "Ġconclud": 3871,
      "icit": 3872,
      "Ġeffective": 3873,
      "Ġmary": 3874,
      "icted": 3875,
      "Ġrequest": 3876,
      "rison": 3877,
      "Ġwanted": 3878,
      "Ġstock": 3879,
      "Ġallows": 3880,
      "Ġcra": 3881,
      "ithm": 3882,
      "lymp": 3883,
      "Ġversions": 3884,
      "Ġfrequency": 3885,
      "Ġplants": 3886,
      "Ġacts": 3887,
      "Ġdirected": 3888,
      "Ġcollect": 3889,
      "actions": 3890,
      "Ġarrang": 3891,
      "Ġfat": 3892,
      "Ġgeneration": 3893,
      "Ġpacific": 3894,
      "Ġorient": 3895,
      "Ġunique": 3896,
      "Ġnotable": 3897,
      "ressed": 3898,
      "Ġmountain": 3899,
      "Ġfigure": 3900,
      "Ġcore": 3901,
      "Ġactually": 3902,
      "Ġincome": 3903,
      "rate": 3904,
      "Ġexpected": 3905,
      "Ġequip": 3906,
      "Ġbuildings": 3907,
      "19": 3908,
      "Ġsector": 3909,
      "road": 3910,
      "Ġjoint": 3911,
      "Ġowned": 3912,
      "Ġcapac": 3913,
      "Ġfast": 3914,
      "Ġmotor": 3915,
      "10": 3916,
      "izes": 3917,
      "Ġolder": 3918,
      "Ġvictory": 3919,
      "Ġconfir": 3920,
      "ients": 3921,
      "vey": 3922,
      "Ġinstance": 3923,
      "Ġdialect": 3924,
      "Ġod": 3925,
      "theast": 3926,
      "Ġira": 3927,
      "agan": 3928,
      "Ġcrew": 3929,
      "Ġflo": 3930,
      "Ġadj": 3931,
      "Ġperman": 3932,
      "Ġ1993": 3933,
      "Ġorthodox": 3934,
      "Ġmeeting": 3935,
      "Ġinj": 3936,
      "Ġcold": 3937,
      "Ġolymp": 3938,
      "Ġdro": 3939,
      "igen": 3940,
      "ieval": 3941,
      "Ġentered": 3942,
      "Ġmotion": 3943,
      "Ġsin": 3944,
      "orph": 3945,
      "Ġunif": 3946,
      "Ġsoldiers": 3947,
      "Ġdomestic": 3948,
      "Ġdie": 3949,
      "Ġcharge": 3950,
      "Ġspecif": 3951,
      "Ġmand": 3952,
      "Ġweb": 3953,
      "Ġ1989": 3954,
      "Ġlimit": 3955,
      "lig": 3956,
      "umn": 3957,
      "Ġdefeated": 3958,
      "ils": 3959,
      "Ġrepublican": 3960,
      "imal": 3961,
      "Ġattacks": 3962,
      "Ġpit": 3963,
      "Ġmaster": 3964,
      "Ġlabour": 3965,
      "Ġreplace": 3966,
      "several": 3967,
      "win": 3968,
      "Ġadvant": 3969,
      "Ġbelieve": 3970,
      "Ġacademy": 3971,
      "imin": 3972,
      "ordin": 3973,
      "Ġaustralian": 3974,
      "illed": 3975,
      "bre": 3976,
      "Ġpakistan": 3977,
      "Ġprefer": 3978,
      "Ġreact": 3979,
      "Ġott": 3980,
      "aker": 3981,
      "Ġclosed": 3982,
      "Ġordered": 3983,
      "Ġcolumb": 3984,
      "ately": 3985,
      "Ġallowing": 3986,
      "Ġcro": 3987,
      "Ġways": 3988,
      "Ġparal": 3989,
      "Ġcommunist": 3990,
      "Ġvirgin": 3991,
      "Ġnic": 3992,
      "their": 3993,
      "elled": 3994,
      "Ġengineering": 3995,
      "Ġregarded": 3996,
      "Ġgard": 3997,
      "Ġbeyond": 3998,
      "Ġjustice": 3999,
      "Ġvictor": 4000,
      "Ġbad": 4001,
      "Ġchron": 4002,
      "Ġfinally": 4003,
      "Ġsequence": 4004,
      "Ġserious": 4005,
      "Ġequipment": 4006,
      "Ġconference": 4007,
      "Ġshowed": 4008,
      "Ġbehavior": 4009,
      "Ġformation": 4010,
      "Ġ1940": 4011,
      "Ġsecretary": 4012,
      "Ġequivalent": 4013,
      "Ġsuc": 4014,
      "Ġgoal": 4015,
      "two": 4016,
      "ano": 4017,
      "Ġjose": 4018,
      "Ġrough": 4019,
      "Ġcontrolled": 4020,
      "Ġhonor": 4021,
      "ani": 4022,
      "Ġgir": 4023,
      "works": 4024,
      "Ġsand": 4025,
      "Ġobserved": 4026,
      "Ġpron": 4027,
      "Ġhelped": 4028,
      "sm": 4029,
      "osis": 4030,
      "aught": 4031,
      "Ġmoon": 4032,
      "Ġcanadian": 4033,
      "Ġartists": 4034,
      "Ġsupreme": 4035,
      "Ġspeaking": 4036,
      "Ġexpressed": 4037,
      "Ġshot": 4038,
      "80": 4039,
      "Ġspent": 4040,
      "Ġsteel": 4041,
      "Ġidentity": 4042,
      "Ġfrancis": 4043,
      "Ġbol": 4044,
      "Ġasked": 4045,
      "Ġgiving": 4046,
      "Ġexecutive": 4047,
      "Ġdub": 4048,
      "Ġtheatre": 4049,
      "fect": 4050,
      "Ġwit": 4051,
      "Ġ1930": 4052,
      "Ġpu": 4053,
      "Ġgain": 4054,
      "Ġreign": 4055,
      "ception": 4056,
      "Ġpowerful": 4057,
      "Ġsolar": 4058,
      "band": 4059,
      "ares": 4060,
      "Ġconc": 4061,
      "ceeded": 4062,
      "Ġnotes": 4063,
      "Ġserve": 4064,
      "Ġfocus": 4065,
      "war": 4066,
      "Ġpeter": 4067,
      "Ġanimal": 4068,
      "Ġappearance": 4069,
      "Ġ179": 4070,
      "Ġbranch": 4071,
      "Ġrecognized": 4072,
      "Ġresources": 4073,
      "âĢĻ": 4074,
      "also": 4075,
      "Ġencoura": 4076,
      "Ġshar": 4077,
      "Ġfully": 4078,
      "Ġanth": 4079,
      "Ġ32": 4080,
      "Ġ1920": 4081,
      "Ġfundament": 4082,
      "Ġtold": 4083,
      "Ġgh": 4084,
      "Ġsets": 4085,
      "Ġgained": 4086,
      "Ġalgor": 4087,
      "Ġcontaining": 4088,
      "Ġstructures": 4089,
      "Ġrecomm": 4090,
      "Ġmedieval": 4091,
      "tr": 4092,
      "Ġnewsp": 4093,
      "Ġuniversal": 4094,
      "Ġmexico": 4095,
      "Ġslight": 4096,
      "Ġmarked": 4097,
      "yd": 4098,
      "Ġlie": 4099,
      "oke": 4100,
      "Ġcommunities": 4101,
      "Ġdan": 4102,
      "racy": 4103,
      "zil": 4104,
      "Ġmatch": 4105,
      "Ġfactors": 4106,
      "igration": 4107,
      "Ġbrief": 4108,
      "Ġatm": 4109,
      "onia": 4110,
      "theless": 4111,
      "mers": 4112,
      "Ġqueen": 4113,
      "Ġintel": 4114,
      "ita": 4115,
      "cop": 4116,
      "Ġvalley": 4117,
      "Ġhypo": 4118,
      "Ġtechniques": 4119,
      "sim": 4120,
      "Ġflag": 4121,
      "Ġluc": 4122,
      "urches": 4123,
      "ped": 4124,
      "Ġsupply": 4125,
      "that": 4126,
      "rier": 4127,
      "Ġplaces": 4128,
      "Ġadvanced": 4129,
      "Ġapplication": 4130,
      "Ġlith": 4131,
      "Ġgall": 4132,
      "Ġclos": 4133,
      "Ġrain": 4134,
      "Ġmoving": 4135,
      "Ġgrew": 4136,
      "Ġ35": 4137,
      "Ġstandards": 4138,
      "Ġfollows": 4139,
      "Ġfamilies": 4140,
      "Ġbelong": 4141,
      "aming": 4142,
      "usal": 4143,
      "Ġviet": 4144,
      "Ġdynasty": 4145,
      "Ġconnected": 4146,
      "Ġvel": 4147,
      "itable": 4148,
      "alled": 4149,
      "Ġoccurs": 4150,
      "Ġcatal": 4151,
      "Ġresistance": 4152,
      "lom": 4153,
      "iments": 4154,
      "ortun": 4155,
      "Ġrefused": 4156,
      "Ġfactor": 4157,
      "gment": 4158,
      "isters": 4159,
      "Ġchurches": 4160,
      "fr": 4161,
      "Ġtree": 4162,
      "entially": 4163,
      "aging": 4164,
      "Ġtwent": 4165,
      "Ġdecades": 4166,
      "Ġconsequ": 4167,
      "quar": 4168,
      "Ġsituation": 4169,
      "Ġactions": 4170,
      "Ġcrown": 4171,
      "Ġprice": 4172,
      "het": 4173,
      "Ġleaving": 4174,
      "Ġamericans": 4175,
      "Ġfoundation": 4176,
      "Ġheat": 4177,
      "Ġwealth": 4178,
      "Ġprominent": 4179,
      "Ġnucle": 4180,
      "utation": 4181,
      "Ġplays": 4182,
      "Ġcris": 4183,
      "Ġzeal": 4184,
      "Ġinspired": 4185,
      "Ġrefers": 4186,
      "Ġguitar": 4187,
      "Ġbird": 4188,
      "oral": 4189,
      "tery": 4190,
      "Ġsilver": 4191,
      "Ġbowl": 4192,
      "any": 4193,
      "claim": 4194,
      "Ġdescript": 4195,
      "Ġwing": 4196,
      "Ġofficially": 4197,
      "Ġcompetition": 4198,
      "Ġawarded": 4199,
      "arent": 4200,
      "Ġsays": 4201,
      "Ġlad": 4202,
      "Ġdemand": 4203,
      "ees": 4204,
      "ody": 4205,
      "Ġhaw": 4206,
      "each": 4207,
      "Ġdog": 4208,
      "Ġqual": 4209,
      "Ġwriter": 4210,
      "Ġ70": 4211,
      "ship": 4212,
      "Ġarms": 4213,
      "Ġuser": 4214,
      "Ġwinning": 4215,
      "Ġga": 4216,
      "Ġray": 4217,
      "Ġrates": 4218,
      "Ġinside": 4219,
      "Ġremoved": 4220,
      "Ġplanned": 4221,
      "Ġsmith": 4222,
      "Ġnegot": 4223,
      "Ġdestroyed": 4224,
      "ening": 4225,
      "Ġdna": 4226,
      "Ġwithd": 4227,
      "Ġuniverse": 4228,
      "Ġtub": 4229,
      "Ġdifferences": 4230,
      "Ġturk": 4231,
      "Ġquarter": 4232,
      "Ġves": 4233,
      "Ġexact": 4234,
      "Ġdifference": 4235,
      "Ġexisting": 4236,
      "Ġjesus": 4237,
      "andon": 4238,
      "Ġboy": 4239,
[...]
