#version: 0.2
Ġ t
Ġ a
h e
i n
Ġt he
e r
o n
Ġ s
Ġ ,
r e
Ġ o
Ġ c
a t
e n
Ġ w
e d
a n
i s
Ġ b
Ġ p
i t
o r
e s
Ġ f
Ġo f
a l
Ġ in
Ġa n
Ġ m
a r
i c
Ġan d
Ġ d
in g
i on
r o
a s
Ġt o
Ġ "
Ġ h
Ġ l
Ġ e
Ġ n
en t
Ġ re
l e
o u
Ġ g
Ġt h
s t
o m
l y
t he
c t
i l
Ġ 1
Ġb e
Ġ u
o l
v e
a m
at ion
Ġ is
i m
c e
a d
Ġf or
u r
Ġa s
Ġ -
i d
c h
Ġs t
t h
v er
i g
s e
Ġ on
i r
t er
Ġw as
u l
Ġc on
u t
o w
it h
Ġd e
Ġ r
Ġa l
Ġ (
Ġ )
e t
o t
Ġw ith
Ġth at
Ġw h
e l
Ġb y
Ġp ro
is t
a y
u s
Ġ he
Ġ v
Ġs u
Ġo r
r a
an d
Ġc om
u n
r i
' s
Ġ1 9
Ġ 2
ro m
u m
e m
Ġ it
Ġm o
Ġ k
o p
Ġc h
a g
es t
i f
Ġu n
er s
Ġs e
a c
Ġ j
a in
at e
Ġa re
Ġe x
Ġa t
o s
re s
a b
p e
q u
it y
i es
Ġf rom
the r
ou n
o d
i v
m ent
o c
ic h
l d
Ġn e
u d
0 0
i ve
i an
ar t
es s
an t
i al
ic al
Ġh is
p p
or t
at ed
il l
Ġ en
Ġwh ich
er e
ig h
al l
p t
Ġ y
Ġl e
a k
Ġw ere
ar d
g e
ct ion
g h
i a
b er
Ġa r
Ġh a
Ġs h
u re
Ġn ot
Ġp l
Ġw or
d er
c l
Ġu s
ar y
p er
am e
o g
Ġcom p
i p
d u
Ġ .
in e
as t
s o
Ġa d
Ġcon t
re d
Ġ ro
is h
ou r
ou s
om e
it ion
i e
Ġt r
on g
a p
i z
en d
Ġin t
an s
Ġc l
e ct
Ġha ve
r it
Ġ â
Ġs p
Ġp art
el l
igh t
Ġal so
Ġh ad
Ġh as
ation s
c c
u b
o re
Ġa b
en ce
Ġâ Ģ
Ġ2 0
id e
ig n
Ġa m
Ġcom m
Ġal l
Ġp er
ul t
Ġc an
Ġm an
Ġw he
Ġre s
Ġfor m
a v
f f
al ly
Ġ im
i b
Ġthe ir
p l
ag e
r y
e ar
as s
Ġb ut
ou ld
Ġm e
Ġb o
u st
ro u
Ġf ir
Ġs c
Ġo ther
i re
ve l
f or
Ġ ;
Ġit s
o ver
Ġd is
he r
an g
Ġth is
at er
a ct
f er
Ġt e
Ġfir st
Ġon e
r u
cl ud
m an
Ġs y
im e
ac k
c on
Ġwh o
at es
Ġin ter
Ġne w
oun t
re n
ic e
Ġc ent
or d
Ġbe c
Ġm ar
u e
Ġbe en
ion s
Ġa g
re e
Ġin clud
Ġy ear
or y
Ġa f
Ġt w
o k
a ce
ou t
Ġ20 1
Ġ2 00
o st
ab le
ow n
he d
Ġs er
Ġc ol
an ce
p h
Ġsu ch
i le
Ġn o
Ġin d
c ed
a ch
a u
Ġs pe
k e
en s
un d
Ġp r
t e
ver s
Ġ1 8
Ġd es
ĠâĢ ĵ
l and
c es
Ġe le
oun d
Ġp res
Ġg en
Ġe v
w e
Ġ :
on e
Ġre c
Ġe m
ur ing
Ġcon s
r ic
ou gh
l ic
Ġ 3
Ġmo re
ation al
Ġ '
p ort
or s
t s
Ġre l
Ġmo st
Ġtw o
l ow
v ed
Ġp re
Ġs o
Ġp h
Ġus ed
is m
Ġthe y
k s
Ġ i
Ġp ol
ad e
Ġo ver
Ġre g
it ed
Ġp e
Ġe ar
ent s
Ġint o
it e
as e
Ġm ay
Ġ qu
o se
i ed
Ġa pp
ul ar
Ġt ime
Ġbe t
Ġf e
Ġk n
Ġn or
a w
l es
Ġs ome
Ġc o
am p
Ġw ar
Ġb l
Ġth an
Ġo ut
Ġp o
t ed
re at
ri b
as ed
a re
Ġpro du
ol og
res s
Ġaf ter
i ous
Ġat t
Ġt er
u al
o od
Ġw e
w n
rou gh
Ġsu b
Ġw ould
Ġof f
a il
Ġon ly
Ġu p
at ive
we en
th is
st em
Ġa c
Ġp op
Ġn um
Ġun der
in d
Ġwor ld
Ġl ar
Ġa p
Ġb r
Ġa ct
at h
g an
if ic
Ġsy stem
Ġm a
Ġl i
Ġbet ween
Ġc ount
ing s
t en
Ġwhe n
is s
Ġ19 9
on s
Ġen g
Ġtr ans
Ġin c
Ġa cc
over n
l i
ic s
Ġgen er
n e
Ġre p
Ġde f
Ġc ar
Ġ 4
f t
Ġg overn
for m
Ġthe re
Ġ %
Ġp ar
Ġwor k
id ent
Ġf r
ter n
Ġpl ay
ol d
Ġp ub
Ġas s
Ġd o
it ies
ur y
Ġman y
Ġhe r
ut ion
Ġch ar
Ġc all
Ġm in
er ic
il d
u c
e p
Ġthe m
Ġd if
Ġm on
Ġh im
Ġ 5
j ect
Ġf l
Ġre m
al s
Ġj o
Ġt ra
vel op
in ce
Ġin st
Ġspe c
ur n
i et
Ġth rough
Ġyear s
Ġs ou
Ġsu pp
at ing
Ġp os
l l
e ver
ol low
Ġd uring
ak e
is hed
Ġin v
Ġu se
Ġe u
Ġde velop
ow er
i o
m s
Ġo b
Ġst ates
Ġab out
Ġf il
y s
ter s
Ġm em
Ġin f
Ġam eric
r am
in t
ro und
Ġkn own
ow ever
Ġs et
Ġ /
ce pt
w ard
ist s
ay s
in es
a f
i ly
Ġwhe re
Ġw ill
Ġpro v
Ġ ed
ic t
Ġd ist
Ġv ar
Ġf ound
au se
Ġs ch
ct ed
ver y
on d
Ġst ate
rou p
i ent
Ġ z
Ġex p
Ġen d
Ġ19 8
r al
Ġde c
Ġa u
i x
ment s
Ġthe se
Ġh igh
c ess
Ġcon st
it s
Ġst ud
Ġf in
Ġc ity
Ġm us
Ġ est
h ip
Ġs m
u ally
Ġcent ury
u res
Ġw ell
Ġf ollow
Ġim p
iz ed
Ġb u
is e
Ġpe op
Ġg roup
Ġs im
Ġm ade
Ġl oc
ical ly
Ġad d
i vers
f ore
Ġinclud ing
o ther
Ġ ent
Ġag ain
Ġ 6
Ġcall ed
Ġg er
Ġl ater
Ġm ain
Ġe ff
t ain
Ġg r
Ġc a
Ġnum ber
Ġun ited
Ġbe ing
c k
Ġc or
se l
Ġ19 7
Ġa ir
Ġgovern ment
Ġth ree
Ġw rit
Ġs ur
i um
ction s
Ġs ign
Ġde p
in ed
Ġh ist
con d
Ġeu ro
Ġb ro
Ġbec ame
at ure
Ġdif fer
Ġbo th
in s
Ġan y
Ġex t
Ġm ed
Ġpeop le
Ġthe n
ib le
Ġo per
Ġwh ile
Ġt y
00 0
Ġs oc
Ġl ang
ur al
c y
n ing
he n
Ġar t
r on
Ġn ational
er ed
v ing
Ġlang u
Ġse cond
Ġm u
i el
a h
Ġ19 6
Ġear ly
Ġc re
Ġ rom
Ġp ers
Ġg u
ial ly
ic k
al e
at her
Ġeuro pe
im es
Ġbe l
b ers
il ity
if e
j or
Ġl ong
Ġor ig
Ġger man
l ed
Ġd ire
t le
g est
Ġb rit
ar s
Ġar m
Ġinter n
Ġpart ic
Ġli ke
he s
Ġse ver
an k
Ġle ad
m in
t on
Ġl o
Ġcont in
ro s
am es
Ġ1 7
th ough
Ġdis c
l ished
oc k
is ion
Ġma jor
Ġk ing
t y
ian s
Ġcomm on
Ġ 7
l ish
ag es
Ġdes c
t il
Ġm et
Ġres ult
Ġre t
Ġ 8
Ġm il
Ġl aw
l o
Ġs he
an ge
Ġlar ge
f ul
ul ation
ra ct
ul a
Ġh um
ar ch
v en
or k
Ġo wn
Ġde m
b y
ill ion
Ġorig in
Ġo cc
Ġof ten
ro w
er g
Ġele ct
Ġcomp le
u es
Ġs ame
Ġm at
Ġp ower
Ġpro g
Ġs a
Ġmo d
iel d
Ġf am
Ġf our
olog y
Ġst r
Ġun ivers
iv ed
os ed
Ġap pe
Ġp a
Ġcont ro
Ġcomm un
Ġv al
v ent
Ġe qu
Ġc ould
Ġ if
Ġsupp ort
r ist
o ol
ie w
b e
Ġ1 5
ord ing
Ġfil m
a z
g er
Ġo p
Ġpub lic
Ġinc re
Ġcl ass
us s
ant s
Ġameric an
he m
Ġagain st
a red
Ġnor th
b le
Ġser v
Ġb ased
i od
Ġpol it
Ġcons id
Ġsou th
t o
con om
amp le
Ġ1 0
Ġle g
Ġor gan
an n
i red
iv es
t ing
Ġp ri
h owever
Ġdes ign
Ġsever al
Ġc ap
Ġbe fore
Ġe ach
Ġre le
Ġtr ad
Ġg re
Ġ 9
Ġrem ain
Ġcon f
Ġs ince
o y
ut e
Ġ1 6
an c
ĠâĢ Ķ
Ġn ame
Ġc ur
Ġsm all
is ed
Ġbec ause
at ic
Ġis land
Ġc al
x t
Ġ ir
Ġdiffer ent
Ġ19 4
Ġk e
u ed
Ġe conom
Ġs l
Ġl and
Ġsh ow
Ġre v
Ġcol le
Ġre f
Ġg reat
h n
Ġin s
u p
Ġgener al
id ed
Ġre qu
m ber
ren t
Ġper iod
ur ch
ak ing
l u
or n
ic es
Ġf re
v es
Ġc our
Ġr ight
Ġs ing
Ġst and
Ġch rist
Ġun til
Ġapp ro
Ġf un
ra ph
Ġex ample
Ġbo ok
Ġd iv
c er
Ġd ay
Ġl it
Ġc r
Ġcount ry
Ġchar act
cc ess
Ġeff ect
Ġo ld
Ġg o
as on
i er
ch n
ri es
Ġs ol
Ġim port
Ġs w
Ġd id
Ġ es
Ġb ack
the re
Ġan n
ion al
Ġinclud e
it al
ru ct
om in
Ġre fer
Ã ©
Ġmo der
Ġmar k
Ġsch ool
Ġ19 5
Ġor der
Ġrec ord
a ve
ther n
Ġall ow
i ver
Ġp ort
Ġform ula
Ġr ad
w ay
b o
Ġl ife
Ġpres ident
Ġe l
Ġg e
Ġpro cess
Ġpart y
Ġp ass
Ġb as
Ġth ough
Ġl a
Ġ er
Ġse c
Ġser ies
af ter
Ġoff ic
ou se
Ġh y
Ġbrit ish
Ġprog ram
Ġa round
ition s
if ied
in c
Ġpos s
Ġpro p
Ġsu ccess
Ġ x
sel f
i ence
Ġc ult
pe ct
id es
in a
n a
Ġcomp an
ul l
Ġm id
Ġth ose
Ġlangu age
Ġpro t
m e
Ġest ab
i k
Ġte chn
Ġa v
Ġm ag
Ġmus ic
en e
Ġmil it
Ġbe gan
Ġdire ct
a im
Ġan t
iz ation
n er
Ġn on
Ġn ow
an e
Ġp at
Ġ1 2
Ġ <
Ġm illion
end ed
ros s
el s
m b
iss ion
Ġdesc rib
Ġev en
p or
Ġwor d
em ent
Ġmoder n
Ġpers on
Ġex pl
ir d
Ġo pp
ot e
et s
Ġh and
im ate
re t
Ġex per
ent ly
Ġunivers ity
Ġde ath
o v
Ġpop ulation
Ġi i
Ġrep res
in k
Ġb at
en g
Ġf act
Ġwith in
Ġre ce
Ġad v
m ost
Ġter m
Ġinf lu
Ġc oun
Ġj e
Ġmu ch
Ġb ar
Ġl at
ac c
Ġare a
Ġin du
ro p
Ġf ore
the y
en ces
il ar
Ġt em
Ġte am
Ġam ong
a ir
Ġbel ie
Ġintern ational
Ġjo hn
p ar
Ġw est
Ġau th
s on
as es
Ġne ar
Ġl ine
a x
Ġop en
Ġre st
r ation
th od
Ġr un
Ġpolit ical
i ation
ro du
Ġ19 3
Ġg ame
Ġus ing
Ġfollow ing
u g
w h
Ġph il
the se
is ter
Ġg iv
ren ch
iz e
Ġhum an
Ġh ar
Ġ very
Ġc rit
Ġl ed
Ġch urch
om et
am ed
Ġst art
Ġw ater
i us
Ġt ri
Ġmem bers
us ed
Ġpop ular
c om
Ġwh at
Ġre se
Ġs k
Ġeng lish
Ġty p
Ġst at
or ies
Ġd ue
c ent
Ġres p
en se
Ġj ust
le y
Ġl ast
om en
Ġre port
Ġ vers
Ġhe ad
Ġch ild
am ent
Ġst ill
Ġmo ve
Ġmilit ary
Ġg od
Ġv is
y n
Ġar g
Ġ $
Ġd own
al ity
Ġc er
iet y
ition al
ar k
Ġpartic ular
Ġf ield
Ġf rench
ac ed
g in
Ġrel ig
Ġ ve
Ġret urn
n ess
en cy
Ġrepres ent
Ġte le
Ġl ess
Ġa ust
Ġrom an
od e
Ġ1 1
Ġa ff
Ġle vel
Ġsoc ial
Ġe as
re ad
Ġass oc
Ġe ast
Ġcont ain
Ġpres ent
Ġhe l
Ġal ong
Ġcharact er
Ġse e
Ġl im
ol ution
un e
t al
Ġdevelop ment
Ġst e
as h
on y
ri pt
op h
qu e
Ġh ouse
Ġh ig
b r
Ġc amp
Ġhist or
Ġcontro l
Ġl ate
ep end
Ġm y
Ġ1 3
Ġw ay
Ġn at
Ġl ab
Ġe p
Ġ1 4
Ġsim ilar
Ġsa id
at or
Ġhist ory
iv al
Ġb od
Ġf ar
Ġpo int
Ġ ide
es tern
s ome
Ġstand ard
Ġsp ace
er v
Ġw in
g ed
Ġan other
Ġsu per
s c
m ed
Ġb us
Ġv ol
ub lic
Ġbu ild
Ġh ome
Ġeurope an
Ġpro f
Ġt imes
Ġ19 2
Ġpl ace
Ġconsid ered
Ġh al
c o
og raph
y l
Ġde v
Ġm or
g en
Ġv i
Ġis s
Ġp ract
Ġcl aim
Ġre d
Ġind epend
m er
Ġd ra
Ġcom b
Ġar ch
Ġm ass
Ġimport ant
Ġle ft
Ġ ident
at a
Ġex ist
Ġe very
i or
Ġpub lished
Ġt reat
al th
Ġan g
Ġindu st
Ġaf ric
Ġfam ily
Ġcent ral
Ġal b
Ġauth or
le ar
Ġde cl
ive ly
Ġpr im
Ġsh ort
ut ed
olog ical
p le
Ġs al
Ġv iew
d uring
Ġwith out
is on
Ġc iv
Ġl ow
Ġarm y
Ġm ult
Ġt est
Ġm en
Ġb and
at s
Ġm ake
it her
Ġj u
Ġf ree
on t
Ġc ir
Ġem p
l er
Ġal though
Ġcount ries
Ġsu g
a i
Ġp ur
Ġre pl
Ġdevelop ed
Ġd i
ur ther
Ġb re
Ġloc al
e c
ure d
Ġgiv en
Ġrep ublic
Ġl ight
b s
Ġs our
um ent
Ġn et
Ġint rodu
os s
Ġto ok
es e
Ġt it
Ġph ys
Ġne ed
Ġch ang
Ġlar gest
ber t
d om
ri ed
p s
Ġfe w
Ġun ion
em pt
Ġh owever
en n
Ġinclud ed
ak es
Ġth ird
Ġocc ur
Ġp ost
Ġhe ld
i ated
Ġf ive
Ġfor ce
Ġme thod
Ġvar ious
d ay
Ġbec ome
Ġconst it
Ġst ruct
Ġ19 1
acc ording
ro te
Ġsing le
Ġbl ack
Ġau g
ed er
Ġw estern
l ing
l ess
Ġin it
Ġciv il
Ġus ually
Ġform er
Ġrele ased
v al
ist ic
Ġatt ack
Ġre al
Ġpl an
c il
w ork
Ġo ct
ct or
h is
Ġpro per
z e
Ġg l
Ġev ent
Ġsystem s
Ġ ver
Ġsign ific
ab ly
Ġreg ion
Ġcour t
iv id
Ġ ]
Ġto p
pe c
og n
w hen
Ġinv ol
Ġre du
Ġcompan y
il t
Ġit al
Ġs ix
Ġc ase
Ġ [
Ġr a
em ber
Ġj an
s h
Ġm ot
ward s
Ġl et
m it
er c
Ġcon d
g r
Ġthe ory
Ġa ge
Ġb est
Ġg ree
Ġf o
th s
ap an
Ġfor ces
Ġpro m
he re
Ġserv ice
Ġg row
Ġcir c
Ġt urn
pl oy
Ġw rote
Ġm al
Ġr u
Ġr ul
erg y
Ġprodu ction
Ġaug ust
Ġb i
Ġw ide
u ary
Ġre ad
Ġc y
Ġorigin al
Ġd en
he st
Ġspec ial
a e
Ġact iv
ivid ual
Ġst ar
Ġp al
Ġestab lished
Ġbe h
Ġprodu ct
Ġm ater
ent ial
Ġin form
Ġm ust
Ġde ce
on es
m a
Ġfun ction
Ġse ason
Ġsh ould
Ġr uss
Ġje w
Ġg ood
Ġcur rent
id ence
Ġr iver
in ation
Ġed uc
Ġme an
r ing
Ġh ow
Ġsignific ant
Ġprodu ced
u ter
Ġpres s
Ġpro ject
Ġy ork
v iet
Ġw omen
Ġj apan
Ġwrit ten
Ġg ra
le t
Ġdo es
Ġpro ble
o b
Ġmar ch
Ġro le
Ġare as
Ġper form
Ġwh ite
ab ility
Ġind ividual
Ġatt empt
Ġrel ations
wh ile
Ġan al
se qu
et ic
Ġsu m
Ġn amed
Ġse pt
Ġha ving
it ive
Ġb er
Ġob s
Ġa ut
ent ion
Ġc ame
i am
in ing
y ing
Ġgroup s
Ġb ra
Ġrese arch
Ġear th
Ġstr ong
Ġme as
Ġob ject
ard s
Ġd er
omet imes
Ġsu n
Ġsy n
Ġso viet
le ct
Ġ 0
e x
Ġg ames
Ġse par
ru ction
Ġsug gest
g es
v ious
Ġwor ks
Ġde t
Ġcoun cil
r il
iv ing
Ġdescrib ed
Ġjan uary
Ġto tal
Ġeng ine
o ve
o ber
Ġc e
id s
Ġeconom ic
Ġs ong
an ces
Ġc ell
Ġu r
Ġmater ial
un g
Ġy ou
Ġbod y
Ġro ck
Ġinst it
Ġan c
ot s
ra ft
Ġe ither
Ġst y
Ġking dom
Ġchrist ian
Ġoct ober
Ġj une
Ġm ic
Ġt ro
Ġter rit
l in
Ġen ergy
y al
Ġs at
Ġdece mber
s ide
i pp
it es
Ġhel p
Ġcre ated
Ġemp ire
Ġsept ember
i ate
is ing
Ġs ent
Ġs on
Ġju ly
Ġj ud
end s
Ġan im
ag ue
Ġbro ad
al though
Ġappe ar
Ġb or
Ġinter est
o red
Ġf urther
Ġw on
Ġd est
Ġc at
Ġt ake
Ġm ount
au gh
Ġoffic ial
Ġnat ural
Ġse a
ak en
th ing
er ing
ac es
s y
ect ed
Ġfre qu
g y
Ġpol ic
in ess
Ġc over
Ġother s
Ġl ist
Ġc are
w are
Ġp ot
Ġalb um
ific ation
b all
Ġa ra
Ġs ometimes
Ġk ill
Ġv ir
2 0
Ġbu ilt
Ġexp ress
Ġrece ived
Ġr ather
os p
pec ially
Ġlit er
w ith
ad a
Ġspec ies
ol ic
av y
m ar
o x
c ing
Ġag re
Ġf und
Ġgerman y
ot t
Ġpri v
as ter
Ġto wn
e ad
Ġno ve
at ures
Ġcomm and
Ġf ull
Ġes pecially
as ing
Ġnove mber
s u
Ġd ata
Ġcon cer
ric t
c hed
Ġst re
Ġchild ren
h am
Ġy oun
Ġhal f
g et
Ġnor thern
d e
Ġv ict
Ġaust ral
Ġrec ogn
Ġgener ally
Ġs old
Ġe th
Ġear li
Ġdem oc
Ġcontin ued
Ġde ter
Ġd ri
Ġlangu ages
Ġt ur
Ġplay ed
Ġne ver
op s
Ġap ril
Ġcomp et
Ġsu ff
Ġp ain
Ġsc ience
Ġ2 5
Ġad min
end ing
Ġvers ion
ac y
Ġm iss
Ġbl ock
Ġde b
Ġman ag
Ġ3 0
Ġty pe
Ġd r
Ġstud y
Ġc op
Ġdisc over
Ġsh ip
Ġposs ible
b ur
w ays
Ġf ather
g o
m on
Ġinv est
Ġadd ition
ict ion
m ing
Ġn uc
Ġd omin
Ġsc ient
o f
man y
Ġpos ition
Ġf eder
Ġo x
p re
Ġb ur
c raft
Ġm aking
Ġfr ance
v ision
Ġcon cept
Ġphil os
Ġcl ose
n ed
Ġl ower
at ors
Ġre n
an ish
inc ip
Ġeng land
Ġs ide
Ġav ail
Ġdif f
en ced
Ġw al
t ic
Ġpre vious
v ir
Ġc ost
Ġhe n
Ġp red
Ġh o
Ġb al
Ġmem ber
Ġh old
Ġne g
d le
ge ther
Ġr ange
Ġac cept
Ġne xt
Ġpr incip
Ġcap ital
ut es
Ġmove ment
c hes
Ġf ail
a pt
Ġsou thern
Ġmark et
Ġs ound
Ġd ays
Ġfore ign
Ġen c
Ġfin al
Ġimp ro
Ġf a
oun ced
Ġt re
ie f
Ġch ange
Ġcomm it
Ġco ast
Ġse x
Ġs el
ar ian
Ġright s
Ġbat tle
Ġca pt
Ġsub ject
os ition
ud e
Ġb ase
b ru
Ġkn ow
om s
ut ions
Ġtr ade
Ġwe e
Ġg old
Ġmod el
ort s
ens ive
Ġter ms
Ġprof ess
Ġa ch
ne y
Ġrad io
Ġcomple x
Ġf ri
Ġtem per
Ġpro te
Ġsoc iety
Ġrelig ious
Ġs il
c ul
Ġbe gin
Ġameric a
Ġ201 0
Ġhim self
ain s
Ġcer tain
Ġ >
Ġreg ard
Ġle ast
Ġgree k
Ã ¡
n ot
ac hed
f ace
Ġc ath
Ġse en
Ġcol l
Ġd u
Ġa ward
Ġh ost
Ġoff ice
Ġeas tern
Ġd ou
in ts
Ġform ed
Ġinform ation
imate ly
ain ed
Ġhig her
ru g
Ġconstit ution
Ġcomple te
Ġr ail
s p
b an
Ġcent er
ond on
Ġint e
Ġto ur
Ġt ar
bru ary
ar ily
Ġf ac
Ġacc ount
Ġfe bruary
Ġisland s
m al
Ġc hem
Ġh ol
Ġle ague
an a
Ġf all
Ġab ove
Ġli ber
l ine
Ġfo ot
Ġmin ister
il le
Ġintrodu ced
Ġc ast
Ġtra vel
re w
Ġh ard
Ġf em
Ġst ory
Ġant i
Ġnet work
u el
in ted
im ent
Ġch ina
Ġth us
Ġm ach
Ġ199 0
Ġmag n
Ġ ill
Ġbus iness
Ġ1 00
Ġd ied
Ġl ondon
ic le
Ġavail able
ch an
ad es
Ġc he
Ġw ind
Ġp en
p ite
st er
Ġpart s
Ġf ind
Ġfe ature
s he
Ġcon g
Ġwill iam
le ment
Ġmid dle
Ġme ans
Ġsty le
Ġit self
Ġad op
Ġu k
Ġ Â
Ġt en
k y
l am
Ġex ec
Ġt ax
Ġf ood
Ġeduc ation
Ġacc ording
Ġs am
ar ies
b al
h ib
Ġ19 0
Ġro yal
Ġthrough out
Ġs en
Ġh or
Ġof fer
Ġab s
Ġd oc
Ġcont rib
Ġres pect
Ġele ction
Ġ q
Ġcons ist
le x
Ġl og
Ġge or
p r
Ġem ploy
Ġtrad itional
pl es
ra el
a pe
Ġadmin ist
ist an
Ġform s
Ġto gether
Ġf er
Ġfollow ed
Ġ2 1
Ġind ic
Ġnum bers
i que
Ġrel ative
Ġtele vision
Ġb ud
Ġno vel
Ġs an
Ġke y
Ġ200 0
Ġhe alth
in o
Ġde l
t a
Ġh om
Ġapp lic
Ġcon n
Ġr ate
vir on
for man
Ġla un
Ġb orn
Ġg round
n s
Ġcol on
Ġa ver
Ġmult ip
Ġv o
ant ed
Ġ198 0
Ġlit tle
Ġrel ated
s ince
Ġsub st
ate g
Ġcommun ity
pt ion
Ġvi ol
Ġd om
Ġ201 1
Ġ200 8
Ġs qu
Ġper forman
Ġent ire
Ġinflu ence
Ġru le
Ġal most
f act
h a
Ġcl ub
ines e
Ġc ross
Ġhy d
ot ed
om b
Ġd on
Ġp sy
Ġev idence
Ġs em
Ġac ross
p o
Ġf ire
Ġen viron
Ġpar k
Ġc it
Ġp ut
Ġper cent
Ġf oc
Ġele ments
Ġs it
in al
Ġacc ess
Ġmain tain
Ġf av
Ġim m
Ġpar li
Ġf ig
Ġach ie
Ġinst ead
Ġremain ed
Ġparticular ly
ce ed
er ous
Ġt rib
Ġsuccess ful
Ġwho se
Ġind ia
Ġest im
Ġdep art
Ġc am
Ġcomp uter
Ġ18 9
Ġpo ly
Ġcult ure
Ġup on
Ġara b
av es
Ġsch ol
Ġd am
Ġ200 9
li ke
ad em
Ġl ost
Ġb all
ra p
Ġex cept
id ge
Ġ200 7
Ġst ri
Ġcolle ge
ic ult
Ġme et
a ign
l im
om an
Ġro ad
Ġ197 0
Ġsec ret
Ġincre ased
Ġg lo
Ġre form
en ed
re g
Ġl ib
Ġdis p
Ġas se
Ġsour ce
Ġgr and
Ġt al
Ġcrit ic
l ation
Ġdemoc r
st and
Ġparli ament
Ġd av
Ġcon vent
Ġr ich
Ġh it
Ġval ue
Ġrequ ired
r or
Ġa ud
Ġreport ed
Ġbuild ing
us es
Ġso ft
Ġspec ific
Ġdist rib
Ġdis pl
Ġcamp aign
Ġserv ices
Ġthough t
r ast
Ġlat in
Ġassoc iated
Ġb c
Ġch inese
Ġt aken
Ġ5 0
at ory
her s
Ġn ature
Ġspe ed
ing u
op e
x ic
Ġis rael
c le
Ġgre en
Ġw ent
Ġpro b
Ġme chan
Ġtrad ition
Ġl ive
ri an
Ġdist in
Ġd ig
Ġstruct ure
the s
Ġ201 2
Ġloc ated
ap s
Ġbro ther
Ġresp ons
Ġmo ved
b it
Ġ &
our s
Ġanc ient
Ġh on
Ġpsy ch
Ġr ank
Ġmajor ity
Ġappro x
k ing
Ġword s
b on
Ġallow ed
Ġu l
Ġsel f
Ġam ount
Ġrev olution
Ġfeder al
ri al
Ġrefer red
Ġdef e
Ġqu est
Ġpriv ate
Ġs ize
um b
er y
Ġyoun g
w or
Ġincre asing
Ġmean ing
ar a
Ġac adem
Ġc ities
Ġc ode
Ġde g
Ġmon ths
Ġb ir
Ġapp o
Ġann ounced
um ents
Ġconsid er
Ġdiff icult
rough t
Ġafric a
Ġp ast
ri a
se t
Ġ196 0
Ġs ay
Ġind ian
Ġex am
ro wn
Ġfil ms
Ġindepend ent
Ġte xt
Ġd ut
r ated
Ġtrans port
Ġm er
i ers
Ġg ave
Ġk h
Ġ200 6
Ġindust ry
Ġm ight
Ġon ce
Ġprov ide
Ġprov ided
Ġb ank
Ġa ction
Ġn ations
Ġpolic y
Ġsp anish
Ġch o
at ives
id ing
Ġpr ime
Ġstart ed
Ġrelations hip
al d
Ġcon du
Ġm ac
Ġcomm erc
Ġdef in
Ġfr ont
Ġs n
Ġev ents
Ġab le
Ġelect ron
Ġbec om
p ut
Ã ¶
Ġgr ad
Ġa st
ur ity
a ff
d en
Ġeconom y
em s
Ġc ases
us ion
Ġch amp
Ġwork ing
Ġ ess
Ġc od
b or
Ġbelie ved
Ġp un
e f
Ġl ay
an ch
Ġm ix
Ġw all
Ġsp ir
Ġaver age
Ġcol or
Ġs aw
us h
Ġ201 4
is c
Ġenviron ment
Ġestab lish
um e
ol s
Ġse qu
eng th
Ġf ut
Ġphilos oph
Ġcath olic
Ġsur v
Ġdef ined
Ġl u
Ġlead ing
f rom
Ġc reat
Ġ18 6
m ore
Ġlim ited
ow s
Ġ201 3
k ed
ib ility
Ġ201 5
Ġmat hem
i i
u fact
Ġ2 4
Ġqu ant
Ġc ard
Ġsy mb
Ġinclud es
Ġ201 6
Ġreg ular
Ġinst r
ic a
c ast
Ġlead ers
Ġmo ther
Ġar ri
Ġl ack
Ġocc up
ough t
Ġevent ually
Ġp an
l s
a ction
Ġser ved
Ġcomm ission
t t
Ġto o
Ġl iving
t ies
is es
it or
Ġpartic ip
Ġer a
Ġst ep
Ġobs er
Ġf low
Ġst ated
Ġse ven
Ġte x
Ġc ause
Ġincre ase
Ġele cted
Ġ200 5
for d
Ġair craft
Ġj er
Ġch ief
Ġem per
sel ves
Ġ18 8
Ġent er
Ġleg al
Ġdesign ed
Ġout side
Ġv ide
Ġman ufact
Ġtyp ically
Ġe ight
Ġpe ace
Ġma x
Ġd yn
Ġtit le
ic ient
Ġo pt
i res
Ġre b
Ġor d
re st
Ġcontin u
Ġfe atures
Ġsy m
Ġn ight
Ġafric an
ing ton
Ġ18 7
Ġappe ared
as ion
Ġhyd ro
' t
Ġb rought
an ks
Ġc ou
Ġun it
Ġne cess
Ġca used
Ġtechn ology
Ġreturn ed
Ġgrow th
am a
Ġe t
Ġwrit ing
Ġg as
Ġo il
one y
r ay
Ġconst ant
Ġl ink
Ġmed ia
Ġem erg
Ġtyp es
Ġnuc lear
Ġal tern
and s
Ġcommon ly
c he
k a
Ġh am
Ġpract ice
Ġp ay
Ġem b
Ġfound ed
o id
Ġdiv ision
Ġchang es
Ġbegin ning
Ġp ow
Ġwhe ther
ograph y
Ġn ation
Ġmin or
Ġw at
Ġle ar
Ġh all
Ġwide ly
gy pt
d es
Ġj our
il ities
5 0
med iate
ress ion
Ġthem selves
Ġcommun ic
Ġsub sequ
Ġst ation
if y
om p
Ġsur face
Ġcan ada
Ġpur p
Ġcom e
Ġruss ian
it ude
Ġus es
Ġstud ents
er t
Ġr ap
Ġ201 8
Ġst ra
ul ated
Ġr h
ain t
Ġterrit ory
Ġb ill
Ġ201 7
Ġph ot
Ġpo ints
c ript
it ing
an ia
Ġb ig
ur ies
bur g
Ġjew ish
Ġa way
Ġrecord ed
Ġprim ary
Ġeffect s
Ġcong ress
fer ence
Ġearli er
Ġplay er
Ġpre vent
Ġ =
Ġhig hest
Ġto day
Ġperforman ce
r ad
Ġe ver
Ġ4 0
Ġgre ater
Ġphys ical
Ġf le
Ġm art
Ġsepar ate
Ġn ar
Ġadd ed
or m
Ġperson al
pp er
Ġprop osed
Ġl oss
Ġl ines
Ġ2 3
Ġd im
Ġbrit ain
Ġis lam
er o
Ġg al
Ġsec urity
Ġc lear
se um
Ġprodu ce
res p
Ġrele ase
it ch
Ġmost ly
Ġproble m
l ied
Ġw ood
Ġdeter m
Ġc ut
Ġb ow
Ġjapan ese
Ġc and
Ġn ames
Ġe c
ul f
Ġasse mb
Ġe gypt
Ġlar ger
ic les
Ġbe low
Ġ201 9
Ġg et
se c
Ġadd ress
Ġb illion
Ġrequ ire
Ġpa ul
in ary
Ġele ment
Ġbook s
Ġpre c
m en
Ġf if
Ġm ill
h ab
Ġs ite
Ġl ength
Ġcon ver
Ġr at
Ġal ways
it ect
Ġm el
Ġstud ies
Ġfut ure
Ġital ian
er n
Ġcons erv
Ġcommerc ial
j e
Ġrom e
pp ed
Ġlab or
Ġemper or
Ġl ou
Ã Ń
us ing
Ġlo ok
ach ing
Ġinvol ved
Ġaustral ia
Ġconst ruction
Ġfor t
ll ed
Ġspe ak
Ġfin anc
Ġde al
y m
ens ion
Ġlong er
pe cted
Ġv ia
Ġmu seum
ur s
Ġrepl aced
le g
Ġsoft ware
ol l
Ġschool s
Ġfr anc
Ġleg is
and ed
Ġre ason
um p
Ġindepend ence
Ġsupport ed
Ġb ound
an ced
k n
st e
iz ing
Ġsit u
ro y
ag o
Ġ2 2
Ġqu e
Ġac qu
Ġ200 4
Ġmus lim
Ġmic ro
Ġs us
Ġbo ard
Ġlo ve
Ġpress ure
Ġprot est
Ġun its
Ġarch itect
Ġwee k
Ġcit iz
Ġres ist
Ġul t
Ġvar iety
r ary
Ġc ust
Ġplay ers
Ġlet ter
Ġdoc ument
Ġdis e
land s
Ġimp lement
Ġremain s
an other
n al
Ä ģ
Ġ200 1
Ġvar i
Ġf est
Ġf ell
as c
Ġcent re
Ġh un
Ġresult s
Ġelect ric
Ġcult ural
Ġde li
is ions
Ġwe ap
ys is
Ġital y
Ġtreat y
Ġide a
Ġlarge ly
Ġd ial
Ġconf lic
ant ic
Ġcond itions
Ġeth n
resp ond
Ġhe av
Ġorigin ally
Ġorgan ization
Ġdirect ly
be c
Ġa lex
Ġf ra
Ġn av
Ġr is
Ġmet al
Ġep is
Ġc le
ag ed
o ff
Ġp ie
os ing
mit ted
Ġcharact ers
Ġz e
Ġrev iew
ag n
Ġbet ter
Ġproble ms
o le
Ġv ill
qu ote
Ġscient ific
ous ly
ent al
Ġass ist
por ary
he l
it z
ar i
Ġdisc uss
read y
Ġblock quote
a ut
j o
Ġpl at
Ġvide o
Ġf ight
Ġlaw s
qu es
Ġestim ated
Ġh ot
Ġm ur
Ġn ative
Ġchar les
Ã ¼
Ġbl ue
led ge
Ġbl ood
Ġassoc iation
Ġj ames
Ġcor respond
Ġoper ations
Ġbeh av
Ġsour ces
Ġproduct s
Ġb ene
ab les
un ic
ell ing
Ġperform ed
Ġlike ly
Ġmathem at
Ġrec ent
d s
u gh
Ġw ife
ist ry
om m
Ġmo le
Ġro t
ric ult
the n
Ġspir it
Ġs af
ly ing
on se
w ood
Ġro und
Ġb it
Ġkill ed
Ġset t
Ġgeor ge
ad d
av ing
Ġhistor ical
Ġmeas ure
w here
Ġth reat
Ġto wards
Ġauthor ity
Ġcompan ies
Ġcommit te
Ġ20 20
Ġbir th
Ġim per
Ġpar is
Ġdav id
Ġbre ak
Ġstre et
Ġapprox imately
if t
Ġadop ted
u ch
Ġ18 4
ann ed
Ġv en
Ġtemper ature
Ġ ic
Ġg un
Ġcons um
Ġnum erous
Ġext re
Ġch ann
Ġsc ale
ber g
Ġo ur
Ġal ready
ar ing
k i
Ġoper ation
Ġrelig ion
Ġsp ok
Ġresp onse
o res
os es
Ġm ission
Ġcount y
Ġce le
Ġre ached
ut ive
Ġclaim ed
Ġst age
Ã ³
ri age
Ġo s
Ġn omin
ign ed
Ġschol ars
Ġset tle
Ġindust rial
p a
Ġd one
Ġsmall er
Ġ2 6
Ġqu ar
Ġp ap
Ġtr ue
Ġb ul
Ġdem on
Ġg ar
Ġdemocr atic
is ation
h ist
Ġk ore
Ġm ess
Ġlead er
Ġcare er
Ġob tain
Ġc ry
st on
in i
Ġbor der
Ġact ive
Ġstat us
Ġd a
ist ics
Ġpl ant
Ġcre ate
Ġlevel s
Ġcomp on
Ġhigh ly
c an
Ġpart ies
Ġlat ter
iv ity
Ġmultip le
Ġbas is
Ġglo bal
im um
Ġreg ions
g a
n ers
Ġg ive
Ġad apt
it ation
Ġen ough
Ġke ep
Ġt or
Ġcon cent
Ġso on
Ġcor re
Ġse le
it er
Ġcoun ter
Ġdistin ct
Ġ2 8
Ġqu ick
Ġsum mer
Ġdispl ay
Ġ200 3
Ġthe at
Ġwho le
ke y
e th
Ġp ack
Ġme xic
Ġa x
ne w
iver se
Ġpri or
Ġdiv ided
Ġp ra
Ġproper ty
Ġl ord
Ġas ia
u se
Ġc ateg
ou ra
Ġcent uries
l a
Ġp ath
Ġro b
Ġwh om
Ġve h
Ġhen ry
Ġb en
Ġp et
Ġc red
Ġag ricult
Ġpol ice
Ġmon th
Ġwork ed
Ġcan not
Ġwas h
Ġtrans l
Ġfl ight
Ġdest roy
if orn
re am
Ġpop e
as ons
Ġmethod s
augh ter
Ġchamp ions
Ġunder stand
Ġcont em
en c
Ġmain ly
Ġde ep
and er
un der
Ġdiscover ed
Ġfun ctions
ot ing
Ġpl aced
a el
Ġpo or
Ġh ous
Ġs ens
Ġfoot ball
Ġtro ops
Ġ2 7
Ġ200 2
m et
Ġcand id
b i
id ents
Ġshow s
Ġnear ly
Ġfinanc ial
Ġ Î
Ġcor por
Ġfre ed
Ġexper iment
Ġfore st
Ġjo ined
Ġne igh
Ġins p
Ġiss ues
Ġchang ed
ian ce
Ġr ac
Ġcontain s
Ġfem ale
f l
Ġrecord s
Ġagre ement
p ly
Ġknow ledge
b c
Ġprim arily
Ġs ense
Ġmed ical
ot es
ab or
Ġthere fore
Ġiss ue
Ġchem ical
Ġ195 0
Ġim mediate
Ġbelie f
f ield
Ġthe ore
b ack
id er
b our
i ences
Ġm oney
Ġsc ript
Ġgovern or
Ġprot ect
re en
Ġm ich
Ġfor ced
Ġk ind
Ġcommitte e
Ġinc or
Ġmag az
Ġtrans fer
Ġcal end
Ġcal iforn
Ġair port
Ġbas ic
Ġex ch
y r
con t
Ġin n
Ġl ived
Ġpre m
Ġfam il
Ġes c
ul ations
Ġ199 9
y a
Ġtra ining
m p
Ġo ce
Ġcont rast
al ed
o th
Ġsh own
Ġanal ysis
r ang
Ġmar ried
Ġadd itional
w er
Ġha pp
uc k
Ġrul es
at t
b ut
Ġ18 3
Ġend ed
Ġpot ential
Ġrelative ly
Ġrap id
h ood
Ġadminist ration
Ġt aking
Ġsign ed
ig r
Ġcar bon
Ġdeg ree
he ad
Ġii i
Ġdemon st
Ġbroad cast
Ġmat ter
Ġquest ion
al es
Ġ8 0
Ġn avy
Ġruss ia
Ġj ack
Ġexper ience
om as
Ġu pper
Ġs ac
Ġd rug
l or
Ġ +
Ġp ac
Ġac id
Ġpow ers
Ġs low
Ġd ate
am b
Ġelect r
Ġopen ed
Ġsim ple
Ġactiv ity
Ġprog ress
a ur
Ġappo inted
ol ved
od es
ism s
Ġart icle
Ġde ad
Ġtrans form
w ell
Ġ ire
Ġth ous
ul s
Ġdepart ment
h ol
Ġ ib
Ġw a
f ollow
Ġdet ail
il es
Ġinflu enced
Ġal g
Ġclass ical
Ġb ay
ers on
Ġwar s
Ġdirect or
Ġh ill
Ġv ote
Ġro bert
ph as
Ġprogram s
Ġcaliforn ia
a pp
Ġ6 0
Ġconvent ion
Ġs aint
ar m
Ġbeh ind
Ġinvest ig
Ġneed ed
ic i
Ġbud d
Ġst op
Ġnot ed
Ġm ention
Ġne ut
Ġres our
Ġur ban
Ġphilosoph y
Ġsp read
Ġfl u
in et
ter ed
Ġir on
Ġmus ical
Ġresult ing
ct r
Ġmo b
e ch
Ġc ub
cl es
Ġpass ed
Ġextre me
Ġhe avy
Ġc ru
Ġpo et
w ise
Ġwash ington
Ġr ace
follow ing
i os
w ide
Ġw il
ell ig
Ġf ish
Ġy et
Ġcomple ted
Ġsw ed
Ġb ish
if f
Ġmach ine
Ġcitiz ens
Ġsex ual
Ġm is
e v
t w
Ġmem ory
Ġliter ature
Ġmar riage
Ġpa per
Ġdec ided
Ġfam ous
iz ations
Ġplay ing
Ġarg ued
p ro
Ġsp ain
Ġass um
Ġnew s
Ġreg ional
Ġethn ic
ren g
Ġinit ial
Ġcalend ar
Ġmo v
ol k
Ġapp lied
Ġre con
Ġcomp ared
Ġaut om
m ission
Ġm akes
Ġdist rict
Ġhe art
Ġh ung
Ġredu ced
em ents
Ġse ction
Ġsuggest ed
Ġimpro ve
Ġdist ance
Ġcont ract
Ġcar ry
bec ause
Ġpro min
Ġaccept ed
Ġdis s
Ġat l
ans ion
Ġch all
Ġanim als
Ġ18 5
Ġship s
Ġe y
Ġassemb ly
Ġ199 8
Ġrem o
Ġqu ality
Ġappro ach
Ġproper ties
it ors
Ġcon v
Ġch ap
Ġfr ank
r is
ad ed
Ġst ars
v iew
ch ar
Ġprov ides
r ative
Ġm as
ol f
Ġequ ival
g round
th us
Ġar ts
ut ing
des pite
Ġl ake
Ġele ctions
ou th
Ġp il
Ġm ind
Ġth ink
Ġfour th
Ġcomp os
Ġposs ess
op er
Ġen s
n es
er al
Ġd ram
Ġj es
Ġst reng
Ġcell s
Ġt im
Ġm ad
Ġh op
Ġcar ried
c ks
Ġbe g
Ġr are
Ġimper ial
Ġr ise
ric k
Ġrun ning
Ġire land
Ġcolle ction
Ġa im
Ġm ut
Ġ3 1
c a
Ġconn ect
ad ian
ian t
Ġint ellig
Ġsur round
Ġsong s
Ġ iv
Ġtr u
Ġinter p
Ġprevious ly
p ri
Ġt as
ren ts
Ġval ues
Ġtar get
Ġpat tern
u ge
Ġfri end
Ġdef ense
n o
ast ic
Ġre pe
Ġoper ating
Ġab ility
Ġintern et
am s
Ġsim ply
Ġw oman
Ġre ject
Ġtreat ment
Ġjew s
n el
Ġg raph
Ġinit ially
Ġobs erv
Ġprob ably
Ġwork ers
Ġbene f
Ġequ al
w a
Ġappe ars
Ġdecl ared
an ian
ar c
Ġl if
Ġcl imate
Ġcontro vers
Ġh ours
Ġcomp ound
Ġform al
Ġdra w
Ġl ic
Ġdire ction
Ġsqu are
ac hes
Ġstart ing
Ġder ived
Ġint ended
Ġ199 7
Ġloc ation
Ġprofess ional
Ġp le
Ġf iction
Ġfeature d
Ġb an
Ġst ories
m ark
w est
Ġem phas
Ġdefin ition
Ġter min
d a
Ġlet ters
Ġt able
ol a
Ġsh are
or ial
Ġd ip
Ġ199 6
Ġdec re
o ch
on ic
Ġbecom ing
Ġd ark
e e
Ġ2 9
Ġobject s
Ġsu pre
Ġfail ed
Ġrefer ence
Ġst one
Ġam b
Ġ18 1
Ġt v
Ġfrequ ently
Ġl y
Ġcre ation
r ich
Ġj ur
Ġpres ence
bo th
Ġd aughter
ip s
Ġactiv ities
d p
i j
Ġb ond
cl us
Ġcomp osed
Ġinstit ute
Ġmanag ement
ed y
Ġf ace
Ġ Ã
Ġl in
Ġsp l
Ġext ra
se y
Ġdou ble
Ġlaun ched
Ġf ul
und red
Ġoce an
est ic
Ġchampions hip
Ġlou is
Ġc as
ol it
Ġport ug
Ġprov ince
Ġgu ard
Ġm c
Ġm ale
Ġre ve
Ġcont ent
Ġcont act
Ġw ild
Ġk ar
Ġnor mal
t ical
u k
Ġcon qu
ib ly
Ġdes pite
Ġext ended
Ġf ix
Ġdep end
Ġc ab
Ġas pect
Ġann ual
h i
Ġrespons ible
Ġb urn
Ġindividual s
Ġfest ival
Ġg ram
Ġdec ision
Ġpr ince
Ġco al
Ġincor por
u it
Ġwe ight
b ed
Ġj ul
Ġim age
Ġcele br
Ġb omb
ot ic
Ġfri ends
Ġjour nal
g ing
ru pt
Ġev olution
Ġremain ing
Ġtra ck
Ġpos itive
b ra
Ġmed ic
Ġt un
Ġpol ish
Ġsh o
Ġ199 1
Ġspe ech
Ġp hen
Ġh ab
ct ors
Ġbro wn
ste in
Ġopp osition
Ġide as
Ġagre ed
Ġdise ase
Ġarm ed
Ġcour se
Ġw ave
Ġatt rib
ens ity
Ġimp act
Ġintern al
Ġcal cul
ĠÂ °
Ġv an
Ġf al
Ġf air
Ġexist ence
Ġn ine
Ġ199 4
bo ard
er ia
Ġrepresent ed
thes is
h old
Ġmo s
Ġcons ists
ens us
Ġp ict
Ġh undred
Ġteam s
Ġcrit ical
Ġp urch
m od
Ġf el
Ġal ph
Ġvir t
m y
Ġpr ison
Ġapplic ations
ed ic
om y
Ġmagaz ine
Ġris k
c hest
k en
Ġnecess ary
Ġliber al
Ġdut ch
Ġconflic t
Ġ199 5
Ġresult ed
ver se
Ġb ri
Ġcomb ined
Ġinstr ument
Ġwin ter
Ġfreed om
Ġsign al
â Ģ
ent ed
g al
Ġr ang
Ġfa ith
Ġsc ot
Ġt a
Ġident ified
Ġrich ard
Ġ199 2
Ġsymb ol
Ġaltern ative
g ar
Ġbr ing
Ġmaterial s
er ve
Ġv oc
Ġsp orts
Ġim pl
h ar
Ġrespect ively
Ġdistrib ution
Ġ id
el es
Ġpa ir
thod ox
Ġachie ve
Ġquick ly
l ight
Ġre tain
Ġcon ne
in ian
Ġm om
Ġth r
Ġu t
Ġpol and
Ġexp ansion
Ġcontin ue
Ġhum ans
Ġneg ative
m at
Å į
Ġex hib
tern al
b a
ak istan
Ġfr ame
Ġdist ingu
Ġlegis l
Ġvol ume
Ġcurrent ly
Ġcust om
i en
Ġm ir
Ġeff orts
Ġoffer ed
Ġf uel
Ġn az
Ġcomp ar
Ġst aff
Ġopp osed
Ġearli est
Ġnor m
ent h
Ġc up
Ġ ice
ru cted
Ġstud ent
Ġiss ued
Ġinte gr
Ġcom ment
Ġed ition
Ġth ings
Ġoccur red
Ġin hab
u a
Ġb ab
Ġhe ro
Ġir ish
Ġmod els
Ġho ly
Ġweap ons
e xt
enc ies
se ver
Ġinte g
Ġre action
Ġpresident ial
Ġexam ples
y ond
Ġk m
Ġfield s
Ġat om
Ġdig ital
2 1
Ġsc ott
Ġgreat est
Ġclaim s
Ġgu it
Ġast ron
Ġsc reen
Ġpresent ed
Ġprote ction
v ille
Ġno b
Ġturn ed
Ġexch ange
y th
Ġpurp ose
Ġrec over
Ġlib rary
Ġchann el
Ġcontem porary
Ġch am
Ġaff air
Ġ18 0
i ques
Ġc art
Ġfav or
Ġch ic
com p
Ġgrow ing
l ater
Ġh osp
Ġph ase
Ġex port
Ġdyn ast
Ġt end
Ġth omas
Ġv ary
z a
Ġro ll
Ġbo x
Ġinterp ret
Ġt akes
Ġcon clud
ic it
Ġeffect ive
Ġm ary
ic ted
Ġrequ est
r ison
Ġw anted
Ġst ock
Ġallow s
Ġc ra
ith m
ly mp
Ġvers ions
Ġfrequ ency
Ġpl ants
Ġact s
Ġdire cted
Ġcolle ct
a ctions
Ġar rang
Ġf at
Ġgener ation
Ġpac ific
Ġor ient
Ġun ique
Ġnot able
ress ed
Ġmount ain
Ġfig ure
Ġc ore
Ġact ually
Ġinc ome
r ate
Ġex pected
Ġequ ip
Ġbuild ings
1 9
Ġse ctor
ro ad
Ġjo int
Ġown ed
Ġcap ac
Ġf ast
Ġmot or
1 0
iz es
Ġold er
Ġvict ory
Ġconf ir
i ents
ve y
Ġinst ance
Ġdial ect
Ġo d
the ast
Ġir a
ag an
Ġcre w
Ġfl o
Ġad j
Ġper man
Ġ199 3
Ġor thodox
Ġmeet ing
Ġin j
Ġcol d
Ġo lymp
Ġd ro
ig en
ie val
Ġent ered
Ġmot ion
Ġs in
or ph
Ġun if
Ġsold iers
Ġdom estic
Ġd ie
Ġchar ge
Ġspec if
Ġm and
Ġwe b
Ġ198 9
Ġlim it
l ig
um n
Ġdefe ated
il s
Ġrepublic an
im al
Ġattack s
Ġp it
Ġm aster
Ġlab our
Ġrepl ace
sever al
w in
Ġadv ant
Ġbelie ve
Ġacadem y
im in
ord in
Ġaustral ian
ill ed
b re
Ġp akistan
Ġpre fer
Ġre act
Ġo tt
ak er
Ġcl osed
Ġorder ed
Ġcol umb
ate ly
Ġallow ing
Ġc ro
Ġw ays
Ġpar al
Ġcommun ist
Ġvir gin
Ġn ic
the ir
ell ed
Ġengine ering
Ġregard ed
Ġg ard
Ġbe yond
Ġjust ice
Ġvict or
Ġb ad
Ġch ron
Ġfin ally
Ġsequ ence
Ġser ious
Ġequip ment
Ġcon ference
Ġshow ed
Ġbehav ior
Ġform ation
Ġ194 0
Ġsecret ary
Ġequival ent
Ġsu c
Ġgo al
tw o
an o
Ġj ose
Ġro ugh
Ġcontro lled
Ġhon or
an i
Ġg ir
wor ks
Ġs and
Ġobser ved
Ġpr on
Ġhelp ed
s m
os is
augh t
Ġmo on
Ġcan adian
Ġart ists
Ġsupre me
Ġspe aking
Ġexpress ed
Ġsh ot
8 0
Ġsp ent
Ġste el
Ġident ity
Ġfranc is
Ġb ol
Ġas ked
Ġgiv ing
Ġexec utive
Ġd ub
Ġtheat re
f ect
Ġw it
Ġ193 0
Ġp u
Ġg ain
Ġre ign
cept ion
Ġpower ful
Ġsol ar
b and
a res
Ġcon c
ceed ed
Ġnot es
Ġser ve
Ġfoc us
w ar
Ġpe ter
Ġanim al
Ġappear ance
Ġ17 9
Ġbr anch
Ġrecogn ized
Ġresour ces
âĢ Ļ
al so
Ġenc oura
Ġsh ar
Ġful ly
Ġan th
Ġ3 2
Ġ192 0
Ġfund ament
Ġto ld
Ġg h
Ġset s
Ġg ained
Ġalg or
Ġcontain ing
Ġstruct ures
Ġrec omm
Ġmed ieval
t r
Ġnew sp
Ġunivers al
Ġmexic o
Ġsl ight
Ġmark ed
y d
Ġl ie
ok e
Ġcommun ities
Ġd an
ra cy
z il
Ġmat ch
Ġfact ors
ig ration
Ġbri ef
Ġat m
on ia
the less
m ers
Ġque en
Ġint el
it a
c op
Ġval ley
Ġhy po
Ġtechn iques
s im
Ġfl ag
Ġl uc
ur ches
p ed
Ġsupp ly
th at
ri er
Ġpl aces
Ġadv anced
Ġapplic ation
Ġl ith
Ġg all
Ġcl os
Ġr ain
Ġmo ving
Ġgre w
Ġ3 5
Ġstandard s
Ġfollow s
Ġfamil ies
Ġbel ong
am ing
us al
Ġv iet
Ġdynast y
Ġconn ected
Ġ vel
it able
all ed
Ġoccur s
Ġcat al
Ġresist ance
l om
im ents
ort un
Ġref used
Ġfact or
g ment
is ters
Ġch urches
f r
Ġt ree
ent ially
ag ing
Ġtw ent
Ġdec ades
Ġcon sequ
qu ar
Ġsitu ation
Ġa ctions
Ġc rown
Ġpr ice
he t
Ġle aving
Ġameric ans
Ġfound ation
Ġhe at
Ġwe alth
Ġpromin ent
Ġnuc le
ut ation
Ġplay s
Ġcr is
Ġze al
Ġinsp ired
Ġref ers
Ġguit ar
Ġb ird
or al
ter y
Ġsil ver
Ġbow l
an y
cl aim
Ġdesc ript
Ġw ing
Ġoffic ially
Ġcompet ition
Ġaward ed
a rent
Ġs ays
Ġl ad
Ġdem and
e es
od y
Ġha w
e ach
Ġd og
Ġqu al
Ġwrit er
Ġ7 0
s hip
Ġar ms
Ġus er
Ġwin ning
Ġg a
Ġr ay
Ġr ates
Ġins ide
Ġremo ved
Ġpl anned
Ġsm ith
Ġneg ot
Ġdestroy ed
en ing
Ġd na
Ġwith d
Ġun iverse
Ġt ub
Ġdiffer ences
Ġtur k
Ġquar ter
Ġv es
Ġex act
Ġdiffer ence
Ġexist ing
Ġjes us
and on
Ġbo y
Ġwrit e
Ġcond ition
Ġislam ic
ver t
Ġspl it
k er
Ġthe r
Ġs av
Ġcy cle
Ġaf gh
Ġimmediate ly
m as
Ġmon arch
ograph ic
Ġexp anded
Ġpolit ics
Ġepis ode
w rit
Ġbe ll
Ġse em
Ġsubsequ ently
Ġspok en
Ġet c
u ters
Ġcry st
g u
on a
Ġst ations
Ġworld wide
Ġen em
Ġse at
Ġco oper
s ch
Ġr ing
Ġ9 0
Ġcomplete ly
Ġbr idge
Ġredu ce
Ġ !
Ġg ives
og en
unic ip
o e
Ġviet n
Ġout put
s s
Ġt ell
Ġa id
Ġse arch
Ġsp ort
Ġdo ctor
Ġav oid
Ġrail way
i ations
Ġacc ur
Ġox y
Ġcom es
Ġr and
Ġme ant
Ġpre p
Ġsay ing
Ġinstit utions
Ġprincip le
v a
Ġ ign
ic ial
Ġre ach
Ġst or
Ġvo ice
Ġatm osp
c ol
Ġsp ring
c ar
or ation
Ġin he
Ġz ero
Ġp ure
Ġar rest
ens ions
Ġinf in
g l
Ġsol ution
Ġcomb at
Ġlaun ch
et t
Ġwind ows
Ġapp arent
Ġdev ices
Ġfig ures
Ġbe at
Ġphen omen
p art
Ġm it
Ġintellig ence
an cy
Ġh us
Ġl os
Ġdeli ver
g s
Ġsol id
Ġmy th
Ġor bit
iet ies
Ġorgan izations
Ġgrad u
l av
r d
v in
Ġfif th
Ġr an
Ġinter view
Ġpol l
Ġsu d
Ġopen ing
Ġarchitect ure
Ġex c
Ġeff ort
Ġimport ance
z z
il ed
Ġc os
Ġra ised
Ġf it
Ġmention ed
Ġwee ks
6 0
ir ing
Ġsc ene
m ad
Ġsever e
Ġm unicip
Ġcont ext
Ġrank ed
est s
Ġ198 6
Ġchic ago
u ro
ul ate
Ġarri ved
m o
ce ll
Ġprop os
n d
Ġpro ved
Ġpl ans
Ġpe ak
Ġatt ention
Ġdev ice
Ġterrit ories
Ġs ought
Ġsh ap
Ġinv asion
Ġplan et
Ġincreasing ly
Ġdeterm ined
Ġad ult
Ġsome thing
Ġsubsequ ent
2 5
Ġber lin
in ces
Ġdou b
Ġfle et
i as
Ġfe el
Ġsa x
ad ium
i ke
Ġmon t
Ġcreat ing
Ġanc est
m ic
ill a
Ġca uses
and a
Ġch air
in du
Ġad m
Ġgo ing
pp ing
Ġelectron ic
Ġrec ently
Ġst ay
Ġconserv ative
er a
Ġad vent
Ġke pt
Ġhe re
Ġafgh an
Ġcer em
Ġdri ve
Ġw ear
Ġv ice
Ġdescrib es
Ġachie ved
Ġfix ed
Ġbra zil
Ġparal le
Ġzeal and
w an
Ġdisc ip
Ġauth ors
Ġhydro gen
Ġli qu
Ġmich ael
h aps
ic ed
Ġtra ff
du e
ap h
Ġsub s
Ġs ail
Ġ5 00
Ġpal est
Ġcondu cted
Ġscot land
Ġwrit ers
Ġphys ics
Ġcris is
or ter
ag on
Ġoffic ers
Ġspecif ically
Ġs ites
Ġ198 7
Ġaff ect
Ġmount ains
f urther
Ġanal y
man n
Ġdevelop ing
Ġresp ond
Ġsubst ant
Ġmom ent
am ong
for ce
Ġover all
Ġline ar
g on
s a
Ġd ensity
kn own
Ġbish op
g ian
Ġal le
Ġleaders hip
Ġab andon
Ġprogram ming
Ġd edic
Ġl ingu
Ġcapac ity
l ines
s en
ear ly
Ġ198 4
Ġext ensive
Ġoper a
Ġjose ph
um in
Ġact ual
Ġattempt ed
Ġcolon ial
Ġunderstand ing
b l
Ġd ar
Ġal t
Ġcomb ination
Ġmole c
Ġliter ary
Ġsettle ment
Ġwe ak
Ġrequ ires
Ġgra v
Ġalex ander
Ġon es
wh at
Ġsignificant ly
i h
Ġal one
Ġhe ight
Ġpolic ies
Ġcho ice
Ġadv oc
Ġreject ed
i ber
ac ing
Ġmagn etic
Ġcompon ents
Ġtri ed
Ġref le
Ġposs ibly
Ġnot ably
Ġspe ct
Ġop in
Ġattempt s
Ġenvironment al
Ġk il
Ġold est
Ġproject s
Ġj un
Ġ197 5
Ġw ides
der ed
Ġcr ime
Ġf olk
Ġ198 2
Ġrul ed
Ġro om
Ġstud io
Ġan ne
ot y
Ġto ward
con s
Ġpa id
Ġref lect
Ġcoll abor
oc ks
il it
Ġpro ced
Ġus ers
Ġpr ay
Ġgr anted
Ġ194 5
Ġfundament al
d own
l ies
re l
Ġ197 9
Ġdescrib e
Ġview s
Ġgl ass
rug g
Ġmix ed
am in
Ġdec ade
3 0
Ġa wards
Ġo h
Ġorgan ized
Ġsc en
Ġtem ple
v ant
Ġs ir
Ġs we
Ġbr and
Ġdo ctr
Ġpos itions
Ġstr ing
Ġadvant age
Ġacc omp
Ġira q
in ter
Ġle ave
Ġown ers
Ġpri ze
Ġprot oc
t ra
ur ation
igh ter
Ġ198 5
v i
Ġbod ies
Ġsh ared
p read
Ġag g
Ġsuggest s
Ġsc hem
ord ers
Ġsecond ary
Ġocc asion
Ġkore a
Ġcorre ct
Ġdip lom
Ġsh ape
Ġclass es
Ġdr um
Ġpro port
Ġdiscover y
Ġsen ate
Ġoccup ied
Ġsim pl
Ġcommunic ation
e ed
Ġa th
Ġter ror
Ġcondu ct
Ġinstr uments
hist or
in st
Ġto m
Ġprocess es
1 1
Ġl ives
Ġ198 8
Ġ6 4
Ġ196 8
u le
Ġnot e
Ġconst ructed
Ġland s
Ġplat form
r id
Ġbr on
Ġoxy gen
l is
Ġis ol
Ġst rugg
a ult
Ġ ion
Ġthe ories
Ġch ance
f in
Ã ¨
Ġtechn ical
Ġnav al
Ġb a
ues e
Ġtex ts
Ġaffair s
Ġatl antic
Ġfor ward
Ġcon vers
Ġobtain ed
Ġfel t
Ġd ang
Ġex ternal
Ġag es
Ġz one
Ġoper ated
Ġofficial s
Ġjur is
ill s
Ġheav ily
Ġda ily
Ġmov ie
th rough
Ġbecom es
r as
Ġre asons
Ġtown s
Ġdam age
Ġsus p
Ġwides pread
Ġpublic ation
t ime
Ġg dp
Ġ197 6
Ġgold en
Ġperman ent
Ġw r
Ġf ear
Ġstud ied
Ġpartic les
Ġlist ed
Ġf res
Ġm erg
Ġre ven
Ġy our
k es
Ġs ides
Ġd ance
og ue
Ġuse ful
Ġfail ure
Ġmax imum
Ġfight ing
w ater
Ġcod ice
Ġmob ile
c her
m iss
Ġslight ly
d ing
if ying
Ġform at
Ġphilos op
Ġn it
Ġcomp r
Ġbra in
Ġmathemat ics
Ġinf ant
Ġcapt ured
Ġcirc um
et y
Ġco ol
ed s
te en
Ġprodu cing
Ġhosp ital
ot a
Ġcour ts
Ġrad iation
al a
cl usion
Ġchrist ians
k ins
Ġal co
Ġpro hib
og rap
Ġ198 3
Ġgood s
Ġc el
Ġdet ect
Ġsuff ered
Ġcr im
Ġrece ive
Ġcrit ics
Ġeas ily
bo ok
ipp ed
est ed
Ġam end
Ġsuff icient
Ġm ap
Ġr ab
Ġind ex
Ġcover ed
cul es
b ar
re c
iv en
Ġr ub
Ġwhere as
Ġed ward
Ġstr ateg
Ġcontain ed
er ved
Ġd ry
Ġpr int
Ġstat ement
ig er
Ġstreng th
Ġn ick
Ġ197 8
al ing
Ġar ist
Ġrun s
Ġtex as
f are
Ġfl at
Ġel se
Ġabs or
Ġ4 5
Ġopp ortun
j oy
Ġb apt
Ġvill age
ad s
Ġexpress ion
Ġviol ence
Ġcompound s
n or
Ġ198 1
Ġ197 2
az z
Ġquant um
t ion
Ġdef ence
Ġrev ol
Ġtyp ical
Ġportug uese
Ġro ute
Ġpart ners
ell ow
Ġ197 4
Ġdep ending
Ġsal es
Ġin put
Ġv ow
Ġchristian ity
Ġclose ly
Ġch ain
Ġres idents
Ġreport s
Ġauthor ities
su ch
Ġf ile
ian a
Ġpa rents
Ġimpro ved
e ign
Ġ197 3
Ġdeter min
Ġsn ow
Ġrough ly
a per
l ers
u ff
Ã ¤
Ġs ant
Ġâ Ī
Ġreg ister
w s
ic ian
Ġatt ra
Ġcamp us
Ġintrodu ction
Ġinvol ve
n on
Ġb ass
olog ies
i ro
Ġc in
al i
Ġco ordin
Ġaff ected
Ġprincip les
Ġrepe ated
f e
at o
Ġfin ished
at ically
so ft
Ġvis it
Ġspirit ual
Ġs le
Ġv on
Ġc ensus
Ġve ctor
jo hn
Ġagricult ural
Ġhous es
Ġ196 7
Ġentire ly
h um
Ġs over
Ġl as
Ġenter tain
Ġsover eign
b et
s w
Ġatt ended
Ġ196 9
Ġhand s
Ġtri al
Ġpopular ity
Ġun d
Ġ3 00
Ġhistor ian
d on
ad ing
Ġst adium
se e
os ph
il i
ol es
ra w
Ġch art
Ġprov iding
Ġinflu ential
Ġpract ices
Ġcorpor ation
Ġse ats
ruct ure
Ġsat ell
Ġmaintain ed
Ġacadem ic
Ġa z
com m
igen ous
Ġco ok
Ġcirc uit
Ġemerg ed
g ers
Ġcons c
Ġmed ium
Ġart ist
Ġang eles
Ġdecl ine
Ġregard ing
ri f
ord s
Ġequ ation
Ġcontinu ous
Ġp age
Ġr am
Ġle e
Ġset ting
Ġ197 1
Ġvis ual
Ġscient ists
Ġw el
ro l
ony m
Ġne ther
Ġoffic er
Ġtemper atures
Ġper haps
Ġhead quar
Ġs ister
Ġun known
e qu
Ġ ?
he im
al u
ce ived
Ġall iance
Ġmedic ine
ad o
Ġr ic
Ġpo em
Ġmart in
Ġb act
Ġcar ol
Ġro se
Ġrec ording
Ġtrad itions
Ġcommand er
st one
Ġdefe at
Ġe ld
Ġex clus
Ġcomp uters
Ġres olution
r ates
Ġs lo
Ġr ural
os en
Ġvis ited
Ġabs ol
Ġn as
Ġg ro
Ġch rom
Ġtrans lation
Ġpers ian
Ġprofess or
Ġaud ience
r ations
Ġt u
Ġb ott
Ġappro ved
Ġsem i
Ġpie ce
en ger
an z
ĠâĢ ľ
Ġmin utes
Ġpeop les
Ġopp on
is f
Ġb ce
Ġca using
Ġcandid ate
Ġv ac
ition ally
Ġag o
Ġpat ri
Ġpal ace
Ġemploy ed
Ġport ray
Ġmanag ed
e ven
Ġ17 7
Ġextreme ly
Ġaspect s
Ġn ap
Ġveh icles
Ġp enn
Ġm es
Ġr ivers
Ġgr ant
Ġparalle l
Ġinhab it
Ġadminist rative
Ġs om
Ġpro s
Ġen joy
4 0
ess ion
Ġneigh bor
Ġthous ands
m ans
Ġa the
Ġpop ulations
Ġs ell
Ġm am
Ġhe b
Ġmin istry
Ġill ust
Ġb bc
Ġm r
Ġinter pre
Ġag ency
n y
Ġc u
Ġb on
Ġas h
Ġott oman
Ġqu ite
Ġcast le
Ġlear ning
Ġacqu ired
Ġp ul
Ġno thing
Ġinstit ution
Ġtraff ic
i at
i enced
Ġb ind
ad or
Ġjuris d
ion e
Ġdyn am
Ġnether lands
ren ce
Ġsett led
Ġg ot
Ġsc ore
Ġnew ly
Ġpol ar
Ġdeb ate
k h
Ġv otes
Ġdedic ated
Ġh our
Ġpain t
Ġtrib es
Ġult imately
Ġaccomp an
b ury
Ġso le
Ġconf eder
ze ch
1 2
Ġt on
ish ing
sel s
Ġ196 6
Ġsk in
Ġnet works
e ff
or ing
Ġind igenous
Ġpre ced
Ġpurp oses
o o
Ġs ab
Ġp ick
ou red
Ġhe ll
Ġch osen
Ġcor ps
Ġas ian
un t
Ġhor se
Ġth ir
Ġsu st
Ġsp in
Ġ ip
re es
Ġcom ing
Ġgovern ments
Ġrat io
Ġreve aled
Ġconne ction
Ġed itor
Ġr ival
Ġapp le
Ġlab el
Ġmeas ures
Ġsurround ing
Ġcham ber
Ġex erc
Ġrest rict
Ġcontrib uted
Ġw id
Ġk en
Ġpl ate
Ġus age
Ġap art
Ġeng ines
Ġgreat ly
k in
Ġc av
ur t
Ġse vent
Ġfir m
Ġgree ce
il ing
b es
Ġarg ument
Ġal ge
Ġim ages
Ġconstitution al
Ġpen ins
rap y
Ġsaf ety
r im
Ġdu ke
Ġ3 3
ak h
Ġcl o
olog ist
Ġide al
r ane
Ġk ings
Ġj ac
Ġtit led
Ġdeterm ine
Ġconclud ed
Ġto uch
Ġar c
Ġcor n
Ġread ing
Ġveh icle
n i
Ġf ant
Ġpl ane
Ġge omet
Ġtechn ique
Ġaut on
Ġord ers
igr ants
ing er
st ream
ĠÂ £
Ġpoet ry
Ġconfir med
Ġ196 5
Ġtheore m
Ġcrim inal
ic on
Ġst able
ian ts
Ġarch ae
Ġsuc ceeded
d i
Ġtrans ition
Ġ197 7
Ġ17 8
Ġmathemat ical
o on
Ġmar ine
Ġcontin ues
Ġcritic ism
Ġmod e
Ġexpl ain
Ġt ai
Ġhistor ians
Ġnaz i
Ġliqu id
v is
Ġ Ï
Ġl es
act ive
Ġbrother s
Ġintel lect
ri e
Ġad vert
m i
Ġ ille
Ġm ort
Ġun like
Ġse lect
Ġre ality
Ġsc iences
Ġabsol ute
x ual
Ġun able
Ġinvest ment
Ġlay er
Ġestablish ment
Ġchall eng
Ġp c
Ġf u
ict ions
Ġaccount s
Ġsele cted
Ġc d
Ġelect ro
Ġlink ed
Ġm erc
ri x
Ġele v
Ġneed s
Ġisrael i
Ġlith u
h ouse
Ġ193 9
ab eth
Ġy ellow
og y
Ġim ag
Ġopp os
itz er
id a
ac he
Ġab d
Ġother wise
Ġfe at
u x
Ġf ru
pl ay
Ġ3 8
olog ists
Ġvirgin ia
Ġc zech
Ġcy cl
Ġa er
op le
Ġexp ed
Ġshe ll
Ġnar row
Ġrapid ly
ici ency
Ġinterpret ation
Ġal bert
Ġexper ienced
Ġband s
Ġdomin ated
Ġprincip al
Ġagricult ure
ore n
Ġgen etic
Ġdef end
Ġ15 0
k et
is p
Ġab ol
Ġ196 3
Ġadv ance
Ġnear by
Ġ3 6
Ġcap able
o is
Ġs ie
Ġtr ust
Ġb ible
Ġhistor ic
Ġexcept ion
Ġtru th
re te
Ġph r
Ġ196 2
Ġstrong ly
Ġbud get
sim ilar
h r
in ity
Ġd oll
olit an
Ġunif orm
d o
j a
ur a
Ġpie ces
Ġinf rast
Ġbro ke
be fore
Ġrese arc
Ġb ed
Ġb ah
Ġfe ed
Ġsur vey
Ġprote in
Ġarab ic
en a
Ġe g
Ġunivers ities
Ġve get
Ġconsider able
Ġsaf e
Ġd iet
Ġun c
Ġkn ight
Ġrepresent atives
Ġh indu
ot ion
Ġprocess ing
Ġmor al
Ġcolumb ia
t es
Ġtw el
Ġed ge
Ġext ent
as y
Ġk u
Ġser ving
it arian
Ġman ner
Ġel imin
kn ow
p ir
or ters
Ġan ton
Ġr ig
Ġgre g
Ġstand ing
Ġhold s
on ian
Ġc ards
Ġcom edy
Ġcan cer
Ġtw ice
Ġ196 4
Ġbat t
Ġmove ments
Ġswed en
or gan
Ġu til
Ġon line
Ġdesign s
Ġperiod s
Ġdomin ant
Ġact ing
cont in
Ġatom ic
Ġcol ony
Ġwrit ings
Ġuk ra
Ġess ential
Ġp y
ol lo
Ġsh all
2 4
mod ern
Ġl un
Ġas c
Ġwh y
Ġprov inces
Ġ194 8
Ġdr ink
Ġvel oc
p at
el and
Ġte aching
iss ance
Ġconsist ing
an es
Ġatt end
Ġdecl ined
Ġmeas ured
Ġtwent y
1 5
Ġst an
th ur
Ġte ac
ph one
Ġreg ime
Ġinterest s
Ġpenins ula
ce ler
Ġprodu cer
gr ad
Ġcateg ory
Ġex ists
Ġir an
Ġrecogn ition
Ġr us
Ġor chest
Ġex pect
Ġmet rop
Ġinn ov
Ġf ash
Ġy ield
Ġmer ch
Ġinhabit ants
re y
Ġall ies
Ġrel ation
id ers
usal em
1 6
Ġbe ar
Ġjo in
Ġdeg rees
1 8
n at
Ġv ul
Ġcomp osition
Ġport ion
Ġcapt ain
Ġprotest ant
Ġey e
Ġcab inet
p es
z o
Ġt ail
Ġpract ical
Ġw ant
Ġab st
cer tain
Ġrepresent ation
Ġcompon ent
Ġvietn am
Ġsou theast
Ġfoc used
je ction
Å Ĥ
Ġtre es
Ġlog ic
Ġstra ight
Ġmess age
Ġheb rew
Ġt ren
ch ing
Ġcomp l
Ġsc and
Ġpub lish
Ġtra in
1 4
Ġs ar
Ġcom ic
Ġwal es
Ġcorrespond ing
Ġinfrast ructure
Ġd ivers
Ġrepres ents
y an
Ġt aught
ant ine
Ġval id
Ġcoal ition
Ġmult i
Ġo l
rom e
Ġse ems
Ġcl a
Ġhold ing
Ġepis odes
Ġhus band
ar ia
Ġcar s
Ġmanufact uring
Ġen h
ful ly
Ġincre ases
Ġhouse hold
Ġtradition ally
Ġgrad ually
h o
Ġw is
ro g
Ġto ols
Ġconst ruct
Ġsupport ing
Ġappro pri
Ġren amed
Ġfac ilities
or der
st ood
Ġmass ive
Ġview ed
Ġprote ins
Ġjer usalem
bet ween
7 0
Ġc row
Ġin ner
Ġto wer
Ġall ied
rane an
Ġte ach
Ġcharacter istics
Ġscott ish
Ġ #
Ġsl aves
Ġdra wn
Ġenc oun
in y
Ġper fect
Ġman us
Ġtest ing
Ġappo int
Ġvari able
Ġmole cules
Ġpl ot
Ġac celer
na issance
Ġden omin
Ġyoun ger
Ġd ates
Ġ3 4
Ġsepar ated
Ġcost s
Ġoppos ite
f all
Ġcall s
Ġeffect ively
Ġoper ate
Ġbase ball
Ġconsc ious
in ations
Ġst rict
Ġhe rit
Ġv ast
Ġph on
Ġel iz
Ġinit i
Ġconcept s
Ġspeak ers
Ġfash ion
Ġpre par
Ġafghan istan
Ġev olved
Ġwe ather
Ġje an
Ġalge bra
i ar
an ium
Ġox ford
Ġsen ior
Ġb ure
Ġk id
os ure
Ġcl im
Ġsc ul
Ġcult ures
Ġopin ion
5 00
Ġs ort
Ġb om
Ġd ream
ur g
Ġcan on
Ġbr anc
Ġtrans mission
Ġclass ified
Ġaust ria
ce l
Ġat oms
Ġdecl ar
Ġalgor ithm
Ġp ed
Ġassum ed
Ġb anks
Ġclass ic
Ġleg end
Ġhar m
Ġalong side
Ġt ank
Ġst al
Ġalle ged
Ġmanus cript
Ġsym pt
Ġmur der
ly wood
ur ally
ig an
Ġdemoc racy
Ġmach ines
Ġindic ate
Ġsele ction
Ġinhe rit
Ġheadquar ters
Ġbe aut
Ġde ploy
Ġdoctr ine
it led
Ġgen der
Ġphil ipp
Ġprotoc ol
t z
Ġn a
Ġpro of
Ġart icles
Ġref uge
Ġst ore
Ġder iv
Ġrecon st
Ġmunicip al
i able
Ġf ame
Ġthous and
Ġatmosp here
Ġl ies
Ġform ally
Ġhy per
c ome
Ġgener ated
Ġexp and
Ġ194 4
Ġexpl os
Ġdoc uments
Ġsuccessful ly
Ġcommunic ations
Ġfal se
Ġgen re
we alth
Ġback ground
Ġcin em
Ġr it
Ġrevolution ary
ant ly
hip s
Ġm ental
Ġro les
Ġmar sh
Ġattack ed
iter ranean
Ġtrad ing
Ġcirc le
Ġegypt ian
Ġincorpor ated
k o
Ġm ist
Ġre in
Ġjo b
Ġexper iments
go ing
Ġconver ted
Ġelectr ons
Ġattrib uted
Ġ *
Ġf ought
ang el
Ġend ing
Ġtit les
ist ed
ud es
Ġsl ave
Ġroad s
Ġrand om
m es
Ġs ed
Ġn fl
Ġal leg
ik i
Ġexpl ained
Ġsk y
Ġyou th
Ġdiv ine
Ġhung ary
Ġnorm ally
Ġm ere
Ġde leg
Ġgen e
Ġmed iterranean
Ġcoast al
Ġdro pped
Ġal f
Ġj im
Ġass ass
Ġfl or
Ġrom ans
Ġ7 5
im s
ag u
Ġfin ite
Ġsl a
Ġfrancis co
Ġd at
ren cy
Ġfr anch
Ġber n
Ġstor age
t ar
Ġsh if
ĠâĢ Ŀ
Ġexpl icit
Ġdom ain
Ġelectr ical
Ġamend ment
Ġd in
Ġby z
ak ers
Ġstr ate
Ġdi agn
Ġkore an
Ġconcent ration
Ġscul pt
Ġre new
Ġmin imum
Ġwall s
Ġdescript ion
Ġw ire
Ġb ib
Ġman if
Ġ4 00
Ġconcer t
Ġschol ar
Ġw olf
Ġph osph
Ġ196 1
Ġmod ified
Ġenem y
Ġsp aces
Ġpar ad
Ġfl ood
Ġhard ware
Ġabandon ed
t ure
Ġb os
Ġd rop
ame ter
Ġsw itch
Ġconcer ns
Ġswed ish
Ġalco hol
Ġw ed
Ġcommon wealth
Ġsocial ist
Ġox id
Ġro ot
Ġcan al
Ġunder stood
Ġminor ity
Ġintellect ual
e w
Ġo w
ou d
Ġst im
Ġind o
Ġcar l
Ġformer ly
Ġmanufact ur
comm unic
Ġacc used
Ġmanag er
Ġmechan ism
Ġax is
Ġf ine
Ġr i
Ġev alu
Ġstrate gy
Ġm ent
Ġext in
Ġcritic ized
Ġentertain ment
ed ia
Ġass igned
Ġ194 1
Ġt act
ab et
Ġer ror
Ġprop ag
Ġprom oted
ro ll
ens es
aw a
Ġsub mar
Ġ4 9
Ġsuccess or
Ġsuper ior
Ġfres h
Ġst ress
Ġwor th
ric ts
Ġtest s
Ġv ent
Ġass ess
Ġexist ed
Ġintegr ated
Ġastron om
Ġfeat uring
t i
Ġs ons
Ġam pl
Ġpartic le
Ġwat ers
Ġinfant ry
u ous
Ġc able
Ġun f
Ġind ones
Ġjohn son
1 3
Ġr ational
Ġle ct
Ġtr ig
Ġpr uss
ress ive
Ġvis ible
Ġmuslim s
l ar
m ond
Ġn one
ag en
Ġdep os
Ġcontin ental
Ġpass age
pect ive
Ġplan ning
Ġinfin ite
le ts
un like
Ġcont ra
hed ral
Ġdo ing
Ġinvol ves
Ġdistrib uted
Ġnewsp aper
p res
ou l
op p
Ġthem e
Ġdesc end
Ġdesign ated
Ġcr us
Ġtransl ated
ro gen
Ġ194 9
Ġwit ness
j an
Ġch lor
Ġgen es
Ġlow est
Ġhit ler
Ġtas k
w is
en h
Ġp ione
ic ians
Ġor b
ric s
Ġloc ations
Ġlo yal
t od
Ġc ogn
ian o
ru ctions
Ġso il
Ġpers ons
Ġinvol ving
Ġpred omin
Ġg ulf
Ġj azz
Ġform ing
Ġme at
Ġwe bs
Ġneut ral
claim ed
Ġherit age
un k
Ġ6 5
Ġaud io
Ġreb ell
Ġlabor atory
s k
ol n
Ġsh ut
Ġtransport ation
Ġc oc
Ġchrist mas
Ġsat isf
er ted
Ġw ine
Ġh at
oun der
Ġact or
Ġredu ction
Ġreform s
Ġdistin ction
Ġbelief s
Ġjack son
Ġt am
hen s
Ġ194 2
Ġvol t
Ġpain ting
Ġhost ed
m l
Ġa h
er ves
Ġw aves
Ġon to
Ġpro l
Ġcharacter ized
Ġjer sey
Ġo t
Ġsome what
Ġup d
Ġrep rodu
Ġdepend ent
Ġg am
Ġis ot
ur b
ig ation
Ġro d
Ġpict ure
Ġse asons
Ġsl av
Ġprec ise
Ġbranc hes
Ġm ong
ru ption
Ġap ollo
Ġpen al
se ll
Ġsh ift
Ġbo b
Ġs ult
Ġp ier
Ġn ut
ur rent
os h
ific ations
v ar
Ġf ried
Ġv ision
Ġrep utation
Ġmem orial
Ġadd ing
Ġsign als
Ġhar v
Ġlegis lation
Ġresearc hers
f ir
Ġg ross
Ġv oted
Ġne ither
ap se
Ġcommit ted
Ġto urn
Ġit ems
ab il
au g
Ġdes ert
um es
Ġne p
vel t
Ġeff icient
Ġarg ues
Ġche ck
Ġnovel s
Ġcolon ies
Ġeliz abeth
w ill
ic ks
ose velt
Ġac know
Ġrad ical
Ġje ff
Ġhor iz
Ġdrug s
2 2
Ġt enn
Ġs s
Ġpl us
Ġag ent
Ġsyn d
ham mad
Ġchem istry
pr ise
Ġflo or
r an
Ġl ot
om orph
ct s
Ġatt ract
Ġbr ig
Ġcal c
Ġmembers hip
Ġbi ological
Ġcandid ates
g n
Ġ3 9
bur gh
Ġs ke
ag er
ĠâĪ Ĵ
Ġsla very
p an
br idge
Ġex cess
ens ional
Ġamount s
cript ion
Ġhypo thesis
Ġnor way
Ġocc as
Ġexpl o
Ġimplement ed
Ġhun ting
Ġar bit
Ġgerman ic
Ġmetrop olitan
un c
em ic
Ġclass ification
Ġ194 7
Ġdel ay
Ġc ant
ul ed
Ġy ards
Ġmechan ical
Ġmicro soft
Ġm cc
Ġpro ceed
em ploy
Ġphil ip
Ġang le
Ġprep ared
8 6
c s
Ġs ample
id ay
Ġbr ight
Ġ3 7
Ġveloc ity
Ġc ow
Ġpart ly
Ġ195 6
Ġ195 8
Ġperson nel
Ġtwel ve
c al
iv als
Ġexpl an
m us
v ak
Ġth ing
ay a
Ġun us
Ġprom ote
Ġanal og
Ġens ure
Ġcontrovers y
Ġoccasion ally
Ġle ban
Ġquest ions
Ġcontrovers ial
Ġhe ard
Ġmat ters
Ġcou ple
g ia
Ġd ual
inc oln
Ġsty les
tod ay
ad el
Ġposs ibility
Ġath let
et ary
Ġfav our
Ġfell ow
Ġtransfer red
Ġcon sec
Ġha ir
Ġstri ke
Ġapp ly
Ġca es
Ġpattern s
Ġan arch
Ġre aching
Ġgo es
Ġkill ing
Ġsatell ite
r ons
or ig
ain e
Ġshort ly
Ġmagn itude
Ġdetail s
Ġsympt oms
Ġt iss
op l
Ġsp an
Ġger mans
Ġconcer ned
Ġtre ated
Ġsubject s
Ġadapt ed
Ġturk ish
p ass
ir a
Ġk ong
ac le
igh th
Ġro ots
j i
Ġs elling
Ġp ig
Ġf ans
Ġg rown
Ġr if
Ġrepresent ing
Ġtai wan
Ġin g
Ġap ost
Ġdeb t
Ġassist ance
ch y
av a
Ġinter ior
Ġorig ins
ik h
wor th
Ġbeg ins
Ġext ension
Ġserv es
Ġconf ig
Ġrelationship s
Ġ |
en na
Ġh an
id ency
Ġent ry
Ġcop ies
Ġwilliam s
add itionally
Ġshap ed
z y
Ġmin isters
Ġdist ricts
Ġfin land
i ac
Ġma h
Ġinc ident
Ġdec ay
Ġweap on
inst ead
g ments
Ġa qu
Ġv it
Ġadv is
Ġdeclar ation
t own
Ġo sc
Ġj ones
Ġbo ston
ose xual
Ġthr one
Ġsubstant ial
ound ed
Ġoff ers
Ġhundred s
y er
Ġwrit es
Ġlead s
Ġbott om
Ġre cept
id den
Ġmark ets
Ġperform ing
Ġlear ned
Ġlegisl ative
Ġd ol
ra in
Ġle aves
Ġcateg ories
Ġcred ited
Ġexperiment al
Ġadm ir
1 7
r us
Ġc p
Ġc ited
Ġf oss
est y
ult ane
Ġfo x
Ġp itch
Ġex clud
ak a
Ġfe et
Ġthem es
Ġfl av
Ġorigin ated
Ġer r
Ġdeath s
Ġaff il
Ġretain ed
Ġp ent
Ġth in
op es
Ġmar x
Ġshow ing
Ġpass ing
Ġprot ected
Ġsug ar
Ġfund s
Ġdri ven
Ġk a
Ġdef ine
Ġtour ism
Ġbo at
Ġsc hed
Ġanth rop
Ġdeliver ed
Ġrit ual
s ub
Ġa k
Ġs i
Ġb ang
Ġm outh
Ġy ard
Ġro w
Ġident ify
Ġ191 8
Ġdest ruction
Ġconsum ption
Ġjul ian
Ġf ounder
el a
Ġhe m
2 3
Ġf aced
as tern
Ġv oy
ans as
Ġcons ult
Ġchar ged
Ġmiss ile
Ġpil ot
re al
Ġr ice
Ġexp ensive
Ġdemonst rated
Ġt all
Ġ195 9
Ġd ating
ap pe
Ġcall ing
Ġalbum s
2 7
o ly
Ġb il
Ġh ub
Ġappe al
Ġnorth west
Ġchang ing
Ġredu cing
Ġcop per
Ġsurv ived
Ġb es
Ġmo sc
Ġrepresent ative
ograph ical
Ġperforman ces
ro se
ra v
Ġrec ru
Ġshe l
Ġcontro ll
Ġfem in
Ġgun s
Ġo uter
Ġf ly
Ġst ating
Ġr ising
Ġsupp orters
Ġpri est
Ġdiv isions
Ġgod s
Ġbird s
Ġc rop
ter ing
Ġtr y
Ġsou l
Ġcapt ure
Ġparliament ary
n et
Ġev il
Ġhol lywood
Ġexped ition
2 8
Ġt one
Ġt rop
Ġc ul
ab ilities
Ġen ab
Ġbehav i
Ġprefer red
on ly
Ġmar g
Ġser ver
Ġatt ached
Ġdistingu ished
Ġadj ust
Ġk o
eng ers
Ġclub s
Ġdialect s
Ġolymp ic
Ġsult an
Ġ il
an th
ut en
Ġ5 5
yl v
Ġconsist ed
Ġrequire ments
Ġwithd raw
Ġschem e
Ġb ag
it udes
Ġre actions
Ġmay or
Ġann ivers
Ġalex and
Ġch ose
Ġser b
Ġend s
Ġtri p
Ġh ay
Ġg ri
Ġst ages
Ġk in
Ġcomp at
Ġprodu ces
Ġvol can
Ġpray er
v o
w estern
Ġk it
Ġent itled
Ġconvent ional
Ġpun ish
Ġdim ensional
Ġm un
Ġille gal
Ġm m
Ġjo bs
Ġbro ken
Ġrece iving
oss ible
Ġtur key
Ġhen ce
Ġs ulf
Ġf ab
al f
Ġmin ing
Ġ194 3
Ġ195 7
Ġconstit u
Ġsymb ols
Ġscen es
2 6
2 9
g i
the tic
os a
Ġmal es
z en
id el
so le
Ġpr ices
rib ed
Ġfound ing
Ġsix th
Ġd un
Ġh orn
Ġtr ying
au c
Ġ4 4
b in
Ġ19 00
Ġinv ented
Ġ195 3
Ġrest ric
Ġprob ability
Ġhab it
Ġcircum st
Ġn an
Ġr um
Ġcl ar
Ġmet als
Ġhistor ically
Ġeduc ational
Ġnomin ated
Ġvoc al
r at
r ical
x ide
ol is
there fore
Ġsal t
Ġstrateg ic
on ce
ol ith
rom agn
Ġmar s
Ġwar m
Ġden mark
Ġoccup ation
Ġn oun
Ġhy p
Ġprogram me
Ġfeder ation
Ġbur ied
Ġindic ated
Ġcarry ing
Ġbeg un
Ġmosc ow
u ing
Ġh ier
ire ct
Ġacc ord
Ġsim ultane
Ġ194 6
Ġvari ations
Ġalph a
f ort
Ġf ro
un ction
ia h
Ġcomp lic
Ġcl ock
Ġob lig
Ġsound s
Ġlook ing
Ġcle an
Ġannivers ary
h an
Ġ4 8
Ġgu ar
Ġlong est
ros cop
Ġorgan ic
Ġpsych ology
Ġbound ary
Ġinvestig ation
Ġchair man
Ġd io
Ġbudd h
il ation
anc ing
Ġhead ed
Ġarg ent
Ġb in
om es
se ud
Ġpl ain
Ġsal v
Ġdi am
Ġt s
Ġres erve
Ġover se
Ġqu ad
Ġphilosoph ical
Ã³ n
Ġrare ly
Ġrefle cted
Ġbron ze
itzer land
on so
ul ating
Ġ4 3
Ġinf e
Ġrespons ibility
Ã §
Ġf lying
Ġcl in
Ġvar iation
Ġmain land
Ġdra ft
Ġchap ter
al y
iss ions
Ġarri val
s es
Ġd ict
ra c
ain ts
ud i
du le
ast s
Ġchar ges
Ġdep ression
Ġesc ape
Ġbenef it
Ġb inary
Ġnot ion
Ġcharacter istic
c ers
Ġun su
os lav
Ġper ceived
Ġcol our
Ġoff ices
Ġdep ends
Ġgo als
Ġemphas is
em e
Ġcl ust
Ġinter face
Ġbu ff
Ġfre der
Ġmor ph
h ire
er als
Ġsh r
Ġrem ark
Ġorgan isms
b ro
en ge
ol ar
Ġag ents
Ġ195 5
Ġlim its
Ġjud ge
Ġsym met
Ġgal ax
e y
Ġm ail
Ġth or
Ġdec isions
Ġelect oral
Ġjud a
Ġrecomm ended
Ġsle ep
l ife
Ġar thur
Ġeng aged
Ġcar ib
Ġpub lis
Ġoper ates
Ġfund ing
Ġd or
Ġto ol
Ġl en
et ime
Ġpr inted
Ġmiss ions
Ġanne x
Ġs ale
Ġb ac
Ġd iverse
Ġh ug
Ġe at
ist ical
Ġsupp osed
Ġinv ent
Ġcer t
Ġconcer n
Ġbal ance
Ġib m
Ġfant asy
d am
Ġ195 2
Ġord inary
Ġgir l
6 4
Ġh ur
Ġcon j
Ġk ir
Ġch a
Ġres ident
ok ed
Ġmin ute
Ġfl ed
Ġang lo
Ġcoll apse
in th
Ġh ope
Ġg ate
Ġtra cks
Ġindust ries
Ġsubs id
Ġaccompan ied
Ġbatt les
h ann
Ġt ons
Ġb id
Ġd anish
Ġwhe el
Ġear ned
Ġvar ies
Ġany thing
Ġprom pt
Ġsubst it
Ġstri p
Ġs od
il a
Ġtele phone
Ġident ical
Ġdisp ute
Ġthe ology
Ġf an
Ġl osing
Ġsu it
Ġdis miss
Ġest ate
Ġtax es
Ġdiscuss ed
Ġmolec ular
Ġf aster
st an
Ġpur s
Ġcontrib utions
Ġalph abet
Ġoh io
Ġopportun ity
Ġan at
st r
Ġhe ar
Ġ4 7
Ġsing er
Ġrail road
ylv ania
Ä «
Ġp ir
Ġh uge
Ġr ib
Ġr ug
Ġgod d
Ġsun day
Ġarrest ed
Ġa ri
Ġarm en
Ġhous ing
Ġhung arian
b ish
h us
Ġb orders
Ġrul er
Ġrock et
Ġwil son
r atic
Ġc ot
it ic
Ġro utes
b el
e enth
s is
v an
Ġst ret
Ġhe li
ins on
Ġarg ue
Ġcompos er
Ġcerem ony
m el
er b
Ġth ick
om ial
Ġst ro
Ġdiv or
Ġsqu ad
Ġencoura ged
Ġd ur
Ġd rew
Ġh ind
Ġg ib
ab ul
Ġres c
Ġli ver
Ġfunction al
Ġthe rapy
Ġp seud
Ġl incoln
Ġe ll
Ġann oun
Ġtre as
Ġcelebr ated
Ġphr ase
it o
em en
Ġdes ire
Ġmat rix
Ġcolle cted
Ġconsist ent
Ġnob el
Ġpropos al
Ġt ong
Ġag ree
ron t
Ġmil es
Ġland sc
Ġinflu ences
Ġevery thing
Ġb ot
Ġg n
Ġun employ
Ġcol umn
ne ver
Ġsur f
Ġorgan isation
Ġsee k
Ġdise ases
Ġey es
chest er
Ġre ally
Ġrec ip
Ġacc ident
Ġmem br
Ġgr an
Ġsec ure
Ġtri ang
Ġreturn ing
Ġrul ing
Ġlu ther
Ġstep hen
further more
Ġt anks
Ġp el
Ġg ang
Ġcur rency
Ġgo th
Ġpercent age
Ġkh an
Ġchall enge
Ġconvers ion
b u
Ġp ale
Ġun p
Ġla id
Ġphenomen on
ograp her
Ġinterpre ted
Å ¡
Ġf illed
ic ation
Ġfil es
Ġret ired
Ġtechn ologies
Ġlin ks
Ġt et
Ġpart ial
Ġinter vent
val ent
Ġfall s
Ġimm igrants
Ġcru c
Ġgard en
iven ess
Ġs ic
Ġs ight
Ġwor ship
Ġann ually
Ġestablish ing
Ġappropri ate
Ġacknow led
Ġrest aur
Ġ193 8
Ġ191 9
Ġrh yth
Ġelectric ity
fir st
Ġguar ant
ed ing
Ġland ing
Ġpass enger
Ġpat ients
Ġeas y
Ġcivil ian
Ġhot el
e le
Ġem pt
Ġimp ossible
Ġhar mon
with in
Ġadmin ister
Ġviol ent
Ġloss es
Ġcred it
Ġf ired
Ġd v
Ġl am
Ġre naissance
ct ic
ac ent
ab out
Ġwar fare
Ġpo ems
Ġdep ut
Ġmot iv
Ġdeb ut
Ġpurch ased
Ġbyz antine
Ġt ang
Ġp ear
il ton
Ġse ctions
Ġkn ew
Ġcar rier
Ġ193 3
Ġfar m
Ġmor ning
Ġdiplom atic
similar ly
Ġart ific
Ġrese mb
Ġmill enn
e k
Ġp in
Ġf is
Ġun s
Ġab und
Ġbo ys
Ġspe ctr
Ġtra ined
Ġmet aph
Ġregular ly
r ight
z er
im a
Ġcom ics
Ġk ent
ell a
Ġpres idency
Ġjuda ism
Ġs ah
or ous
pt ic
Ġpart ner
Ġlast ed
Ġemploy ment
Ġemploy ees
Ġpurch ase
Ġsust ain
Ġhoriz on
g ets
o ir
Ġan s
Ġpro sec
Ġk ick
Ġen force
con st
Ġac ids
Ġprov ision
Ġdep th
Ġ16 0
Ġpred e
Ġenc od
Ġimplement ation
g as
m ont
Ġa ven
Ġm i
Ġd ated
Ġg ather
ur ance
Ġst ored
Ġsw itzerland
Ġstat istics
Ġsepar ation
Ġsie ge
in er
Ġun certain
Ġsome one
Ġexp osure
Ġeff iciency
Ġcond em
Ġexec uted
Ġess entially
Ġb ull
Ġre vers
Ġal i
Ġrom antic
Ġrefer ences
Ġstep s
Ġtheore tical
Ġconqu est
Ġspectr um
i op
Ġp s
Ġv ik
Ġco ach
Ġoff ensive
Ġfin n
Ġsa ve
Ġfranch ise
Ġl ists
Ġcent ers
Ġvolt age
9 9
Ã ±
th ree
ex am
Ġcop y
Ġcooper ation
it t
Ġf asc
Ġl akes
Ġv oting
Ġinst all
Ġ195 4
Ġtest ament
Ġdetail ed
Ġreven ue
Ġp i
Ġd iver
Ġto ler
Ġpart ially
Ġbl ues
Ġequ ations
Ġleg it
Ġ12 0
Ġcro at
Ġpaint ings
ar ound
Ġto mb
are t
Ġcat hedral
Ġlu x
p et
Ġbe ach
ul es
ag ues
Ġcons on
Ġste ad
Ġmal ays
Ġground s
Ġsubst ance
Ġdut y
Ġdocument ary
Ġbond s
Ġjurisd iction
Ġcomm em
ph al
Ġunder ground
Ġca pe
Ġsoc ieties
Ġcos m
Ġgodd ess
8 5
Ġj ord
over ty
Ġinst alled
Ġimp rison
be an
Ġcult iv
Ġfem ales
Ġbind ing
Ġass ault
Ġsol utions
Ġnecess arily
Ġrac ial
h yd
Ġinst ruction
Ġmexic an
Ġclos er
Ġexact ly
Ġphilosop her
4 7
is er
ic ide
Ġrebell ion
m n
Ġl yn
ip el
Ġrel at
Ġsol o
Ġfrequ ent
Ġcommission ed
Ġprem i
Ġrang ing
Ġlad y
Ġcont est
Ġint ent
ative ly
Ġ193 6
ug oslav
Ġtro ub
Ġchamp ion
Ġchann els
Ġtub e
Ġvac u
r ant
Ġsy ll
Ġmain stream
Ġcover s
p ers
Ġthe od
Ġwas te
Ġsp ot
Ġappro val
Ġbar b
Ã¡ n
Ġcong reg
Ġcho ose
Ġspok e
Ġb anned
Ġd iction
Ġr ud
Ġmed al
Ġ9 5
Ġestim ates
Ġmechan ics
e en
h y
ic ate
Ġinterest ed
Ġclear ly
Ġpict ures
Ġstal in
Ġcircumst ances
Ġm ol
Ġg osp
Ġsuccess ion
Ġmag ic
Ġexec ution
Ġpap al
Ġframe work
Ġproport ion
Ġstrugg le
Ġeconom ics
Ġdescrib ing
Ġneigh bour
Ġbudd hist
Ġcryst al
never theless
o the
Ġb ru
Ġp overty
Ġv ic
un te
Ġarm ies
Ġmy ster
Ġsurv iving
Ġlic ens
Ġrestric ted
w all
ap ers
Ġmu hammad
Ġown er
Ġtem por
Ġstre am
Ġwal k
Ġrespond ed
Ġisol ated
c ope
Ġha z
Ġdec or
Ġpass engers
Ġpat ent
br id
Ġstruct ural
Ġdav is
Ġdut ies
Ġprogress ive
Ġowners hip
Ġattra cted
ad ow
Ġk al
Ġcomp act
Ġdep icted
Ġ17 6
Ġheav en
Ġib n
Ġbrief ly
Ġves sels
Ġsevent h
Ġfru it
Ġf ib
Ġin qu
Ġd y
Ġterrit orial
Ġrot ation
Ġexport s
olith ic
ar n
Ġem ot
Ġpar am
Ġ191 7
Ġrank ing
oty pe
3 5
9 0
Ġle on
Ġinf lation
Ġrest ored
Ġadapt ation
Ġforest s
Ġmich igan
Ġa e
Ġg or
Ġnot ation
Ġthere by
Ġmusic ians
yn am
stand ing
Ġcu is
l aw
Ġc ad
Ġf ict
Ġfac ilit
Ġsettle ments
m ble
à ¦
Ġ ere
Ġs oph
if ies
Ġsur ren
Ġcr imes
Ġbor row
Ġcomplex ity
Ġfac ult
Ġfind ing
Ġcou p
Ġprison ers
e z
re p
Ġle wis
ak ed
ĠâĢ Ļ
Ġpre v
Ġinst ructions
Ġpublic ly
Ġdiam ond
exam ples
d ed
Ġs end
Ġmet all
sh ire
wor ld
at i
om pl
Ġdis k
Ġdis order
Ġport s
Ġarrang ed
u its
ri um
Ġk y
if ul
Ġy ugoslav
Ġcomp ens
Ġcomp uting
Ġad am
Ġpr in
Ġacc ompl
Ġvar ieties
Ġexp osed
Ġgu ine
com mon
Ġsk ills
Ġsyn thesis
Ġrac ing
Ġdram a
Ġ Ã©
Ġpres erved
Ġbas in
Ġ192 9
Ġnap ole
g ue
ic y
end o
Ġnor we
Ġco ff
Ġent r
Ġcor ruption
Ġappro aches
Ġexper iences
Ġvol unte
Ġmor oc
Ġmount ed
Ġbig gest
Ġcompar ison
h ard
o en
Ġvar iant
Ġoper ational
Ġindic ates
po int
Ġhill s
Ġflu id
m ud
Ġt ort
Ġste am
Ġlic ense
Ġrang es
2 00
g ium
Ġh ong
Ġth row
oc ated
Ġgu ide
Ġelect romagn
Ġple as
Ġa ce
Ġthe ater
om a
Ġinter action
Ġmon aster
Ġrelig ions
Ġcard inal
Ġreplace ment
e lect
l ical
Ġst ability
ri ers
Ġ193 7
Ġesc ap
Ġmere ly
n um
Ġpower ed
Ġabs ence
Ġlear n
Ġtermin al
Ġpublish ing
b ell
g un
Ġf old
em an
Ġno ble
Ġchar ter
Ġconcer ning
Ġaim ed
Ġvictor ia
Ġnick n
Ġbact eria
ct ive
ch o
Ġbo ats
Ġwr ong
Ġm ig
Ġre un
Ġun less
Ġres idence
pl ace
Ġdef ensive
Ġfollow ers
up on
Ġmix ture
Ġg il
Ġpl ural
Ġjud icial
Ġhom osexual
Ġbish ops
Ġlif etime
a ust
f c
t v
u set
Ġcon ven
Ġsh ore
Ġpl as
Ġman ip
Ġless er
Ġfac ility
Ġvari ables
Ġlun ar
o oth
he red
Ġl iv
Ġg ent
Ġst em
ith ms
ra ge
Ġch ip
Ġrefer ring
Ġbas es
Ġinit iated
Ġdemocr ats
Ġcarib bean
st ic
Ġr anks
Ġun ity
Ġint ention
Ġfact ory
Ġur anium
Ġsac rif
Ġvary ing
tr ans
Ġenjoy ed
Ġtourn ament
l ou
ro us
Ġe ag
Ġal k
Ġres ign
Ġdis appe
Ġ6 8
az a
Ġ195 1
Ġparticip ate
Ġjour ney
Ġgraph ics
Ġorient ed
Ġ4 2
Ġmil k
Ġrev ival
Ġav o
u ate
Ġg iant
Ġk am
Ġsign s
Ġ191 4
Ġcontinu ing
Ġgram mar
Ġgrav ity
Ġdang erous
or a
Ġj ump
Ġev angel
Ġoper ator
Ġret ire
Ġsec ular
Ġtur b
Ġill ness
Ġmov ies
Ġprede cess
d ney
Ġc yl
Ġh ors
Ġro osevelt
Ġrecogn ised
Ġdis ag
Ġrel ief
Ġvis itors
Ġarg uments
Ġsee king
Ġmax im
Ġopt ical
Ġproced ure
Ġre ar
Ġg ay
im b
Ġor ange
me an
Ġsett lers
Ġfish ing
er ation
ol i
ak s
Ġres ol
ach uset
Ġpat ron
uls ion
Ġunus ual
c os
Ġand rew
Ġto xic
and y
Ġsc at
Ġrem ove
Ã© e
ov a
ipp ing
Ġsuff ering
Ġconsum er
Ġvacu um
Ġt ab
Ġa le
Ġn inet
Ġportug al
Ġinvolve ment
Ġsched uled
achuset ts
Ġt ies
Ġt ib
Ġa w
Ġb ought
or us
Ġf ill
Ġin fer
oc ent
Ġab b
Ġrem ov
Ġsouth west
Ġsent ence
Ġo st
Ġd al
Ġcomp rom
Ġ6 00
Ġdistingu ish
Ġpalest inian
b rit
l an
m u
o ys
Ġhe lic
Ġj on
Ġpop ul
Ġpass es
Ġsurv ive
Ġquant ities
Ġrestrict ions
Ġm aced
Ġg au
am ents
Ġr av
Ġdis ney
Ġnew ton
Ġmin eral
Ġstr ings
Ġterm ed
Ġcam era
Ġdraw ing
ic an
Ġr aw
et te
Ġcol ors
Ġinv ited
Ġsw iss
Ġemerg ency
Ġwat ch
Ġeld er
Ġwebs ite
Ġo k
Ġin hib
Ġh oc
ou ri
the astern
ir ation
ill ery
our se
Ġper mitted
Ġmar gin
ost er
Ġmon itor
Ġep ic
Ġspace craft
Ġden ied
Ġcam bridge
adel ph
it i
Ġpers pective
Ġbas ket
Ġstat ements
Ġfew er
Ġreview s
Ġadj acent
Ġphilipp ines
Ġmong ol
Ġstat istical
Ġhom es
Ġnegot iations
Ġnorwe gian
Ġm igration
el ess
Ġme th
Ġtrans it
Ġconstant in
Ġkeep ing
Ġcav al
Ġhier arch
3 7
Ġt ay
Ġsu itable
Ġk enn
Ġad mitted
Ġnomin ation
Ġobserv ations
Ġchampionship s
Ġinteg ration
Ġcerem on
Ġdat ab
bish op
re hens
is ition
ub e
Ġclaim ing
Ġsen ator
Ġdiscuss ion
Ġnewsp apers
Ġukra ine
Ġb eng
Ġp ush
Ġr aces
Ġchar l
cy cl
Ġvo ters
Ġnar rative
Ġauton om
Ġunsu ccess
Ġp agan
ip h
av ian
Ġsc ored
Ġrec re
Ġpre f
Ġspec ified
Ġsyn thes
Ġstre ets
Ġparticip ated
k el
in it
ok ing
int on
Ġest imate
Ġsw it
Ġslow ly
Ġconne ctions
Ġsud an
Ġmam m
Ġex ceed
Ġtr ump
Ġdo or
Ġfin ance
Ġbenef its
Ġhaw ai
3 6
Ġt ick
Ġd ress
Ġh u
Ġwor n
Ġcomm od
Ġmar it
Ġpo le
Ġrem ote
Ġsecond s
Ġpsych ological
Ġpap ers
Ġbring ing
Ġsh ock
vel and
Ġmass achusetts
Ġgl ac
Ġthreat ened
Ġvirt ual
Ġaccur ate
Ġartific ial
om er
Ġon going
Ġsh ield
Ġbl ind
Ġtrans mit
Ġrem ember
ha ust
Ġmeet ings
Ġapparent ly
k rit
Ġf ighter
Ġto t
Ġpro ve
Ġk os
Ġup gr
Ġbu y
Ġhead s
Ġve ter
Ġtal k
Ġdeli ber
3 4
b ing
h al
Ġbe er
Ġr on
em ed
Ġsh orter
Ġpe as
Ġact ors
Ġconscious ness
Ġt ag
Ġn om
ut or
Ġnor theast
Ġnat o
Ġopt im
Ġcarol ina
Ġoppon ents
Ġbib lical
Ġfreder ick
Ġn aming
ound s
Ġbr ad
Ġ192 2
Ġstop ped
Ġportray ed
d in
Ġk er
Ġne ck
Ġem it
Ġpers u
Ġ193 4
Ġbal tic
ino is
Ġdam aged
Ġax i
Ġlegisl ature
Ġcommem or
r in
t rad
Ġt ens
Ġf ur
ro c
Ġto b
Ġper sec
Ġsy ria
Ġinter act
Ġart istic
Ġsupport s
Ġel abor
Ġbre aking
Ġkind s
Ġcinem a
Ġa wa
in n
Ġc rick
ot o
Ġ20 21
Ġpre gn
Ġca ve
Ġequ ipped
Ġnat urally
Ġsimilar ly
su it
Ġbound aries
Ġbab yl
Ġrecover y
h l
Ġb av
Ġp yth
Ġis a
Ġst ones
Ġy e
Ġra ise
o a
ed ed
Ġg i
Ġsp here
ke e
bo x
Ġtele g
Ġdi ameter
Ġpossess ion
Ġsud den
f s
w art
Ġl ig
Ġr id
Ġ4 6
Ġconflic ts
Ġpair s
Ġshar p
lou is
v id
Ġen act
end um
Ġlo ad
Ġvi enna
Ġprofess ion
Ġcot ton
mean while
s pec
Ġp iano
ur d
un til
Ġsc he
Ġsy dney
Ġcount ies
Ġimm igration
Ġmathem atic
Ġreb u
Ġcust oms
Ġhapp ened
Ġrecomm end
Ġany one
Ġ17 5
Ġmiss iss
Ġapprox im
Ġtransform ation
Ġthink ing
Ġolymp ics
Ġneighbor hood
Ġdio xide
Ġp us
ro it
il er
Ġj r
Ġcan ce
Ġres igned
Ġmon op
ix on
sequ ently
Ġhost s
Ġmonarch y
Å «
Ġt el
Ġs ession
ur as
Ġus ual
Ġbl ocks
Ġjo hann
Ġgr ass
Ġ17 0
Ġprof it
Ġobject ive
Ġconcent rated
Ġmerg ed
Ġexplan ation
s ylvania
in der
Ġb one
st ation
Ġbe ars
Ġex ile
Ġmar ia
Ġstud ios
be y
Ġ9 9
Ġcolle ges
Ġ193 5
Ġroman ia
Ġmeasure ment
Ġdecre ase
Ġgir ls
Ġregister ed
Ġtrop ical
Ġw ider
Ġn ig
oc ene
Ġ8 5
Ġ193 2
Ġbusiness es
Ġly rics
c urrent
Ġf usion
ater al
Ġunder t
Ġacc um
Ġtem porary
Ġang lic
Ġmagn et
Ġrecover ed
Ġtell s
Ġsovereign ty
Ġintervent ion
Ġcuis ine
Ġs ans
it als
Ġst ood
Ġj et
Ġex haust
ak i
Ġreg ulations
Ġsupp lies
Ġmiss iles
Ġpoly n
Ġpron ounced
Ġguine a
u v
Ġc m
Ġd c
Ġ1 000
Ġne uro
Ġval u
Ġtele communic
Ġengine er
Ġconserv ation
Ġdistinct ive
Ġfamil iar
Ġmississ ipp
3 2
n ia
Ġag encies
Ġprov inc
Ġgeor gia
ĠÃ Ĺ
Ġpros per
d iv
p ost
Ġv ib
Ġear n
Ġbus h
Ġcover ing
Ġevolution ary
Ġdescend ants
Ġbuddh ism
m uch
ol id
av ia
Ġpa rent
Ġsw ord
Ġread ers
Ġexclus ively
Ġexplicit ly
Ġtiss ue
Ġh ired
ort ion
ast e
Ġcontin ent
Ġdesc ent
Ġparticip ation
Ġelse where
at in
Ġpro to
ag ram
Ġir anian
Ġpain ted
Ġexerc ise
Ġflor ida
r ig
Ġw et
Ġm old
Ġd ies
as ka
Ġwh it
Ġdes ired
Ġdra g
Ġadop tion
Ġsac red
Ġcub a
Ġinteg ral
Ġmolec ule
Ġfinn ish
4 8
7 5
Ġv ene
Ġle v
Ġcont rad
ail and
Ġass ign
Ġplan ets
Ġpriv ile
Ġ25 0
Ġdefin itions
Ġdram atic
Ġunemploy ment
6 6
Ġs or
Ġs ig
or ic
Ġind eed
Ġphil adelph
Ġaust rian
Ġcontrol s
Ġanti qu
Ġhor ror
Ã¼ r
Ġwealth y
Ġempt y
Ġremov al
l ock
o es
p ath
Ã «
Ġp ump
Ġin aug
th ose
Ġres erves
ru ck
ors hip
Ġrece iver
Ġeas ier
Ġcreat ive
4 5
Ġp ic
Ġor al
ra ction
ag a
Ġrefer endum
Ġliber ation
Ġwind s
Ġwa vel
nat ural
in stein
Ġst ores
Ġar ray
ap ore
Ġsp ending
Ġinc om
Ġbel gium
Ġrele ases
Ġhar ry
gen er
Ġjud ges
Ġess ay
Ġther mal
Ġhors es
Ġw ol
ch ron
Ġcon clusion
ant a
Ġmar ks
Ġrepl acing
Ġho le
Ġoffer ing
Ġdifficult y
Ġsho oting
Ġconsequ ence
onym ous
Ġpenn sylvania
Ġp ages
Ġk el
Ġper ception
ph y
ten ance
Ġpar ks
Ġhand ed
Ġ13 0
Ġpun k
pri or
Ġtren d
Ġsimultane ously
it is
Ġal ien
Ġch ile
Ġsh ares
Ġcomp rehens
Ġ5 1
Ġindepend ently
Ġengine ers
Ġmiss ouri
Ġmaintain ing
ym es
Ġgreg ory
Ġteac her
Ġoverse as
á ¹
Ġp and
st s
ph il
Ġgu est
Ġ8 00
Ġread y
Ġstar red
Ġorchest ra
Ġconsec utive
Ġcaes ar
Ġfict ional
Ġconstantin ople
in f
Ġb reat
Ġfor b
Ġse gment
ip her
Ġma ur
Ġcor ner
Ġbro ok
Ġearth qu
Ġappear ances
Ġ189 0
Ġcampaign s
Ġcod es
Ġgradu ate
Ġpolyn omial
i est
Ġo ption
Ġbe am
Ġgener ate
Ġobserv ation
Ġalgor ithms
Ġc ord
Ġprop he
Ġep ist
Ġdri ving
Ġill inois
Ġdel ta
Ġvul ner
Ġprovinc ial
id al
Ġj am
ian g
igh ters
so on
Ġart illery
Ġmet ab
Ġver b
Ġdisplay ed
Ġphenomen a
Ġmarit ime
n g
os aur
ess ions
Ġprodu cers
Ġact ress
Ġcamp s
Ġtar gets
Ġarrang ement
Ġlie uten
Ġpartners hip
t op
Ġ ions
er ce
le m
ot le
Ġag ed
ke ley
ens ively
Ġspecial ized
Ġquant ity
Ġprec ip
Ġsens itive
Ġinj ury
Ġthir ty
Ġalf red
will iam
Ġmississipp i
Ġal umin
Ġsub ur
Ġgovern ing
Ġfr an
Ġinv ention
Ġlo op
Ġsequ ences
Ġvill ages
Ġprem ier
Ġsax on
Ġvow el
b us
u an
Ġfor th
th or
int endo
Ġcap ita
Ġrad ar
Ġbroadcast ing
Ġteach ings
Ġhelic op
m ary
Ġm g
Ġd ense
Ġam az
Ġper m
Ġres erv
Ġstand s
Ġla ure
Ġant ib
Ġ191 1
Ġmanif est
4 9
Ġs aints
Ġro ut
Ġer u
Ġste ve
Ġvict ims
Ġfall ing
Ġcas ual
Ġindones ia
Ġmillenn ium
Ġphiladelph ia
g reg
Ġd j
Ġad ams
Ġph oen
Ġco inc
Ġpo ison
Ġmain tenance
Ġsa udi
Ġleg acy
Ġarch bishop
Ġdocument ed
Ġconqu ered
Ġsant a
Ġtouch down
Ġpredomin antly
er ts
Ġp ont
um ed
Ġli bert
Ġed itions
Ġvol umes
Ġver tical
Ġdifficult ies
omm od
Ġlandsc ape
Ġb h
ill es
pl ed
Ġfl ash
Ġdirect ors
Ġsat ur
Ġcontrib ution
Ġlog ical
Ġdie go
Ġdan iel
Ġdynam ic
Ġin se
Ġsh ah
Ġmar ry
Ġacc ommod
Ġplay off
Ġoper ators
Ġmoder ate
els h
Ġstat ue
Ġwin ner
Ġcivil ization
Ġbi ology
Ġburn ing
Ġexhib ition
Ġchron ic
Ġot to
j ust
Ġt ape
Ġb low
Ġto w
Ġmo ves
Ġk ansas
Ġam ate
Ġsw im
Ġoccur ring
Ġmanufact ured
Ġadult s
Ġchance ll
Ġlithu ania
Ġbehavi our
Ġjord an
3 1
Ġc ens
ro d
ch rist
Ġk az
aw n
Ġ4 1
Ġturn ing
Ġdim ensions
Ġcitiz en
Ġlingu istic
Ġlas er
t im
al o
Ġl ind
ation ally
Ġsu icide
Ġtw in
Ġent ering
Ġkingdom s
Ġpot entially
Ġreported ly
Ġclo thing
Ġabst ract
g roup
Ġo ak
Ġb its
or ms
Ġint ense
Ġsp r
Ġpo inted
Ġher self
Ġeven ing
Ġpen et
Ġsitu ations
Ġcorpor ate
Ġprint ing
Ġa es
er to
en cing
or i
Ġf lex
Ġd ick
Ġe ighth
Ġn ich
ou ston
amp s
Ġdef ines
Ġexper t
Ġtri als
Ġcompet e
Ġrespect ive
Ġmaintain s
Ġlay ers
Ġmeasure ments
Ġleban on
i ary
n as
Ġa head
en burg
Ġl ung
un a
Ġsc ar
Ġfl our
Ġjo e
Ġent hus
Ġrul ers
Ġeth iop
Ġphilosop hers
Ġoppon ent
Ġadmir al
Ġgoth ic
3 8
b b
in us
Ġs ri
Ġr ays
Ġk g
Ġob st
Ġperson ality
Ġreturn s
Ġver se
bour g
Ġdivers ity
Ġt eles
Ġh ob
am ation
Ġab road
Ġinter actions
Ġcar n
Ġent ity
Ġpublic ations
Ġorgan ised
Ġcur ve
Ġexpl or
Ġ192 5
Ġelectron ics
Ġtas ks
Ġnucle us
Ġseem ed
Ġcul min
Ġcaval ry
Ġautonom ous
b orn
r ator
Ġo vers
Ġfor d
ist a
ell ar
ath an
Ġimp osed
Ġcor on
Ġrequ iring
Ġ192 3
Ġsam uel
Ġlog o
Ġarab ia
Ġhon our
Ġfra ction
Ġoccas ions
Ġelectromagn etic
Ġvene z
ol ics
Ġcomm erce
Ġvar iants
Ġmat ches
Ġadv ice
Ġdou gl
Ġerr ors
s ky
it ative
ro id
Ġl ank
Ġst ruck
Ġcon sole
Ġde emed
Ġr ush
ost ic
Ġpre valent
Ġatt or
Ġtrans c
Ġvar ied
Ġ191 0
Ġdet roit
Ġcover age
Ġweek ly
Ġgeomet ry
Ġadvert ising
e conom
h u
Ġm ine
Ġd ir
Ġst abil
Ġor th
Ġcl ay
Ġme g
Ġph one
Ġnational ist
Ġ192 8
Ġfac ing
Ġget ting
Ġsurround ed
3 9
Ġp ist
ly n
ol as
el d
op her
Ġpl astic
Ġsp ons
Ġsub sc
Ġbr id
Ġmin es
Ġsur ve
Ġhy brid
Ġpred icted
Ġlord s
Ġmamm als
Ġl em
Ġsh ir
her ic
Ġass y
sh ort
Ġfind s
Ġcard in
Ġdim ension
Ġproced ures
Ġadminister ed
z ed
Ġus s
Ġper mit
Ġcons ensus
Ġreg ul
Ġsing les
Ġport ra
ob i
rest rial
Ġmess ages
unc iation
e ing
f ather
p ower
Ġl ose
Ġre verse
Ġus a
olog ically
Ġconst ell
Ġ192 1
Ġ192 7
akes pe
Ġmarsh all
Ġlieuten ant
f ish
y stem
Ġn bc
cl ass
Ġro cks
Ġman ual
Ġbel t
lo ad
Ġdem ands
Ġsing ular
Ġcompat ible
Ġmembr ane
' m
r ating
Ġh ipp
Ġre ich
Ġinter mediate
Ġbet a
Ġtra ins
Ġgr ade
Ġgre y
ov o
Ġmass ac
Ġpet ro
Ġjeff erson
i ast
m outh
Ġb read
st ate
Ġprodu ctions
Ġmin imal
Ġau then
Ġsing apore
Ġdri ver
Ġwal ter
Ġcle veland
Ġassist ant
Ġexclus ive
Ġscand in
Ġreconst ruction
Ġmanufactur ers
Ġsubmar ine
Ġt ied
Ġtrans mitted
ne g
Ġequ il
ger y
Ġfar mers
Ġspeak er
comp ass
Ġmoment um
akespe are
m or
Ã º
Ġv s
Ġres id
Ġhigh way
ames e
Ġamong st
Ġ191 2
Ġdon ald
Ġ187 0
Ġphot ograph
Ġroll ing
Ġnas a
rim ination
f il
Ġp av
Ġbe ings
Ġk ra
ang ed
Ġdevelop ments
Ġfer t
Ġdisp uted
Ġrevol t
Ġathe ns
in tern
Ġre agan
Ġg iants
Ġall en
Ġpre y
Ġdem anded
ier ra
Ġchild hood
Ġ192 4
Ġmechan isms
Ġenter prise
Ġneut ron
Ġdar win
through out
Ġdv d
Ġfacult y
3 3
Ġthe or
is ations
Ġf ulf
se x
oc c
ph ony
Ġz o
Ġname ly
Ġrest oration
Ġang el
Ġaddress ed
Ġiniti ative
v ens
Ġc hes
is a
Ġh ond
Ġwor st
Ġres on
ib ilities
Ġair lines
Ġ193 1
Ġstar ring
Ġcompet itive
Ġox ide
Ġbomb ing
Ġswe et
Ġnit rogen
Ġfoss il
Ġrug by
Ġtib et
6 7
w al
Ġw elsh
Ġm ike
ra ham
Ġex cell
Ġro y
Ġmar c
Ġgen us
Ġunder lying
Ġ5 8
Ġ7 7
to gether
Ġhand le
Ġliter ally
Ġfood s
Ġpoll ution
Ġchrom os
Ġabol ished
ur re
au x
Ġco eff
other s
Ġver te
Ġsam ples
Ġresour ce
Ġrefuge es
Ġpenal ty
c hem
f ts
m art
Ġt ight
Ġa rose
Ġr af
Ġsub t
Ġ5 4
Ġsm ooth
Ġremain der
up iter
acc o
Ġbul k
Ġtun nel
Ġslav ic
i y
Ġc ous
or o
es ian
Ġl ion
ur an
ul um
Ġind irect
Ġco ins
Ġjo y
Ġmet ric
Ġrev ised
Ġdown town
Ġkey board
Ġconc rete
Ġcel tic
Ġconfig uration
Ġc um
ic ts
Ġst ack
Ġext end
Ġaccur acy
v ol
Ġc ort
Ġg ab
Ġst orm
Ġal ter
Ġsupp lement
Ġult imate
Ġcry pt
Ġinstrument al
Ġconsequ ences
Ġslo ven
Ġcrick et
g el
x x
in ced
Ġma j
Ġwill ing
Ġhuman ity
Ġcirc ular
Ġprotest s
Ġcalcul ated
Ġdub lin
Ġdub bed
Ġpunish ment
y ear
Ġc bs
Ġg one
ul us
Ġr ings
um ps
Ġen compass
ie th
out s
Ġph arm
Ġreg iment
Ġmon etary
Ġfun eral
Ġes p
Ġprof ile
Ġflight s
Ġans wer
Ġbasket ball
Ġvenez uel
r um
Ġa ster
Ġh ans
Ġhe ter
iz er
Ġcol omb
Ġgovern ed
Ġsim on
Ġtest ed
Ġber keley
Ġfa ult
bre ak
Ġvow els
Ġdeploy ed
n ow
Ġa ware
Ġth ailand
um a
Ġno ise
Ġco ined
Ġcivil ians
Ġimprove ments
Ġwear ing
Ġsans krit
Ã ¸
at us
Ġb ore
ro om
Ġsh aring
Ġro of
ty p
Ġprom ised
Ġcatal y
Ġdiction ary
Ġtay lor
s burg
Ġv acc
Ġse al
for ced
Ġco in
Ġconv inced
Ġvirt ually
Ġpu erto
6 8
ar an
Ġcl ient
Ġem issions
Ġimport ed
vak ia
b en
Ġs au
Ġw es
Ġre ver
Ġg ly
am ine
Ġpro x
ant e
Ġcl ause
Ġme ters
Ġec cles
Ġenem ies
Ġenab led
Ġauthen tic
Ġc aught
ic ated
Ġcl ergy
Ġdis char
Ġcomple tion
Ġ16 5
Ġcollabor ation
hum an
Ġdeput y
f a
l ad
Ġa ber
Ġd ust
Ġen z
Ġen light
Ġstud ying
Ġloc ally
Ġdisc rimination
Ġer n
Ġbeh alf
Ġdiscip line
c p
Ġb ry
Ġl t
am eric
Ġpro claimed
der ing
Ġ5 2
Ġob vious
ars h
Ġret ail
Ġsing ing
Ġcath olics
Ġmut ual
Ġdecre ased
Ġbeaut iful
Ġment ions
Ġhoc key
w ich
al ong
Ġn intendo
Ġen cycl
Ġir re
Ġbat tal
Ġappear ing
Ġaccept ance
Ġautom atic
Ġinhab ited
f ire
al ia
Ġg est
Ġcons pir
Ġlo ose
Ġroman ian
Ġeduc ated
Ġbroad way
Ġvir us
Ġinte ger
Ġ190 5
ii i
Ġinsp iration
Ġcogn itive
Ġvalu able
4 4
f our
s l
Ġt ap
Ġw ag
Ġdis orders
Ġ6 6
Ġrele vant
Ġel ite
Ġrecogn ize
Ġtrib e
fin ally
Ġequil ib
ic o
Ġre vel
ad i
if fer
Ġâ Ĥ
Ġreg ulation
Ġhigh light
Ġcor p
Ġobser ver
Ġham ilton
Ġic eland
Ġorb ital
Ġgosp el
Ġb our
Ġhe ir
Ġse ctors
Ġnot ice
Ġprocess or
ik a
Ġdest ination
Ġscient ist
Ġimm un
Ġwood en
Ġamb ass
Ġthr ust
Ġpalest ine
re se
ic ing
Ġl od
ig a
Ġmin im
Ġext ensively
Ġcolle ctions
Ġrecord ings
Ġregard less
Ġcoll aps
Ġarist oc
Ġrepeated ly
Ġosc ill
f o
i ot
j ud
m ation
p rodu
Ġn u
Ġam mon
Ġcent res
Ġcr ash
Ġpred ict
Ġpra ised
Ġexc av
var ious
Ġinfe ction
Ġprin cess
Ġl ip
ard o
Ġinv aded
Ġtri um
Ġdepos its
b at
Ġgener ations
Ġmin erals
atic an
Ġtravel ed
Ġmill ions
Ġven ice
Ġsac ram
Ġplas ma
h ing
he w
Ġm p
Ġd od
Ġun ified
Ġne o
Ġser ial
Ġconf idence
Ã© s
com ing
Ġconver t
Ġdoll ars
6 5
8 8
i ology
t ax
Ġp ad
se cond
Ġsh akespeare
Ġam ph
Ġwar ri
Ġsignific ance
Ġelement ary
Ġf urn
Ġf aces
Ġj ane
Ġqu art
Ġsub mitted
Ġret reat
ann a
Ġbre w
Ġgra ce
Ġjac ob
Ġacknowled ged
Ġc ash
at ra
Ġch al
Ġnor se
Ġav iation
Ġexpl ains
Ġspeed s
more over
Ġbul gar
w ald
Î ±
Ġs ard
Ġs her
Ġf inger
Ġh ouston
Ġhe ra
Ġj upiter
Ġind ians
Ġwe aken
Ġed ited
Ġins urance
Ġcommerc ially
Ġaltern ate
Ġemb ra
Ġprevent ed
il st
im ir
oc ation
Ġdist ant
Ġent ities
Ġequ ally
be gin
Ġsocial ism
oph y
Ġdev oted
Ġdi oc
Ġsubst ances
Ġpan el
Ġfest ivals
Ġconnect ing
z ing
Ġt ony
Ġc hest
Ġg at
Ġmo z
Ġam ino
Ġcons olid
Ġnor man
Ġmon ument
Ġlo an
Ġident ification
Ġ191 5
Ġlib r
Ġcut ting
Ġappoint ment
Ġgalax y
Ġmalays ia
p ing
w ind
Ġ 00
Ġg ap
Ġsh a
Ġro ss
Ġbr un
Ġ5 7
Ġrece ives
Ġgree ks
Ġcompet ing
ened ict
b ow
o h
p op
r idge
Ġo ath
Ġb ath
Ġd war
Ġse es
Ġen cl
Ġrep air
Ġequ ality
Ġphys ic
Ġattempt ing
Ġliber ty
Ġcross ing
Ġmart ial
b od
d av
m em
Ġw ings
Ġw ake
Ġf ighters
Ġv ital
Ġv atican
Ġcl oud
Ġte a
Ġ15 5
Ġfund ed
Ġadop t
Ġdisp utes
Ġsitu ated
Ġfrank lin
Ġcollect ive
Ġstay ed
Ġprohib ited
Ġmerc ury
m c
Î ¿
is hes
it ure
al ism
Ġan ch
Ġm aps
ig e
Ġcon ve
ell er
Ġqu oted
Ġdu chy
Ġflow s
Ġrequire ment
Ġprior ity
Ġbapt ist
Ġamate ur
Ġ ie
ar io
Ġh ip
Ġcon fer
Ġen erg
Ġagre ements
Ġshif ted
Ġdatab ase
n t
est one
Ġdis app
Ġgu il
Ġcap abilities
Ġke ys
Ġ192 6
Ġdra gon
Ġ191 3
Ġmultip lic
Ġtrib ute
Ġconsider ably
Ġcorrespond ence
Ġexhib it
Ġorient ation
Ġing red
' re
g ate
t ically
ed a
Ġre ct
Ġst ere
Ġen orm
Ġro ger
te enth
Ġcomple ment
Ġhow ard
Ġstrong er
Ġcat tle
Ġcompos ers
Ġarchae ological
p ool
Ġs ut
Ġm s
Ġm ile
Ġg y
om on
Ġro s
ap or
Ġab bre
ever y
Ġhand ling
Ġlat v
Ġdev ast
Ġreal ized
Ġtour ist
Ġcam er
Ġdoll ar
Ġknight s
Ġmerch ant
Ġbure au
Ġcrop s
Ġalexand ria
f ast
Ġc ass
Ġh ull
Ġn i
st art
Ġr na
iz ers
Ġrel iable
aw are
Ġeu cl
Ġfil ed
Ġexp on
Ġrepublic ans
Ġprom oting
Ġgra in
Ġindic ating
Ġdig it
Ġ188 0
Ġgrav it
Ġpatri arch
Ġcoff ee
c hen
Ġt ip
Ġe cl
iv a
Ġar row
Ġpres erve
Ġland ed
Ġprom otion
Ġtal es
Ġmir ror
