{
  "version": "1.0",
  "truncation": null,
  "padding": null,
  "added_tokens": [
    {
      "id": 0,
      "content": "<s>",
      "single_word": false,
      "lstrip": false,
      "rstrip": false,
      "normalized": true,
      "special": true
    },
    {
      "id": 1,
      "content": "<pad>",
      "single_word": false,
      "lstrip": false,
      "rstrip": false,
      "normalized": true,
      "special": true
    },
    {
      "id": 2,
      "content": "</s>",
      "single_word": false,
      "lstrip": false,
      "rstrip": false,
      "normalized": true,
      "special": true
    },
    {
      "id": 3,
      "content": "<unk>",
      "single_word": false,
      "lstrip": false,
      "rstrip": false,
      "normalized": true,
      "special": true
    },
    {
      "id": 4,
      "content": "<mask>",
      "single_word": false,
      "lstrip": true,
      "rstrip": false,
      "normalized": false,
      "special": true
    }
  ],
  "normalizer": null,
  "pre_tokenizer": {
    "type": "ByteLevel",
    "add_prefix_space": false,
    "trim_offsets": true,
    "use_regex": true
  },
  "post_processor": {
    "type": "RobertaProcessing",
    "sep": [
      "</s>",
      2
    ],
    "cls": [
      "<s>",
      0
    ],
    "trim_offsets": true,
    "add_prefix_space": false
  },
  "decoder": {
    "type": "ByteLevel",
    "add_prefix_space": true,
    "trim_offsets": true,
    "use_regex": true
  },
  "model": {
    "type": "BPE",
    "dropout": null,
    "unk_token": null,
    "continuing_subword_prefix": "",
    "end_of_word_suffix": "",
    "fuse_unk": false,
    "byte_fallback": false,
    "vocab": {
      "<s>": 0,
      "<pad>": 1,
      "</s>": 2,
      "<unk>": 3,
      "<mask>": 4,
      "!": 5,
      "\"": 6,
      "#": 7,
      "$": 8,
      "%": 9,
      "&": 10,
      "'": 11,
      "(": 12,
      ")": 13,
      "*": 14,
      "+": 15,
      ",": 16,
      "-": 17,
      ".": 18,
      "/": 19,
      "0": 20,
      "1": 21,
      "2": 22,
      "3": 23,
      "4": 24,
      "5": 25,
      "6": 26,
      "7": 27,
      "8": 28,
      "9": 29,
      ":": 30,
      ";": 31,
      "<": 32,
      "=": 33,
      ">": 34,
      "?": 35,
      "@": 36,
      "A": 37,
      "B": 38,
      "C": 39,
      "D": 40,
      "E": 41,
      "F": 42,
      "G": 43,
      "H": 44,
      "I": 45,
      "J": 46,
      "K": 47,
      "L": 48,
      "M": 49,
      "N": 50,
      "O": 51,
      "P": 52,
      "Q": 53,
      "R": 54,
      "S": 55,
      "T": 56,
      "U": 57,
      "V": 58,
      "W": 59,
      "X": 60,
      "Y": 61,
      "Z": 62,
      "[": 63,
      "\\": 64,
      "]": 65,
      "^": 66,
      "_": 67,
      "`": 68,
      "a": 69,
      "b": 70,
      "c": 71,
      "d": 72,
      "e": 73,
      "f": 74,
      "g": 75,
      "h": 76,
      "i": 77,
      "j": 78,
      "k": 79,
      "l": 80,
      "m": 81,
      "n": 82,
      "o": 83,
      "p": 84,
      "q": 85,
      "r": 86,
      "s": 87,
      "t": 88,
      "u": 89,
      "v": 90,
      "w": 91,
      "x": 92,
      "y": 93,
      "z": 94,
      "{": 95,
      "|": 96,
      "}": 97,
      "~": 98,
      "¡": 99,
      "¢": 100,
      "£": 101,
      "¤": 102,
      "¥": 103,
      "¦": 104,
      "§": 105,
      "¨": 106,
      "©": 107,
      "ª": 108,
      "«": 109,
      "¬": 110,
      "®": 111,
      "¯": 112,
      "°": 113,
      "±": 114,
      "²": 115,
      "³": 116,
      "´": 117,
      "µ": 118,
      "¶": 119,
      "·": 120,
      "¸": 121,
      "¹": 122,
      "º": 123,
      "»": 124,
      "¼": 125,
      "½": 126,
      "¾": 127,
      "¿": 128,
      "À": 129,
      "Á": 130,
      "Â": 131,
      "Ã": 132,
      "Ä": 133,
      "Å": 134,
      "Æ": 135,
      "Ç": 136,
      "È": 137,
      "É": 138,
      "Ê": 139,
      "Ë": 140,
      "Ì": 141,
      "Í": 142,
      "Î": 143,
      "Ï": 144,
      "Ð": 145,
      "Ñ": 146,
      "Ò": 147,
      "Ó": 148,
      "Ô": 149,
      "Õ": 150,
      "Ö": 151,
      "×": 152,
      "Ø": 153,
      "Ù": 154,
      "Ú": 155,
      "Û": 156,
      "Ü": 157,
      "Ý": 158,
      "Þ": 159,
      "ß": 160,
      "à": 161,
      "á": 162,
      "â": 163,
      "ã": 164,
      "ä": 165,
      "å": 166,
      "æ": 167,
      "ç": 168,
      "è": 169,
      "é": 170,
      "ê": 171,
      "ë": 172,
      "ì": 173,
      "í": 174,
      "î": 175,
      "ï": 176,
      "ð": 177,
      "ñ": 178,
      "ò": 179,
      "ó": 180,
      "ô": 181,
      "õ": 182,
      "ö": 183,
      "÷": 184,
      "ø": 185,
      "ù": 186,
      "ú": 187,
      "û": 188,
      "ü": 189,
      "ý": 190,
      "þ": 191,
      "ÿ": 192,
      "Ā": 193,
      "ā": 194,
      "Ă": 195,
      "ă": 196,
      "Ą": 197,
      "ą": 198,
      "Ć": 199,
      "ć": 200,
      "Ĉ": 201,
      "ĉ": 202,
      "Ċ": 203,
      "ċ": 204,
      "Č": 205,
      "č": 206,
      "Ď": 207,
      "ď": 208,
      "Đ": 209,
      "đ": 210,
      "Ē": 211,
      "ē": 212,
      "Ĕ": 213,
      "ĕ": 214,
      "Ė": 215,
      "ė": 216,
      "Ę": 217,
      "ę": 218,
      "Ě": 219,
      "ě": 220,
      "Ĝ": 221,
      "ĝ": 222,
      "Ğ": 223,
      "ğ": 224,
      "Ġ": 225,
      "ġ": 226,
      "Ģ": 227,
      "ģ": 228,
      "Ĥ": 229,
      "ĥ": 230,
      "Ħ": 231,
      "ħ": 232,
      "Ĩ": 233,
      "ĩ": 234,
      "Ī": 235,
      "ī": 236,
      "Ĭ": 237,
      "ĭ": 238,
      "Į": 239,
      "į": 240,
      "İ": 241,
      "ı": 242,
      "Ĳ": 243,
      "ĳ": 244,
      "Ĵ": 245,
      "ĵ": 246,
      "Ķ": 247,
      "ķ": 248,
      "ĸ": 249,
      "Ĺ": 250,
      "ĺ": 251,
      "Ļ": 252,
      "ļ": 253,
      "Ľ": 254,
      "ľ": 255,
      "Ŀ": 256,
      "ŀ": 257,
      "Ł": 258,
      "ł": 259,
      "Ń": 260,
      "Ġt": 261,
      "Ġa": 262,
      "he": 263,
      "in": 264,
      "Ġthe": 265,
      "er": 266,
      "on": 267,
      "Ġs": 268,
      "Ġ,": 269,
      "re": 270,
      "Ġo": 271,
      "Ġc": 272,
      "at": 273,
      "en": 274,
      "Ġw": 275,
      "ed": 276,
      "an": 277,
      "is": 278,
      "Ġb": 279,
      "Ġp": 280,
      "it": 281,
      "or": 282,
      "es": 283,
      "Ġf": 284,
      "Ġof": 285,
      "al": 286,
      "Ġin": 287,
      "Ġan": 288,
      "Ġm": 289,
      "ar": 290,
      "ic": 291,
      "Ġand": 292,
      "Ġd": 293,
      "ing": 294,
      "ion": 295,
      "ro": 296,
      "as": 297,
      "Ġto": 298,
      "Ġ\"": 299,
      "Ġh": 300,
      "Ġl": 301,
      "Ġe": 302,
      "Ġn": 303,
      "ent": 304,
      "Ġre": 305,
      "le": 306,
      "ou": 307,
      "Ġg": 308,
      "Ġth": 309,
      "st": 310,
      "om": 311,
      "ly": 312,
      "the": 313,
      "ct": 314,
      "il": 315,
      "Ġ1": 316,
      "Ġbe": 317,
      "Ġu": 318,
      "ol": 319,
      "ve": 320,
      "am": 321,
      "ation": 322,
      "Ġis": 323,
      "im": 324,
      "ce": 325,
      "ad": 326,
      "Ġfor": 327,
      "ur": 328,
      "Ġas": 329,
      "Ġ-": 330,
      "id": 331,
      "ch": 332,
      "Ġst": 333,
      "th": 334,
      "ver": 335,
      "ig": 336,
      "se": 337,
      "Ġon": 338,
      "ir": 339,
      "ter": 340,
      "Ġwas": 341,
      "ul": 342,
      "Ġcon": 343,
      "ut": 344,
      "ow": 345,
      "ith": 346,
      "Ġde": 347,
      "Ġr": 348,
      "Ġal": 349,
      "Ġ(": 350,
      "Ġ)": 351,
      "et": 352,
      "ot": 353,
      "Ġwith": 354,
      "Ġthat": 355,
      "Ġwh": 356,
      "el": 357,
      "Ġby": 358,
      "Ġpro": 359,
      "ist": 360,
      "ay": 361,
      "us": 362,
      "Ġhe": 363,
      "Ġv": 364,
      "Ġsu": 365,
      "Ġor": 366,
      "ra": 367,
      "and": 368,
      "Ġcom": 369,
      "un": 370,
      "ri": 371,
      "'s": 372,
      "Ġ19": 373,
      "Ġ2": 374,
      "rom": 375,
      "um": 376,
      "em": 377,
      "Ġit": 378,
      "Ġmo": 379,
      "Ġk": 380,
      "op": 381,
      "Ġch": 382,
      "ag": 383,
      "est": 384,
      "if": 385,
      "Ġun": 386,
      "ers": 387,
      "Ġse": 388,
      "ac": 389,
      "Ġj": 390,
      "ain": 391,
      "ate": 392,
      "Ġare": 393,
      "Ġex": 394,
      "Ġat": 395,
      "os": 396,
      "res": 397,
      "ab": 398,
      "pe": 399,
      "qu": 400,
      "ity": 401,
      "ies": 402,
      "Ġfrom": 403,
      "ther": 404,
      "oun": 405,
      "od": 406,
      "iv": 407,
      "ment": 408,
      "oc": 409,
      "ich": 410,
      "ld": 411,
      "Ġne": 412,
      "ud": 413,
      "00": 414,
      "ive": 415,
      "ian": 416,
      "art": 417,
      "ess": 418,
      "ant": 419,
      "ial": 420,
      "ical": 421,
      "Ġhis": 422,
      "pp": 423,
      "ort": 424,
      "ated": 425,
      "ill": 426,
      "Ġen": 427,
      "Ġwhich": 428,
      "ere": 429,
      "igh": 430,
      "all": 431,
      "pt": 432,
      "Ġy": 433,
      "Ġle": 434,
      "ak": 435,
      "Ġwere": 436,
      "ard": 437,
      "ge": 438,
      "ction": 439,
      "gh": 440,
      "ia": 441,
      "ber": 442,
      "Ġar": 443,
      "Ġha": 444,
      "Ġsh": 445,
      "ure": 446,
      "Ġnot": 447,
      "Ġpl": 448,
      "Ġwor": 449,
      "der": 450,
      "cl": 451,
      "Ġus": 452,
      "ary": 453,
      "per": 454,
      "ame": 455,
      "og": 456,
      "Ġcomp": 457,
      "ip": 458,
      "du": 459,
      "Ġ.": 460,
      "ine": 461,
      "ast": 462,
      "so": 463,
      "Ġad": 464,
      "Ġcont": 465,
      "red": 466,
      "Ġro": 467,
      "ish": 468,
      "our": 469,
      "ous": 470,
      "ome": 471,
      "ition": 472,
      "ie": 473,
      "Ġtr": 474,
      "ong": 475,
      "ap": 476,
      "iz": 477,
      "end": 478,
      "Ġint": 479,
      "ans": 480,
      "Ġcl": 481,
      "ect": 482,
      "Ġhave": 483,
      "rit": 484,
      "Ġâ": 485,
      "Ġsp": 486,
      "Ġpart": 487,
      "ell": 488,
      "ight": 489,
      "Ġalso": 490,
      "Ġhad": 491,
      "Ġhas": 492,
      "ations": 493,
      "cc": 494,
      "ub": 495,
      "ore": 496,
      "Ġab": 497,
      "ence": 498,
      "ĠâĢ": 499,
      "Ġ20": 500,
      "ide": 501,
      "ign": 502,
      "Ġam": 503,
      "Ġcomm": 504,
      "Ġall": 505,
      "Ġper": 506,
      "ult": 507,
      "Ġcan": 508,
      "Ġman": 509,
      "Ġwhe": 510,
      "Ġres": 511,
      "Ġform": 512,
      "av": 513,
      "ff": 514,
      "ally": 515,
      "Ġim": 516,
      "ib": 517,
      "Ġtheir": 518,
      "pl": 519,
      "age": 520,
      "ry": 521,
      "ear": 522,
      "ass": 523,
      "Ġbut": 524,
      "ould": 525,
      "Ġme": 526,
      "Ġbo": 527,
      "ust": 528,
      "rou": 529,
      "Ġfir": 530,
      "Ġsc": 531,
      "Ġother": 532,
      "ire": 533,
      "vel": 534,
      "for": 535,
      "Ġ;": 536,
      "Ġits": 537,
      "over": 538,
      "Ġdis": 539,
      "her": 540,
      "ang": 541,
      "Ġthis": 542,
      "ater": 543,
      "act": 544,
      "fer": 545,
      "Ġte": 546,
      "Ġfirst": 547,
      "Ġone": 548,
      "ru": 549,
      "clud": 550,
      "man": 551,
      "Ġsy": 552,
      "ime": 553,
      "ack": 554,
      "con": 555,
      "Ġwho": 556,
      "ates": 557,
      "Ġinter": 558,
      "Ġnew": 559,
      "ount": 560,
      "ren": 561,
      "ice": 562,
      "Ġcent": 563,
      "ord": 564,
      "Ġbec": 565,
      "Ġmar": 566,
      "ue": 567,
      "Ġbeen": 568,
      "ions": 569,
      "Ġag": 570,
      "ree": 571,
      "Ġinclud": 572,
      "Ġyear": 573,
      "ory": 574,
      "Ġaf": 575,
      "Ġtw": 576,
      "ok": 577,
      "ace": 578,
      "out": 579,
      "Ġ201": 580,
      "Ġ200": 581,
      "ost": 582,
      "able": 583,
      "own": 584,
      "hed": 585,
      "Ġser": 586,
      "Ġcol": 587,
      "ance": 588,
      "ph": 589,
      "Ġsuch": 590,
      "ile": 591,
      "Ġno": 592,
      "Ġind": 593,
      "ced": 594,
      "ach": 595,
      "au": 596,
      "Ġspe": 597,
      "ke": 598,
      "ens": 599,
      "und": 600,
      "Ġpr": 601,
      "te": 602,
      "vers": 603,
      "Ġ18": 604,
      "Ġdes": 605,
      "ĠâĢĵ": 606,
      "land": 607,
      "ces": 608,
      "Ġele": 609,
      "ound": 610,
      "Ġpres": 611,
      "Ġgen": 612,
      "Ġev": 613,
      "we": 614,
      "Ġ:": 615,
      "one": 616,
      "Ġrec": 617,
      "Ġem": 618,
      "uring": 619,
      "Ġcons": 620,
      "ric": 621,
      "ough": 622,
      "lic": 623,
      "Ġ3": 624,
      "Ġmore": 625,
      "ational": 626,
      "Ġ'": 627,
      "port": 628,
      "ors": 629,
      "ts": 630,
      "Ġrel": 631,
      "Ġmost": 632,
      "Ġtwo": 633,
      "low": 634,
      "ved": 635,
      "Ġpre": 636,
      "Ġso": 637,
      "Ġph": 638,
      "Ġused": 639,
      "ism": 640,
      "Ġthey": 641,
      "ks": 642,
      "Ġi": 643,
      "Ġpol": 644,
      "ade": 645,
      "Ġover": 646,
      "Ġreg": 647,
      "ited": 648,
      "Ġpe": 649,
      "Ġear": 650,
      "ents": 651,
      "Ġinto": 652,
      "ite": 653,
      "ase": 654,
      "Ġmay": 655,
      "Ġqu": 656,
      "ose": 657,
      "ied": 658,
      "Ġapp": 659,
      "ular": 660,
      "Ġtime": 661,
      "Ġbet": 662,
      "Ġfe": 663,
      "Ġkn": 664,
      "Ġnor": 665,
      "aw": 666,
      "les": 667,
      "Ġsome": 668,
      "Ġco": 669,
      "amp": 670,
      "Ġwar": 671,
      "Ġbl": 672,
      "Ġthan": 673,
      "Ġout": 674,
      "Ġpo": 675,
      "ted": 676,
      "reat": 677,
      "rib": 678,
      "ased": 679,
      "are": 680,
      "Ġprodu": 681,
      "olog": 682,
      "ress": 683,
      "Ġafter": 684,
      "ious": 685,
      "Ġatt": 686,
      "Ġter": 687,
      "ual": 688,
      "ood": 689,
      "Ġwe": 690,
      "wn": 691,
      "rough": 692,
      "Ġsub": 693,
      "Ġwould": 694,
      "Ġoff": 695,
      "ail": 696,
      "Ġonly": 697,
      "Ġup": 698,
      "ative": 699,
      "ween": 700,
      "this": 701,
      "stem": 702,
      "Ġac": 703,
      "Ġpop": 704,
      "Ġnum": 705,
      "Ġunder": 706,
      "ind": 707,
      "Ġworld": 708,
      "Ġlar": 709,
      "Ġap": 710,
      "Ġbr": 711,
      "Ġact": 712,
      "ath": 713,
      "gan": 714,
      "ific": 715,
      "Ġsystem": 716,
      "Ġma": 717,
      "Ġli": 718,
      "Ġbetween": 719,
      "Ġcount": 720,
      "ings": 721,
      "ten": 722,
      "Ġwhen": 723,
      "iss": 724,
      "Ġ199": 725,
      "ons": 726,
      "Ġeng": 727,
      "Ġtrans": 728,
      "Ġinc": 729,
      "Ġacc": 730,
      "overn": 731,
      "li": 732,
      "ics": 733,
      "Ġgener": 734,
      "ne": 735,
      "Ġrep": 736,
      "Ġdef": 737,
      "Ġcar": 738,
      "Ġ4": 739,
      "ft": 740,
      "Ġgovern": 741,
      "form": 742,
      "Ġthere": 743,
      "Ġ%": 744,
      "Ġpar": 745,
      "Ġwork": 746,
      "ident": 747,
      "Ġfr": 748,
      "tern": 749,
      "Ġplay": 750,
      "old": 751,
      "Ġpub": 752,
      "Ġass": 753,
      "Ġdo": 754,
      "ities": 755,
      "ury": 756,
      "Ġmany": 757,
      "Ġher": 758,
      "ution": 759,
      "Ġchar": 760,
      "Ġcall": 761,
      "Ġmin": 762,
      "eric": 763,
      "ild": 764,
      "uc": 765,
      "ep": 766,
      "Ġthem": 767,
      "Ġdif": 768,
      "Ġmon": 769,
      "Ġhim": 770,
      "Ġ5": 771,
      "ject": 772,
      "Ġfl": 773,
      "Ġrem": 774,
      "als": 775,
      "Ġjo": 776,
      "Ġtra": 777,
      "velop": 778,
      "ince": 779,
      "Ġinst": 780,
      "Ġspec": 781,
      "urn": 782,
      "iet": 783,
      "Ġthrough": 784,
      "Ġyears": 785,
      "Ġsou": 786,
      "Ġsupp": 787,
      "ating": 788,
      "Ġpos": 789,
      "ll": 790,
      "ever": 791,
      "ollow": 792,
      "Ġduring": 793,
      "ake": 794,
      "ished": 795,
      "Ġinv": 796,
      "Ġuse": 797,
      "Ġeu": 798,
      "Ġdevelop": 799,
      "ower": 800,
      "io": 801,
      "ms": 802,
      "Ġob": 803,
      "Ġstates": 804,
      "Ġabout": 805,
      "Ġfil": 806,
      "ys": 807,
      "ters": 808,
      "Ġmem": 809,
      "Ġinf": 810,
      "Ġameric": 811,
      "ram": 812,
      "int": 813,
      "round": 814,
      "Ġknown": 815,
      "owever": 816,
      "Ġset": 817,
      "Ġ/": 818,
      "cept": 819,
      "ward": 820,
      "ists": 821,
      "ays": 822,
      "ines": 823,
      "af": 824,
      "ily": 825,
      "Ġwhere": 826,
      "Ġwill": 827,
      "Ġprov": 828,
      "Ġed": 829,
      "ict": 830,
      "Ġdist": 831,
      "Ġvar": 832,
      "Ġfound": 833,
      "ause": 834,
      "Ġsch": 835,
      "cted": 836,
      "very": 837,
      "ond": 838,
      "Ġstate": 839,
      "roup": 840,
      "ient": 841,
      "Ġz": 842,
      "Ġexp": 843,
      "Ġend": 844,
      "Ġ198": 845,
      "ral": 846,
      "Ġdec": 847,
      "Ġau": 848,
      "ix": 849,
      "ments": 850,
      "Ġthese": 851,
      "Ġhigh": 852,
      "cess": 853,
      "Ġconst": 854,
      "its": 855,
      "Ġstud": 856,
      "Ġfin": 857,
      "Ġcity": 858,
      "Ġmus": 859,
      "Ġest": 860,
      "hip": 861,
      "Ġsm": 862,
      "ually": 863,
      "Ġcentury": 864,
      "ures": 865,
      "Ġwell": 866,
      "Ġfollow": 867,
      "Ġimp": 868,
      "ized": 869,
      "Ġbu": 870,
      "ise": 871,
      "Ġpeop": 872,
      "Ġgroup": 873,
      "Ġsim": 874,
      "Ġmade": 875,
      "Ġloc": 876,
      "ically": 877,
      "Ġadd": 878,
      "ivers": 879,
      "fore": 880,
      "Ġincluding": 881,
      "other": 882,
      "Ġent": 883,
      "Ġagain": 884,
      "Ġ6": 885,
      "Ġcalled": 886,
      "Ġger": 887,
      "Ġlater": 888,
      "Ġmain": 889,
      "Ġeff": 890,
      "tain": 891,
      "Ġgr": 892,
      "Ġca": 893,
      "Ġnumber": 894,
      "Ġunited": 895,
      "Ġbeing": 896,
      "ck": 897,
      "Ġcor": 898,
      "sel": 899,
      "Ġ197": 900,
      "Ġair": 901,
      "Ġgovernment": 902,
      "Ġthree": 903,
      "Ġwrit": 904,
      "Ġsur": 905,
      "ium": 906,
      "ctions": 907,
      "Ġsign": 908,
      "Ġdep": 909,
      "ined": 910,
      "Ġhist": 911,
      "cond": 912,
      "Ġeuro": 913,
      "Ġbro": 914,
      "Ġbecame": 915,
      "ature": 916,
      "Ġdiffer": 917,
      "Ġboth": 918,
      "ins": 919,
      "Ġany": 920,
      "Ġext": 921,
      "Ġmed": 922,
      "Ġpeople": 923,
      "Ġthen": 924,
      "ible": 925,
      "Ġoper": 926,
      "Ġwhile": 927,
      "Ġty": 928,
      "000": 929,
      "Ġsoc": 930,
      "Ġlang": 931,
      "ural": 932,
      "cy": 933,
      "ning": 934,
      "hen": 935,
      "Ġart": 936,
      "ron": 937,
      "Ġnational": 938,
      "ered": 939,
      "ving": 940,
      "Ġlangu": 941,
      "Ġsecond": 942,
      "Ġmu": 943,
      "iel": 944,
      "ah": 945,
      "Ġ196": 946,
      "Ġearly": 947,
      "Ġcre": 948,
      "Ġrom": 949,
      "Ġpers": 950,
      "Ġgu": 951,
      "ially": 952,
      "ick": 953,
      "ale": 954,
      "ather": 955,
      "Ġeurope": 956,
      "imes": 957,
      "Ġbel": 958,
      "bers": 959,
      "ility": 960,
      "ife": 961,
      "jor": 962,
      "Ġlong": 963,
      "Ġorig": 964,
      "Ġgerman": 965,
      "led": 966,
      "Ġdire": 967,
      "tle": 968,
      "gest": 969,
      "Ġbrit": 970,
      "ars": 971,
      "Ġarm": 972,
      "Ġintern": 973,
      "Ġpartic": 974,
      "Ġlike": 975,
      "hes": 976,
      "Ġsever": 977,
      "ank": 978,
      "Ġlead": 979,
      "min": 980,
      "ton": 981,
      "Ġlo": 982,
      "Ġcontin": 983,
      "ros": 984,
      "ames": 985,
      "Ġ17": 986,
      "though": 987,
      "Ġdisc": 988,
      "lished": 989,
      "ock": 990,
      "ision": 991,
      "Ġmajor": 992,
      "Ġking": 993,
      "ty": 994,
      "ians": 995,
      "Ġcommon": 996,
      "Ġ7": 997,
      "lish": 998,
      "ages": 999,
      "Ġdesc": 1000,
      "til": 1001,
      "Ġmet": 1002,
      "Ġresult": 1003,
      "Ġret": 1004,
      "Ġ8": 1005,
      "Ġmil": 1006,
      "Ġlaw": 1007,
      "lo": 1008,
      "Ġshe": 1009,
      "ange": 1010,
      "Ġlarge": 1011,
      "ful": 1012,
      "ulation": 1013,
      "ract": 1014,
      "ula": 1015,
      "Ġhum": 1016,
      "arch": 1017,
      "ven": 1018,
      "ork": 1019,
      "Ġown": 1020,
      "Ġdem": 1021,
      "by": 1022,
      "illion": 1023,
      "Ġorigin": 1024,
      "Ġocc": 1025,
      "Ġoften": 1026,
      "row": 1027,
      "erg": 1028,
      "Ġelect": 1029,
      "Ġcomple": 1030,
      "ues": 1031,
      "Ġsame": 1032,
      "Ġmat": 1033,
      "Ġpower": 1034,
      "Ġprog": 1035,
      "Ġsa": 1036,
      "Ġmod": 1037,
      "ield": 1038,
      "Ġfam": 1039,
      "Ġfour": 1040,
      "ology": 1041,
      "Ġstr": 1042,
      "Ġunivers": 1043,
      "ived": 1044,
      "osed": 1045,
      "Ġappe": 1046,
      "Ġpa": 1047,
      "Ġcontro": 1048,
      "Ġcommun": 1049,
      "Ġval": 1050,
      "vent": 1051,
      "Ġequ": 1052,
      "Ġcould": 1053,
      "Ġif": 1054,
      "Ġsupport": 1055,
      "rist": 1056,
      "ool": 1057,
      "iew": 1058,
      "be": 1059,
      "Ġ15": 1060,
      "ording": 1061,
      "Ġfilm": 1062,
      "az": 1063,
      "ger": 1064,
      "Ġop": 1065,
      "Ġpublic": 1066,
      "Ġincre": 1067,
      "Ġclass": 1068,
      "uss": 1069,
      "ants": 1070,
      "Ġamerican": 1071,
      "hem": 1072,
      "Ġagainst": 1073,
      "ared": 1074,
      "Ġnorth": 1075,
      "ble": 1076,
      "Ġserv": 1077,
      "Ġbased": 1078,
      "iod": 1079,
      "Ġpolit": 1080,
      "Ġconsid": 1081,
      "Ġsouth": 1082,
      "to": 1083,
      "conom": 1084,
      "ample": 1085,
      "Ġ10": 1086,
      "Ġleg": 1087,
      "Ġorgan": 1088,
      "ann": 1089,
      "ired": 1090,
      "ives": 1091,
      "ting": 1092,
      "Ġpri": 1093,
      "however": 1094,
      "Ġdesign": 1095,
      "Ġseveral": 1096,
      "Ġcap": 1097,
      "Ġbefore": 1098,
      "Ġeach": 1099,
      "Ġrele": 1100,
      "Ġtrad": 1101,
      "Ġgre": 1102,
      "Ġ9": 1103,
      "Ġremain": 1104,
      "Ġconf": 1105,
      "Ġsince": 1106,
      "oy": 1107,
      "ute": 1108,
      "Ġ16": 1109,
      "anc": 1110,
      "ĠâĢĶ": 1111,
      "Ġname": 1112,
      "Ġcur": 1113,
      "Ġsmall": 1114,
      "ised": 1115,
      "Ġbecause": 1116,
      "atic": 1117,
      "Ġisland": 1118,
      "Ġcal": 1119,
      "xt": 1120,
      "Ġir": 1121,
      "Ġdifferent": 1122,
      "Ġ194": 1123,
      "Ġke": 1124,
      "ued": 1125,
      "Ġeconom": 1126,
      "Ġsl": 1127,
      "Ġland": 1128,
      "Ġshow": 1129,
      "Ġrev": 1130,
      "Ġcolle": 1131,
      "Ġref": 1132,
      "Ġgreat": 1133,
      "hn": 1134,
      "Ġins": 1135,
      "up": 1136,
      "Ġgeneral": 1137,
      "ided": 1138,
      "Ġrequ": 1139,
      "mber": 1140,
      "rent": 1141,
      "Ġperiod": 1142,
      "urch": 1143,
      "aking": 1144,
      "lu": 1145,
      "orn": 1146,
      "ices": 1147,
      "Ġfre": 1148,
      "ves": 1149,
      "Ġcour": 1150,
      "Ġright": 1151,
      "Ġsing": 1152,
      "Ġstand": 1153,
      "Ġchrist": 1154,
      "Ġuntil": 1155,
      "Ġappro": 1156,
      "Ġfun": 1157,
      "raph": 1158,
      "Ġexample": 1159,
      "Ġbook": 1160,
      "Ġdiv": 1161,
      "cer": 1162,
      "Ġday": 1163,
      "Ġlit": 1164,
      "Ġcr": 1165,
      "Ġcountry": 1166,
      "Ġcharact": 1167,
      "ccess": 1168,
      "Ġeffect": 1169,
      "Ġold": 1170,
      "Ġgo": 1171,
      "ason": 1172,
      "ier": 1173,
      "chn": 1174,
      "ries": 1175,
      "Ġsol": 1176,
      "Ġimport": 1177,
      "Ġsw": 1178,
      "Ġdid": 1179,
      "Ġes": 1180,
      "Ġback": 1181,
      "there": 1182,
      "Ġann": 1183,
      "ional": 1184,
      "Ġinclude": 1185,
      "ital": 1186,
      "ruct": 1187,
      "omin": 1188,
      "Ġrefer": 1189,
      "Ã©": 1190,
      "Ġmoder": 1191,
      "Ġmark": 1192,
      "Ġschool": 1193,
      "Ġ195": 1194,
      "Ġorder": 1195,
      "Ġrecord": 1196,
      "ave": 1197,
      "thern": 1198,
      "Ġallow": 1199,
      "iver": 1200,
      "Ġport": 1201,
      "Ġformula": 1202,
      "Ġrad": 1203,
      "way": 1204,
      "bo": 1205,
      "Ġlife": 1206,
      "Ġpresident": 1207,
      "Ġel": 1208,
      "Ġge": 1209,
      "Ġprocess": 1210,
      "Ġparty": 1211,
      "Ġpass": 1212,
      "Ġbas": 1213,
      "Ġthough": 1214,
      "Ġla": 1215,
      "Ġer": 1216,
      "Ġsec": 1217,
      "Ġseries": 1218,
      "after": 1219,
      "Ġoffic": 1220,
      "ouse": 1221,
      "Ġhy": 1222,
      "Ġbritish": 1223,
      "Ġprogram": 1224,
      "Ġaround": 1225,
      "itions": 1226,
      "ified": 1227,
      "inc": 1228,
      "Ġposs": 1229,
      "Ġprop": 1230,
      "Ġsuccess": 1231,
      "Ġx": 1232,
      "self": 1233,
      "ience": 1234,
      "Ġcult": 1235,
      "pect": 1236,
      "ides": 1237,
      "ina": 1238,
      "na": 1239,
      "Ġcompan": 1240,
      "ull": 1241,
      "Ġmid": 1242,
      "Ġthose": 1243,
      "Ġlanguage": 1244,
      "Ġprot": 1245,
      "me": 1246,
      "Ġestab": 1247,
      "ik": 1248,
      "Ġtechn": 1249,
      "Ġav": 1250,
      "Ġmag": 1251,
      "Ġmusic": 1252,
      "ene": 1253,
      "Ġmilit": 1254,
      "Ġbegan": 1255,
      "Ġdirect": 1256,
      "aim": 1257,
      "Ġant": 1258,
      "ization": 1259,
      "ner": 1260,
      "Ġnon": 1261,
      "Ġnow": 1262,
      "ane": 1263,
      "Ġpat": 1264,
      "Ġ12": 1265,
      "Ġ<": 1266,
      "Ġmillion": 1267,
      "ended": 1268,
      "ross": 1269,
      "els": 1270,
      "mb": 1271,
      "ission": 1272,
      "Ġdescrib": 1273,
      "Ġeven": 1274,
      "por": 1275,
      "Ġword": 1276,
      "ement": 1277,
      "Ġmodern": 1278,
      "Ġperson": 1279,
      "Ġexpl": 1280,
      "ird": 1281,
      "Ġopp": 1282,
      "ote": 1283,
      "ets": 1284,
      "Ġhand": 1285,
      "imate": 1286,
      "ret": 1287,
      "Ġexper": 1288,
      "ently": 1289,
      "Ġuniversity": 1290,
      "Ġdeath": 1291,
      "ov": 1292,
      "Ġpopulation": 1293,
      "Ġii": 1294,
      "Ġrepres": 1295,
      "ink": 1296,
      "Ġbat": 1297,
      "eng": 1298,
      "Ġfact": 1299,
      "Ġwithin": 1300,
      "Ġrece": 1301,
      "Ġadv": 1302,
      "most": 1303,
      "Ġterm": 1304,
      "Ġinflu": 1305,
      "Ġcoun": 1306,
      "Ġje": 1307,
      "Ġmuch": 1308,
      "Ġbar": 1309,
      "Ġlat": 1310,
      "acc": 1311,
      "Ġarea": 1312,
      "Ġindu": 1313,
      "rop": 1314,
      "Ġfore": 1315,
      "they": 1316,
      "ences": 1317,
      "ilar": 1318,
      "Ġtem": 1319,
      "Ġteam": 1320,
      "Ġamong": 1321,
      "air": 1322,
      "Ġbelie": 1323,
      "Ġinternational": 1324,
      "Ġjohn": 1325,
      "par": 1326,
      "Ġwest": 1327,
      "Ġauth": 1328,
      "son": 1329,
      "ases": 1330,
      "Ġnear": 1331,
      "Ġline": 1332,
      "ax": 1333,
      "Ġopen": 1334,
      "Ġrest": 1335,
      "ration": 1336,
      "thod": 1337,
      "Ġrun": 1338,
      "Ġpolitical": 1339,
      "iation": 1340,
      "rodu": 1341,
      "Ġ193": 1342,
      "Ġgame": 1343,
      "Ġusing": 1344,
      "Ġfollowing": 1345,
      "ug": 1346,
      "wh": 1347,
      "Ġphil": 1348,
      "these": 1349,
      "ister": 1350,
      "Ġgiv": 1351,
      "rench": 1352,
      "ize": 1353,
      "Ġhuman": 1354,
      "Ġhar": 1355,
      "Ġvery": 1356,
      "Ġcrit": 1357,
      "Ġled": 1358,
      "Ġchurch": 1359,
      "omet": 1360,
      "amed": 1361,
      "Ġstart": 1362,
      "Ġwater": 1363,
      "ius": 1364,
      "Ġtri": 1365,
      "Ġmembers": 1366,
      "used": 1367,
      "Ġpopular": 1368,
      "com": 1369,
      "Ġwhat": 1370,
      "Ġrese": 1371,
      "Ġsk": 1372,
      "Ġenglish": 1373,
      "Ġtyp": 1374,
      "Ġstat": 1375,
      "ories": 1376,
      "Ġdue": 1377,
      "cent": 1378,
      "Ġresp": 1379,
      "ense": 1380,
      "Ġjust": 1381,
      "ley": 1382,
      "Ġlast": 1383,
      "omen": 1384,
      "Ġreport": 1385,
      "Ġvers": 1386,
      "Ġhead": 1387,
      "Ġchild": 1388,
      "ament": 1389,
      "Ġstill": 1390,
      "Ġmove": 1391,
      "Ġmilitary": 1392,
      "Ġgod": 1393,
      "Ġvis": 1394,
      "yn": 1395,
      "Ġarg": 1396,
      "Ġ$": 1397,
      "Ġdown": 1398,
      "ality": 1399,
      "Ġcer": 1400,
      "iety": 1401,
      "itional": 1402,
      "ark": 1403,
      "Ġparticular": 1404,
      "Ġfield": 1405,
      "Ġfrench": 1406,
      "aced": 1407,
      "gin": 1408,
      "Ġrelig": 1409,
      "Ġve": 1410,
      "Ġreturn": 1411,
      "ness": 1412,
      "ency": 1413,
      "Ġrepresent": 1414,
      "Ġtele": 1415,
      "Ġless": 1416,
      "Ġaust": 1417,
      "Ġroman": 1418,
      "ode": 1419,
      "Ġ11": 1420,
      "Ġaff": 1421,
      "Ġlevel": 1422,
      "Ġsocial": 1423,
      "Ġeas": 1424,
      "read": 1425,
      "Ġassoc": 1426,
      "Ġeast": 1427,
      "Ġcontain": 1428,
      "Ġpresent": 1429,
      "Ġhel": 1430,
      "Ġalong": 1431,
      "Ġcharacter": 1432,
      "Ġsee": 1433,
      "Ġlim": 1434,
      "olution": 1435,
      "une": 1436,
      "tal": 1437,
      "Ġdevelopment": 1438,
      "Ġste": 1439,
      "ash": 1440,
      "ony": 1441,
      "ript": 1442,
      "oph": 1443,
      "que": 1444,
      "Ġhouse": 1445,
      "Ġhig": 1446,
      "br": 1447,
      "Ġcamp": 1448,
      "Ġhistor": 1449,
      "Ġcontrol": 1450,
      "Ġlate": 1451,
      "epend": 1452,
      "Ġmy": 1453,
      "Ġ13": 1454,
      "Ġway": 1455,
      "Ġnat": 1456,
      "Ġlab": 1457,
      "Ġep": 1458,
      "Ġ14": 1459,
      "Ġsimilar": 1460,
      "Ġsaid": 1461,
      "ator": 1462,
      "Ġhistory": 1463,
      "ival": 1464,
      "Ġbod": 1465,
      "Ġfar": 1466,
      "Ġpoint": 1467,
      "Ġide": 1468,
      "estern": 1469,
      "some": 1470,
      "Ġstandard": 1471,
      "Ġspace": 1472,
      "erv": 1473,
      "Ġwin": 1474,
      "ged": 1475,
      "Ġanother": 1476,
      "Ġsuper": 1477,
      "sc": 1478,
      "med": 1479,
      "Ġbus": 1480,
      "Ġvol": 1481,
      "ublic": 1482,
      "Ġbuild": 1483,
      "Ġhome": 1484,
      "Ġeuropean": 1485,
      "Ġprof": 1486,
      "Ġtimes": 1487,
      "Ġ192": 1488,
      "Ġplace": 1489,
      "Ġconsidered": 1490,
      "Ġhal": 1491,
      "co": 1492,
      "ograph": 1493,
      "yl": 1494,
      "Ġdev": 1495,
      "Ġmor": 1496,
      "gen": 1497,
      "Ġvi": 1498,
      "Ġiss": 1499,
      "Ġpract": 1500,
      "Ġclaim": 1501,
      "Ġred": 1502,
      "Ġindepend": 1503,
      "mer": 1504,
      "Ġdra": 1505,
      "Ġcomb": 1506,
      "Ġarch": 1507,
      "Ġmass": 1508,
      "Ġimportant": 1509,
      "Ġleft": 1510,
      "Ġident": 1511,
      "ata": 1512,
      "Ġexist": 1513,
      "Ġevery": 1514,
      "ior": 1515,
      "Ġpublished": 1516,
      "Ġtreat": 1517,
      "alth": 1518,
      "Ġang": 1519,
      "Ġindust": 1520,
      "Ġafric": 1521,
      "Ġfamily": 1522,
      "Ġcentral": 1523,
      "Ġalb": 1524,
      "Ġauthor": 1525,
      "lear": 1526,
      "Ġdecl": 1527,
      "ively": 1528,
      "Ġprim": 1529,
      "Ġshort": 1530,
      "uted": 1531,
      "ological": 1532,
      "ple": 1533,
      "Ġsal": 1534,
      "Ġview": 1535,
      "during": 1536,
      "Ġwithout": 1537,
      "ison": 1538,
      "Ġciv": 1539,
      "Ġlow": 1540,
      "Ġarmy": 1541,
      "Ġmult": 1542,
      "Ġtest": 1543,
      "Ġmen": 1544,
      "Ġband": 1545,
      "ats": 1546,
      "Ġmake": 1547,
      "ither": 1548,
      "Ġju": 1549,
      "Ġfree": 1550,
      "ont": 1551,
      "Ġcir": 1552,
      "Ġemp": 1553,
      "ler": 1554,
      "Ġalthough": 1555,
      "Ġcountries": 1556,
      "Ġsug": 1557,
      "ai": 1558,
      "Ġpur": 1559,
      "Ġrepl": 1560,
      "Ġdeveloped": 1561,
      "Ġdi": 1562,
      "urther": 1563,
      "Ġbre": 1564,
      "Ġlocal": 1565,
      "ec": 1566,
      "ured": 1567,
      "Ġgiven": 1568,
      "Ġrepublic": 1569,
      "Ġlight": 1570,
      "bs": 1571,
      "Ġsour": 1572,
      "ument": 1573,
      "Ġnet": 1574,
      "Ġintrodu": 1575,
      "oss": 1576,
      "Ġtook": 1577,
      "ese": 1578,
      "Ġtit": 1579,
      "Ġphys": 1580,
      "Ġneed": 1581,
      "Ġchang": 1582,
      "Ġlargest": 1583,
      "bert": 1584,
      "dom": 1585,
      "ried": 1586,
      "ps": 1587,
      "Ġfew": 1588,
      "Ġunion": 1589,
      "empt": 1590,
      "Ġhowever": 1591,
      "enn": 1592,
      "Ġincluded": 1593,
      "akes": 1594,
      "Ġthird": 1595,
      "Ġoccur": 1596,
      "Ġpost": 1597,
      "Ġheld": 1598,
      "iated": 1599,
      "Ġfive": 1600,
      "Ġforce": 1601,
      "Ġmethod": 1602,
      "Ġvarious": 1603,
      "day": 1604,
      "Ġbecome": 1605,
      "Ġconstit": 1606,
      "Ġstruct": 1607,
      "Ġ191": 1608,
      "according": 1609,
      "rote": 1610,
      "Ġsingle": 1611,
      "Ġblack": 1612,
      "Ġaug": 1613,
      "eder": 1614,
      "Ġwestern": 1615,
      "ling": 1616,
      "less": 1617,
      "Ġinit": 1618,
      "Ġcivil": 1619,
      "Ġusually": 1620,
      "Ġformer": 1621,
      "Ġreleased": 1622,
      "val": 1623,
      "istic": 1624,
      "Ġattack": 1625,
      "Ġreal": 1626,
      "Ġplan": 1627,
      "cil": 1628,
      "work": 1629,
      "Ġoct": 1630,
      "ctor": 1631,
      "his": 1632,
      "Ġproper": 1633,
      "ze": 1634,
      "Ġgl": 1635,
      "Ġevent": 1636,
      "Ġsystems": 1637,
      "Ġver": 1638,
      "Ġsignific": 1639,
      "ably": 1640,
      "Ġregion": 1641,
      "Ġcourt": 1642,
      "ivid": 1643,
      "Ġ]": 1644,
      "Ġtop": 1645,
      "pec": 1646,
      "ogn": 1647,
      "when": 1648,
      "Ġinvol": 1649,
      "Ġredu": 1650,
      "Ġcompany": 1651,
      "ilt": 1652,
      "Ġital": 1653,
      "Ġsix": 1654,
      "Ġcase": 1655,
      "Ġ[": 1656,
      "Ġra": 1657,
      "ember": 1658,
      "Ġjan": 1659,
      "sh": 1660,
      "Ġmot": 1661,
      "wards": 1662,
      "Ġlet": 1663,
      "mit": 1664,
      "erc": 1665,
      "Ġcond": 1666,
      "gr": 1667,
      "Ġtheory": 1668,
      "Ġage": 1669,
      "Ġbest": 1670,
      "Ġgree": 1671,
      "Ġfo": 1672,
      "ths": 1673,
      "apan": 1674,
      "Ġforces": 1675,
      "Ġprom": 1676,
      "here": 1677,
      "Ġservice": 1678,
      "Ġgrow": 1679,
      "Ġcirc": 1680,
      "Ġturn": 1681,
      "ploy": 1682,
      "Ġwrote": 1683,
      "Ġmal": 1684,
      "Ġru": 1685,
      "Ġrul": 1686,
      "ergy": 1687,
      "Ġproduction": 1688,
      "Ġaugust": 1689,
      "Ġbi": 1690,
      "Ġwide": 1691,
      "uary": 1692,
      "Ġread": 1693,
      "Ġcy": 1694,
      "Ġoriginal": 1695,
      "Ġden": 1696,
      "hest": 1697,
      "Ġspecial": 1698,
      "ae": 1699,
      "Ġactiv": 1700,
      "ividual": 1701,
      "Ġstar": 1702,
      "Ġpal": 1703,
      "Ġestablished": 1704,
      "Ġbeh": 1705,
      "Ġproduct": 1706,
      "Ġmater": 1707,
      "ential": 1708,
      "Ġinform": 1709,
      "Ġmust": 1710,
      "Ġdece": 1711,
      "ones": 1712,
      "ma": 1713,
      "Ġfunction": 1714,
      "Ġseason": 1715,
      "Ġshould": 1716,
      "Ġruss": 1717,
      "Ġjew": 1718,
      "Ġgood": 1719,
      "Ġcurrent": 1720,
      "idence": 1721,
      "Ġriver": 1722,
      "ination": 1723,
      "Ġeduc": 1724,
      "Ġmean": 1725,
      "ring": 1726,
      "Ġhow": 1727,
      "Ġsignificant": 1728,
      "Ġproduced": 1729,
      "uter": 1730,
      "Ġpress": 1731,
      "Ġproject": 1732,
      "Ġyork": 1733,
      "viet": 1734,
      "Ġwomen": 1735,
      "Ġjapan": 1736,
      "Ġwritten": 1737,
      "Ġgra": 1738,
      "let": 1739,
      "Ġdoes": 1740,
      "Ġproble": 1741,
      "ob": 1742,
      "Ġmarch": 1743,
      "Ġrole": 1744,
      "Ġareas": 1745,
      "Ġperform": 1746,
      "Ġwhite": 1747,
      "ability": 1748,
      "Ġindividual": 1749,
      "Ġattempt": 1750,
      "Ġrelations": 1751,
      "while": 1752,
      "Ġanal": 1753,
      "sequ": 1754,
      "etic": 1755,
      "Ġsum": 1756,
      "Ġnamed": 1757,
      "Ġsept": 1758,
      "Ġhaving": 1759,
      "itive": 1760,
      "Ġber": 1761,
      "Ġobs": 1762,
      "Ġaut": 1763,
      "ention": 1764,
      "Ġcame": 1765,
      "iam": 1766,
      "ining": 1767,
      "ying": 1768,
      "Ġgroups": 1769,
      "Ġbra": 1770,
      "Ġresearch": 1771,
      "Ġearth": 1772,
      "Ġstrong": 1773,
      "Ġmeas": 1774,
      "Ġobject": 1775,
      "ards": 1776,
      "Ġder": 1777,
      "ometimes": 1778,
      "Ġsun": 1779,
      "Ġsyn": 1780,
      "Ġsoviet": 1781,
      "lect": 1782,
      "Ġ0": 1783,
      "ex": 1784,
      "Ġgames": 1785,
      "Ġsepar": 1786,
      "ruction": 1787,
      "Ġsuggest": 1788,
      "ges": 1789,
      "vious": 1790,
      "Ġworks": 1791,
      "Ġdet": 1792,
      "Ġcouncil": 1793,
      "ril": 1794,
      "iving": 1795,
      "Ġdescribed": 1796,
      "Ġjanuary": 1797,
      "Ġtotal": 1798,
      "Ġengine": 1799,
      "ove": 1800,
      "ober": 1801,
      "Ġce": 1802,
      "ids": 1803,
      "Ġeconomic": 1804,
      "Ġsong": 1805,
      "ances": 1806,
      "Ġcell": 1807,
      "Ġur": 1808,
      "Ġmaterial": 1809,
      "ung": 1810,
      "Ġyou": 1811,
      "Ġbody": 1812,
      "Ġrock": 1813,
      "Ġinstit": 1814,
      "Ġanc": 1815,
      "ots": 1816,
      "raft": 1817,
      "Ġeither": 1818,
      "Ġsty": 1819,
      "Ġkingdom": 1820,
      "Ġchristian": 1821,
      "Ġoctober": 1822,
      "Ġjune": 1823,
      "Ġmic": 1824,
      "Ġtro": 1825,
      "Ġterrit": 1826,
      "lin": 1827,
      "Ġenergy": 1828,
      "yal": 1829,
      "Ġsat": 1830,
      "Ġdecember": 1831,
      "side": 1832,
      "ipp": 1833,
      "ites": 1834,
      "Ġhelp": 1835,
      "Ġcreated": 1836,
      "Ġempire": 1837,
      "Ġseptember": 1838,
      "iate": 1839,
      "ising": 1840,
      "Ġsent": 1841,
      "Ġson": 1842,
      "Ġjuly": 1843,
      "Ġjud": 1844,
      "ends": 1845,
      "Ġanim": 1846,
      "ague": 1847,
      "Ġbroad": 1848,
      "although": 1849,
      "Ġappear": 1850,
      "Ġbor": 1851,
      "Ġinterest": 1852,
      "ored": 1853,
      "Ġfurther": 1854,
      "Ġwon": 1855,
      "Ġdest": 1856,
      "Ġcat": 1857,
      "Ġtake": 1858,
      "Ġmount": 1859,
      "augh": 1860,
      "Ġofficial": 1861,
      "Ġnatural": 1862,
      "Ġsea": 1863,
      "aken": 1864,
      "thing": 1865,
      "ering": 1866,
      "aces": 1867,
      "sy": 1868,
      "ected": 1869,
      "Ġfrequ": 1870,
      "gy": 1871,
      "Ġpolic": 1872,
      "iness": 1873,
      "Ġcover": 1874,
      "Ġothers": 1875,
      "Ġlist": 1876,
      "Ġcare": 1877,
      "ware": 1878,
      "Ġpot": 1879,
      "Ġalbum": 1880,
      "ification": 1881,
      "ball": 1882,
      "Ġara": 1883,
      "Ġsometimes": 1884,
      "Ġkill": 1885,
      "Ġvir": 1886,
      "20": 1887,
      "Ġbuilt": 1888,
      "Ġexpress": 1889,
      "Ġreceived": 1890,
      "Ġrather": 1891,
      "osp": 1892,
      "pecially": 1893,
      "Ġliter": 1894,
      "with": 1895,
      "ada": 1896,
      "Ġspecies": 1897,
      "olic": 1898,
      "avy": 1899,
      "mar": 1900,
      "ox": 1901,
      "cing": 1902,
      "Ġagre": 1903,
      "Ġfund": 1904,
      "Ġgermany": 1905,
      "ott": 1906,
      "Ġpriv": 1907,
      "aster": 1908,
      "Ġtown": 1909,
      "ead": 1910,
      "Ġnove": 1911,
      "atures": 1912,
      "Ġcommand": 1913,
      "Ġfull": 1914,
      "Ġespecially": 1915,
      "asing": 1916,
      "Ġnovember": 1917,
      "su": 1918,
      "Ġdata": 1919,
      "Ġconcer": 1920,
      "rict": 1921,
      "ched": 1922,
      "Ġstre": 1923,
      "Ġchildren": 1924,
      "ham": 1925,
      "Ġyoun": 1926,
      "Ġhalf": 1927,
      "get": 1928,
      "Ġnorthern": 1929,
      "de": 1930,
      "Ġvict": 1931,
      "Ġaustral": 1932,
      "Ġrecogn": 1933,
      "Ġgenerally": 1934,
      "Ġsold": 1935,
      "Ġeth": 1936,
      "Ġearli": 1937,
      "Ġdemoc": 1938,
      "Ġcontinued": 1939,
      "Ġdeter": 1940,
      "Ġdri": 1941,
      "Ġlanguages": 1942,
      "Ġtur": 1943,
      "Ġplayed": 1944,
      "Ġnever": 1945,
      "ops": 1946,
      "Ġapril": 1947,
      "Ġcompet": 1948,
      "Ġsuff": 1949,
      "Ġpain": 1950,
      "Ġscience": 1951,
      "Ġ25": 1952,
      "Ġadmin": 1953,
      "ending": 1954,
      "Ġversion": 1955,
      "acy": 1956,
      "Ġmiss": 1957,
      "Ġblock": 1958,
      "Ġdeb": 1959,
      "Ġmanag": 1960,
      "Ġ30": 1961,
      "Ġtype": 1962,
      "Ġdr": 1963,
      "Ġstudy": 1964,
      "Ġcop": 1965,
      "Ġdiscover": 1966,
      "Ġship": 1967,
      "Ġpossible": 1968,
      "bur": 1969,
      "ways": 1970,
      "Ġfather": 1971,
      "go": 1972,
      "mon": 1973,
      "Ġinvest": 1974,
      "Ġaddition": 1975,
      "iction": 1976,
      "ming": 1977,
      "Ġnuc": 1978,
      "Ġdomin": 1979,
      "Ġscient": 1980,
      "of": 1981,
      "many": 1982,
      "Ġposition": 1983,
      "Ġfeder": 1984,
      "Ġox": 1985,
      "pre": 1986,
      "Ġbur": 1987,
      "craft": 1988,
      "Ġmaking": 1989,
      "Ġfrance": 1990,
      "vision": 1991,
      "Ġconcept": 1992,
      "Ġphilos": 1993,
      "Ġclose": 1994,
      "ned": 1995,
      "Ġlower": 1996,
      "ators": 1997,
      "Ġren": 1998,
      "anish": 1999,
      "incip": 2000,
      "Ġengland": 2001,
      "Ġside": 2002,
      "Ġavail": 2003,
      "Ġdiff": 2004,
      "enced": 2005,
      "Ġwal": 2006,
      "tic": 2007,
      "Ġprevious": 2008,
      "vir": 2009,
      "Ġcost": 2010,
      "Ġhen": 2011,
      "Ġpred": 2012,
      "Ġho": 2013,
      "Ġbal": 2014,
      "Ġmember": 2015,
      "Ġhold": 2016,
      "Ġneg": 2017,
      "dle": 2018,
      "gether": 2019,
      "Ġrange": 2020,
      "Ġaccept": 2021,
      "Ġnext": 2022,
      "Ġprincip": 2023,
      "Ġcapital": 2024,
      "utes": 2025,
      "Ġmovement": 2026,
      "ches": 2027,
      "Ġfail": 2028,
      "apt": 2029,
      "Ġsouthern": 2030,
      "Ġmarket": 2031,
      "Ġsound": 2032,
      "Ġdays": 2033,
      "Ġforeign": 2034,
      "Ġenc": 2035,
      "Ġfinal": 2036,
      "Ġimpro": 2037,
      "Ġfa": 2038,
      "ounced": 2039,
      "Ġtre": 2040,
      "ief": 2041,
      "Ġchange": 2042,
      "Ġcommit": 2043,
      "Ġcoast": 2044,
      "Ġsex": 2045,
      "Ġsel": 2046,
      "arian": 2047,
      "Ġrights": 2048,
      "Ġbattle": 2049,
      "Ġcapt": 2050,
      "Ġsubject": 2051,
      "osition": 2052,
      "ude": 2053,
      "Ġbase": 2054,
      "bru": 2055,
      "Ġknow": 2056,
      "oms": 2057,
      "utions": 2058,
      "Ġtrade": 2059,
      "Ġwee": 2060,
      "Ġgold": 2061,
      "Ġmodel": 2062,
      "orts": 2063,
      "ensive": 2064,
      "Ġterms": 2065,
      "Ġprofess": 2066,
      "Ġach": 2067,
      "ney": 2068,
      "Ġradio": 2069,
      "Ġcomplex": 2070,
      "Ġfri": 2071,
      "Ġtemper": 2072,
      "Ġprote": 2073,
      "Ġsociety": 2074,
      "Ġreligious": 2075,
      "Ġsil": 2076,
      "cul": 2077,
      "Ġbegin": 2078,
      "Ġamerica": 2079,
      "Ġ2010": 2080,
      "Ġhimself": 2081,
      "ains": 2082,
      "Ġcertain": 2083,
      "Ġ>": 2084,
      "Ġregard": 2085,
      "Ġleast": 2086,
      "Ġgreek": 2087,
      "Ã¡": 2088,
      "not": 2089,
      "ached": 2090,
      "face": 2091,
      "Ġcath": 2092,
      "Ġseen": 2093,
      "Ġcoll": 2094,
      "Ġdu": 2095,
      "Ġaward": 2096,
      "Ġhost": 2097,
      "Ġoffice": 2098,
      "Ġeastern": 2099,
      "Ġdou": 2100,
      "ints": 2101,
      "Ġformed": 2102,
      "Ġinformation": 2103,
      "imately": 2104,
      "ained": 2105,
      "Ġhigher": 2106,
      "rug": 2107,
      "Ġconstitution": 2108,
      "Ġcomplete": 2109,
      "Ġrail": 2110,
      "sp": 2111,
      "ban": 2112,
      "Ġcenter": 2113,
      "ondon": 2114,
      "Ġinte": 2115,
      "Ġtour": 2116,
      "Ġtar": 2117,
      "bruary": 2118,
      "arily": 2119,
      "Ġfac": 2120,
      "Ġaccount": 2121,
      "Ġfebruary": 2122,
      "Ġislands": 2123,
      "mal": 2124,
      "Ġchem": 2125,
      "Ġhol": 2126,
      "Ġleague": 2127,
      "ana": 2128,
      "Ġfall": 2129,
      "Ġabove": 2130,
      "Ġliber": 2131,
      "line": 2132,
      "Ġfoot": 2133,
      "Ġminister": 2134,
      "ille": 2135,
      "Ġintroduced": 2136,
      "Ġcast": 2137,
      "Ġtravel": 2138,
      "rew": 2139,
      "Ġhard": 2140,
      "Ġfem": 2141,
      "Ġstory": 2142,
      "Ġanti": 2143,
      "Ġnetwork": 2144,
      "uel": 2145,
      "inted": 2146,
      "iment": 2147,
      "Ġchina": 2148,
      "Ġthus": 2149,
      "Ġmach": 2150,
      "Ġ1990": 2151,
      "Ġmagn": 2152,
      "Ġill": 2153,
      "Ġbusiness": 2154,
      "Ġ100": 2155,
      "Ġdied": 2156,
      "Ġlondon": 2157,
      "icle": 2158,
      "Ġavailable": 2159,
      "chan": 2160,
      "ades": 2161,
      "Ġche": 2162,
      "Ġwind": 2163,
      "Ġpen": 2164,
      "pite": 2165,
      "ster": 2166,
      "Ġparts": 2167,
      "Ġfind": 2168,
      "Ġfeature": 2169,
      "she": 2170,
      "Ġcong": 2171,
      "Ġwilliam": 2172,
      "lement": 2173,
      "Ġmiddle": 2174,
      "Ġmeans": 2175,
      "Ġstyle": 2176,
      "Ġitself": 2177,
      "Ġadop": 2178,
      "Ġuk": 2179,
      "ĠÂ": 2180,
      "Ġten": 2181,
      "ky": 2182,
      "lam": 2183,
      "Ġexec": 2184,
      "Ġtax": 2185,
      "Ġfood": 2186,
      "Ġeducation": 2187,
      "Ġaccording": 2188,
      "Ġsam": 2189,
      "aries": 2190,
      "bal": 2191,
      "hib": 2192,
      "Ġ190": 2193,
      "Ġroyal": 2194,
      "Ġthroughout": 2195,
      "Ġsen": 2196,
      "Ġhor": 2197,
      "Ġoffer": 2198,
      "Ġabs": 2199,
      "Ġdoc": 2200,
      "Ġcontrib": 2201,
      "Ġrespect": 2202,
      "Ġelection": 2203,
      "Ġq": 2204,
      "Ġconsist": 2205,
      "lex": 2206,
      "Ġlog": 2207,
      "Ġgeor": 2208,
      "pr": 2209,
      "Ġemploy": 2210,
      "Ġtraditional": 2211,
      "ples": 2212,
      "rael": 2213,
      "ape": 2214,
      "Ġadminist": 2215,
      "istan": 2216,
      "Ġforms": 2217,
      "Ġtogether": 2218,
      "Ġfer": 2219,
      "Ġfollowed": 2220,
      "Ġ21": 2221,
      "Ġindic": 2222,
      "Ġnumbers": 2223,
      "ique": 2224,
      "Ġrelative": 2225,
      "Ġtelevision": 2226,
      "Ġbud": 2227,
      "Ġnovel": 2228,
      "Ġsan": 2229,
      "Ġkey": 2230,
      "Ġ2000": 2231,
      "Ġhealth": 2232,
      "ino": 2233,
      "Ġdel": 2234,
      "ta": 2235,
      "Ġhom": 2236,
      "Ġapplic": 2237,
      "Ġconn": 2238,
      "Ġrate": 2239,
      "viron": 2240,
      "forman": 2241,
      "Ġlaun": 2242,
      "Ġborn": 2243,
      "Ġground": 2244,
      "ns": 2245,
      "Ġcolon": 2246,
      "Ġaver": 2247,
      "Ġmultip": 2248,
      "Ġvo": 2249,
      "anted": 2250,
      "Ġ1980": 2251,
      "Ġlittle": 2252,
      "Ġrelated": 2253,
      "since": 2254,
      "Ġsubst": 2255,
      "ateg": 2256,
      "Ġcommunity": 2257,
      "ption": 2258,
      "Ġviol": 2259,
      "Ġdom": 2260,
      "Ġ2011": 2261,
      "Ġ2008": 2262,
      "Ġsqu": 2263,
      "Ġperforman": 2264,
      "Ġentire": 2265,
      "Ġinfluence": 2266,
      "Ġrule": 2267,
      "Ġalmost": 2268,
      "fact": 2269,
      "ha": 2270,
      "Ġclub": 2271,
      "inese": 2272,
      "Ġcross": 2273,
      "Ġhyd": 2274,
      "oted": 2275,
      "omb": 2276,
      "Ġdon": 2277,
      "Ġpsy": 2278,
      "Ġevidence": 2279,
      "Ġsem": 2280,
      "Ġacross": 2281,
      "po": 2282,
      "Ġfire": 2283,
      "Ġenviron": 2284,
      "Ġpark": 2285,
      "Ġcit": 2286,
      "Ġput": 2287,
      "Ġpercent": 2288,
      "Ġfoc": 2289,
      "Ġelements": 2290,
      "Ġsit": 2291,
      "inal": 2292,
      "Ġaccess": 2293,
      "Ġmaintain": 2294,
      "Ġfav": 2295,
      "Ġimm": 2296,
      "Ġparli": 2297,
      "Ġfig": 2298,
      "Ġachie": 2299,
      "Ġinstead": 2300,
      "Ġremained": 2301,
      "Ġparticularly": 2302,
      "ceed": 2303,
      "erous": 2304,
      "Ġtrib": 2305,
      "Ġsuccessful": 2306,
      "Ġwhose": 2307,
      "Ġindia": 2308,
      "Ġestim": 2309,
      "Ġdepart": 2310,
      "Ġcam": 2311,
      "Ġcomputer": 2312,
      "Ġ189": 2313,
      "Ġpoly": 2314,
      "Ġculture": 2315,
      "Ġupon": 2316,
      "Ġarab": 2317,
      "aves": 2318,
      "Ġschol": 2319,
      "Ġdam": 2320,
      "Ġ2009": 2321,
      "like": 2322,
      "adem": 2323,
      "Ġlost": 2324,
      "Ġball": 2325,
      "rap": 2326,
      "Ġexcept": 2327,
      "idge": 2328,
      "Ġ2007": 2329,
      "Ġstri": 2330,
      "Ġcollege": 2331,
      "icult": 2332,
      "Ġmeet": 2333,
      "aign": 2334,
      "lim": 2335,
      "oman": 2336,
      "Ġroad": 2337,
      "Ġ1970": 2338,
      "Ġsecret": 2339,
      "Ġincreased": 2340,
      "Ġglo": 2341,
      "Ġreform": 2342,
      "ened": 2343,
      "reg": 2344,
      "Ġlib": 2345,
      "Ġdisp": 2346,
      "Ġasse": 2347,
      "Ġsource": 2348,
      "Ġgrand": 2349,
      "Ġtal": 2350,
      "Ġcritic": 2351,
      "lation": 2352,
      "Ġdemocr": 2353,
      "stand": 2354,
      "Ġparliament": 2355,
      "Ġdav": 2356,
      "Ġconvent": 2357,
      "Ġrich": 2358,
      "Ġhit": 2359,
      "Ġvalue": 2360,
      "Ġrequired": 2361,
      "ror": 2362,
      "Ġaud": 2363,
      "Ġreported": 2364,
      "Ġbuilding": 2365,
      "uses": 2366,
      "Ġsoft": 2367,
      "Ġspecific": 2368,
      "Ġdistrib": 2369,
      "Ġdispl": 2370,
      "Ġcampaign": 2371,
      "Ġservices": 2372,
      "Ġthought": 2373,
      "rast": 2374,
      "Ġlatin": 2375,
      "Ġassociated": 2376,
      "Ġbc": 2377,
      "Ġchinese": 2378,
      "Ġtaken": 2379,
      "Ġ50": 2380,
      "atory": 2381,
      "hers": 2382,
      "Ġnature": 2383,
      "Ġspeed": 2384,
      "ingu": 2385,
      "ope": 2386,
      "xic": 2387,
      "Ġisrael": 2388,
      "cle": 2389,
      "Ġgreen": 2390,
      "Ġwent": 2391,
      "Ġprob": 2392,
      "Ġmechan": 2393,
      "Ġtradition": 2394,
      "Ġlive": 2395,
      "rian": 2396,
      "Ġdistin": 2397,
      "Ġdig": 2398,
      "Ġstructure": 2399,
      "thes": 2400,
      "Ġ2012": 2401,
      "Ġlocated": 2402,
      "aps": 2403,
      "Ġbrother": 2404,
      "Ġrespons": 2405,
      "Ġmoved": 2406,
      "bit": 2407,
      "Ġ&": 2408,
      "ours": 2409,
      "Ġancient": 2410,
      "Ġhon": 2411,
      "Ġpsych": 2412,
      "Ġrank": 2413,
      "Ġmajority": 2414,
      "Ġapprox": 2415,
      "king": 2416,
      "Ġwords": 2417,
      "bon": 2418,
      "Ġallowed": 2419,
      "Ġul": 2420,
      "Ġself": 2421,
      "Ġamount": 2422,
      "Ġrevolution": 2423,
      "Ġfederal": 2424,
      "rial": 2425,
      "Ġreferred": 2426,
      "Ġdefe": 2427,
      "Ġquest": 2428,
      "Ġprivate": 2429,
      "Ġsize": 2430,
      "umb": 2431,
      "ery": 2432,
      "Ġyoung": 2433,
      "wor": 2434,
      "Ġincreasing": 2435,
      "Ġmeaning": 2436,
      "ara": 2437,
      "Ġacadem": 2438,
      "Ġcities": 2439,
      "Ġcode": 2440,
      "Ġdeg": 2441,
      "Ġmonths": 2442,
      "Ġbir": 2443,
      "Ġappo": 2444,
      "Ġannounced": 2445,
      "uments": 2446,
      "Ġconsider": 2447,
      "Ġdifficult": 2448,
      "rought": 2449,
      "Ġafrica": 2450,
      "Ġpast": 2451,
      "ria": 2452,
      "set": 2453,
      "Ġ1960": 2454,
      "Ġsay": 2455,
      "Ġindian": 2456,
      "Ġexam": 2457,
      "rown": 2458,
      "Ġfilms": 2459,
      "Ġindependent": 2460,
      "Ġtext": 2461,
      "Ġdut": 2462,
      "rated": 2463,
      "Ġtransport": 2464,
      "Ġmer": 2465,
      "iers": 2466,
      "Ġgave": 2467,
      "Ġkh": 2468,
      "Ġ2006": 2469,
      "Ġindustry": 2470,
      "Ġmight": 2471,
      "Ġonce": 2472,
      "Ġprovide": 2473,
      "Ġprovided": 2474,
      "Ġbank": 2475,
      "Ġaction": 2476,
      "Ġnations": 2477,
      "Ġpolicy": 2478,
      "Ġspanish": 2479,
      "Ġcho": 2480,
      "atives": 2481,
      "iding": 2482,
      "Ġprime": 2483,
      "Ġstarted": 2484,
      "Ġrelationship": 2485,
      "ald": 2486,
      "Ġcondu": 2487,
      "Ġmac": 2488,
      "Ġcommerc": 2489,
      "Ġdefin": 2490,
      "Ġfront": 2491,
      "Ġsn": 2492,
      "Ġevents": 2493,
      "Ġable": 2494,
      "Ġelectron": 2495,
      "Ġbecom": 2496,
      "put": 2497,
      "Ã¶": 2498,
      "Ġgrad": 2499,
      "Ġast": 2500,
      "urity": 2501,
      "aff": 2502,
      "den": 2503,
      "Ġeconomy": 2504,
      "ems": 2505,
      "Ġcases": 2506,
      "usion": 2507,
      "Ġchamp": 2508,
      "Ġworking": 2509,
      "Ġess": 2510,
      "Ġcod": 2511,
      "bor": 2512,
      "Ġbelieved": 2513,
      "Ġpun": 2514,
      "ef": 2515,
      "Ġlay": 2516,
      "anch": 2517,
      "Ġmix": 2518,
      "Ġwall": 2519,
      "Ġspir": 2520,
      "Ġaverage": 2521,
      "Ġcolor": 2522,
      "Ġsaw": 2523,
      "ush": 2524,
      "Ġ2014": 2525,
      "isc": 2526,
      "Ġenvironment": 2527,
      "Ġestablish": 2528,
      "ume": 2529,
      "ols": 2530,
      "Ġsequ": 2531,
      "ength": 2532,
      "Ġfut": 2533,
      "Ġphilosoph": 2534,
      "Ġcatholic": 2535,
      "Ġsurv": 2536,
      "Ġdefined": 2537,
      "Ġlu": 2538,
      "Ġleading": 2539,
      "from": 2540,
      "Ġcreat": 2541,
      "Ġ186": 2542,
      "more": 2543,
      "Ġlimited": 2544,
      "ows": 2545,
      "Ġ2013": 2546,
      "ked": 2547,
      "ibility": 2548,
      "Ġ2015": 2549,
      "Ġmathem": 2550,
      "ii": 2551,
      "ufact": 2552,
      "Ġ24": 2553,
      "Ġquant": 2554,
      "Ġcard": 2555,
      "Ġsymb": 2556,
      "Ġincludes": 2557,
      "Ġ2016": 2558,
      "Ġregular": 2559,
      "Ġinstr": 2560,
      "ica": 2561,
      "cast": 2562,
      "Ġleaders": 2563,
      "Ġmother": 2564,
      "Ġarri": 2565,
      "Ġlack": 2566,
      "Ġoccup": 2567,
      "ought": 2568,
      "Ġeventually": 2569,
      "Ġpan": 2570,
      "ls": 2571,
      "action": 2572,
      "Ġserved": 2573,
      "Ġcommission": 2574,
      "tt": 2575,
      "Ġtoo": 2576,
      "Ġliving": 2577,
      "ties": 2578,
      "ises": 2579,
      "itor": 2580,
      "Ġparticip": 2581,
      "Ġera": 2582,
      "Ġstep": 2583,
      "Ġobser": 2584,
      "Ġflow": 2585,
      "Ġstated": 2586,
      "Ġseven": 2587,
      "Ġtex": 2588,
      "Ġcause": 2589,
      "Ġincrease": 2590,
      "Ġelected": 2591,
      "Ġ2005": 2592,
      "ford": 2593,
      "Ġaircraft": 2594,
      "Ġjer": 2595,
      "Ġchief": 2596,
      "Ġemper": 2597,
      "selves": 2598,
      "Ġ188": 2599,
      "Ġenter": 2600,
      "Ġlegal": 2601,
      "Ġdesigned": 2602,
      "Ġoutside": 2603,
      "Ġvide": 2604,
      "Ġmanufact": 2605,
      "Ġtypically": 2606,
      "Ġeight": 2607,
      "Ġpeace": 2608,
      "Ġmax": 2609,
      "Ġdyn": 2610,
      "Ġtitle": 2611,
      "icient": 2612,
      "Ġopt": 2613,
      "ires": 2614,
      "Ġreb": 2615,
      "Ġord": 2616,
      "rest": 2617,
      "Ġcontinu": 2618,
      "Ġfeatures": 2619,
      "Ġsym": 2620,
      "Ġnight": 2621,
      "Ġafrican": 2622,
      "ington": 2623,
      "Ġ187": 2624,
      "Ġappeared": 2625,
      "asion": 2626,
      "Ġhydro": 2627,
      "'t": 2628,
      "Ġbrought": 2629,
      "anks": 2630,
      "Ġcou": 2631,
      "Ġunit": 2632,
      "Ġnecess": 2633,
      "Ġcaused": 2634,
      "Ġtechnology": 2635,
      "Ġreturned": 2636,
      "Ġgrowth": 2637,
      "ama": 2638,
      "Ġet": 2639,
      "Ġwriting": 2640,
      "Ġgas": 2641,
      "Ġoil": 2642,
      "oney": 2643,
      "ray": 2644,
      "Ġconstant": 2645,
      "Ġlink": 2646,
      "Ġmedia": 2647,
      "Ġemerg": 2648,
      "Ġtypes": 2649,
      "Ġnuclear": 2650,
      "Ġaltern": 2651,
      "ands": 2652,
      "Ġcommonly": 2653,
      "che": 2654,
      "ka": 2655,
      "Ġham": 2656,
      "Ġpractice": 2657,
      "Ġpay": 2658,
      "Ġemb": 2659,
      "Ġfounded": 2660,
      "oid": 2661,
      "Ġdivision": 2662,
      "Ġchanges": 2663,
      "Ġbeginning": 2664,
      "Ġpow": 2665,
      "Ġwhether": 2666,
      "ography": 2667,
      "Ġnation": 2668,
      "Ġminor": 2669,
      "Ġwat": 2670,
      "Ġlear": 2671,
      "Ġhall": 2672,
      "Ġwidely": 2673,
      "gypt": 2674,
      "des": 2675,
      "Ġjour": 2676,
      "ilities": 2677,
      "50": 2678,
      "mediate": 2679,
      "ression": 2680,
      "Ġthemselves": 2681,
      "Ġcommunic": 2682,
      "Ġsubsequ": 2683,
      "Ġstation": 2684,
      "ify": 2685,
      "omp": 2686,
      "Ġsurface": 2687,
      "Ġcanada": 2688,
      "Ġpurp": 2689,
      "Ġcome": 2690,
      "Ġrussian": 2691,
      "itude": 2692,
      "Ġuses": 2693,
      "Ġstudents": 2694,
      "ert": 2695,
      "Ġrap": 2696,
      "Ġ2018": 2697,
      "Ġstra": 2698,
      "ulated": 2699,
      "Ġrh": 2700,
      "aint": 2701,
      "Ġterritory": 2702,
      "Ġbill": 2703,
      "Ġ2017": 2704,
      "Ġphot": 2705,
      "Ġpoints": 2706,
      "cript": 2707,
      "iting": 2708,
      "ania": 2709,
      "Ġbig": 2710,
      "uries": 2711,
      "burg": 2712,
      "Ġjewish": 2713,
      "Ġaway": 2714,
      "Ġrecorded": 2715,
      "Ġprimary": 2716,
      "Ġeffects": 2717,
      "Ġcongress": 2718,
      "ference": 2719,
      "Ġearlier": 2720,
      "Ġplayer": 2721,
      "Ġprevent": 2722,
      "Ġ=": 2723,
      "Ġhighest": 2724,
      "Ġtoday": 2725,
      "Ġperformance": 2726,
      "rad": 2727,
      "Ġever": 2728,
      "Ġ40": 2729,
      "Ġgreater": 2730,
      "Ġphysical": 2731,
      "Ġfle": 2732,
      "Ġmart": 2733,
      "Ġseparate": 2734,
      "Ġnar": 2735,
      "Ġadded": 2736,
      "orm": 2737,
      "Ġpersonal": 2738,
      "pper": 2739,
      "Ġproposed": 2740,
      "Ġloss": 2741,
      "Ġlines": 2742,
      "Ġ23": 2743,
      "Ġdim": 2744,
      "Ġbritain": 2745,
      "Ġislam": 2746,
      "ero": 2747,
      "Ġgal": 2748,
      "Ġsecurity": 2749,
      "Ġclear": 2750,
      "seum": 2751,
      "Ġproduce": 2752,
      "resp": 2753,
      "Ġrelease": 2754,
      "itch": 2755,
      "Ġmostly": 2756,
      "Ġproblem": 2757,
      "lied": 2758,
      "Ġwood": 2759,
      "Ġdeterm": 2760,
      "Ġcut": 2761,
      "Ġbow": 2762,
      "Ġjapanese": 2763,
      "Ġcand": 2764,
      "Ġnames": 2765,
      "Ġec": 2766,
      "ulf": 2767,
      "Ġassemb": 2768,
      "Ġegypt": 2769,
      "Ġlarger": 2770,
      "icles": 2771,
      "Ġbelow": 2772,
      "Ġ2019": 2773,
      "Ġget": 2774,
      "sec": 2775,
      "Ġaddress": 2776,
      "Ġbillion": 2777,
      "Ġrequire": 2778,
      "Ġpaul": 2779,
      "inary": 2780,
      "Ġelement": 2781,
      "Ġbooks": 2782,
      "Ġprec": 2783,
      "men": 2784,
      "Ġfif": 2785,
      "Ġmill": 2786,
      "hab": 2787,
      "Ġsite": 2788,
      "Ġlength": 2789,
      "Ġconver": 2790,
      "Ġrat": 2791,
      "Ġalways": 2792,
      "itect": 2793,
      "Ġmel": 2794,
      "Ġstudies": 2795,
      "Ġfuture": 2796,
      "Ġitalian": 2797,
      "ern": 2798,
      "Ġconserv": 2799,
      "Ġcommercial": 2800,
      "je": 2801,
      "Ġrome": 2802,
      "pped": 2803,
      "Ġlabor": 2804,
      "Ġemperor": 2805,
      "Ġlou": 2806,
      "ÃŃ": 2807,
      "using": 2808,
      "Ġlook": 2809,
      "aching": 2810,
      "Ġinvolved": 2811,
      "Ġaustralia": 2812,
      "Ġconstruction": 2813,
      "Ġfort": 2814,
      "lled": 2815,
      "Ġspeak": 2816,
      "Ġfinanc": 2817,
      "Ġdeal": 2818,
      "ym": 2819,
      "ension": 2820,
      "Ġlonger": 2821,
      "pected": 2822,
      "Ġvia": 2823,
      "Ġmuseum": 2824,
      "urs": 2825,
      "Ġreplaced": 2826,
      "leg": 2827,
      "Ġsoftware": 2828,
      "oll": 2829,
      "Ġschools": 2830,
      "Ġfranc": 2831,
      "Ġlegis": 2832,
      "anded": 2833,
      "Ġreason": 2834,
      "ump": 2835,
      "Ġindependence": 2836,
      "Ġsupported": 2837,
      "Ġbound": 2838,
      "anced": 2839,
      "kn": 2840,
      "ste": 2841,
      "izing": 2842,
      "Ġsitu": 2843,
      "roy": 2844,
      "ago": 2845,
      "Ġ22": 2846,
      "Ġque": 2847,
      "Ġacqu": 2848,
      "Ġ2004": 2849,
      "Ġmuslim": 2850,
      "Ġmicro": 2851,
      "Ġsus": 2852,
      "Ġboard": 2853,
      "Ġlove": 2854,
      "Ġpressure": 2855,
      "Ġprotest": 2856,
      "Ġunits": 2857,
      "Ġarchitect": 2858,
      "Ġweek": 2859,
      "Ġcitiz": 2860,
      "Ġresist": 2861,
      "Ġult": 2862,
      "Ġvariety": 2863,
      "rary": 2864,
      "Ġcust": 2865,
      "Ġplayers": 2866,
      "Ġletter": 2867,
      "Ġdocument": 2868,
      "Ġdise": 2869,
      "lands": 2870,
      "Ġimplement": 2871,
      "Ġremains": 2872,
      "another": 2873,
      "nal": 2874,
      "Äģ": 2875,
      "Ġ2001": 2876,
      "Ġvari": 2877,
      "Ġfest": 2878,
      "Ġfell": 2879,
      "asc": 2880,
      "Ġcentre": 2881,
      "Ġhun": 2882,
      "Ġresults": 2883,
      "Ġelectric": 2884,
      "Ġcultural": 2885,
      "Ġdeli": 2886,
      "isions": 2887,
      "Ġweap": 2888,
      "ysis": 2889,
      "Ġitaly": 2890,
      "Ġtreaty": 2891,
      "Ġidea": 2892,
      "Ġlargely": 2893,
      "Ġdial": 2894,
      "Ġconflic": 2895,
      "antic": 2896,
      "Ġconditions": 2897,
      "Ġethn": 2898,
      "respond": 2899,
      "Ġheav": 2900,
      "Ġoriginally": 2901,
      "Ġorganization": 2902,
      "Ġdirectly": 2903,
      "bec": 2904,
      "Ġalex": 2905,
      "Ġfra": 2906,
      "Ġnav": 2907,
      "Ġris": 2908,
      "Ġmetal": 2909,
      "Ġepis": 2910,
      "Ġcle": 2911,
      "aged": 2912,
      "off": 2913,
      "Ġpie": 2914,
      "osing": 2915,
      "mitted": 2916,
      "Ġcharacters": 2917,
      "Ġze": 2918,
      "Ġreview": 2919,
      "agn": 2920,
      "Ġbetter": 2921,
      "Ġproblems": 2922,
      "ole": 2923,
      "Ġvill": 2924,
      "quote": 2925,
      "Ġscientific": 2926,
      "ously": 2927,
      "ental": 2928,
      "Ġassist": 2929,
      "porary": 2930,
      "hel": 2931,
      "itz": 2932,
      "ari": 2933,
      "Ġdiscuss": 2934,
      "ready": 2935,
      "Ġblockquote": 2936,
      "aut": 2937,
      "jo": 2938,
      "Ġplat": 2939,
      "Ġvideo": 2940,
      "Ġfight": 2941,
      "Ġlaws": 2942,
      "ques": 2943,
      "Ġestimated": 2944,
      "Ġhot": 2945,
      "Ġmur": 2946,
      "Ġnative": 2947,
      "Ġcharles": 2948,
      "Ã¼": 2949,
      "Ġblue": 2950,
      "ledge": 2951,
      "Ġblood": 2952,
      "Ġassociation": 2953,
      "Ġjames": 2954,
      "Ġcorrespond": 2955,
      "Ġoperations": 2956,
      "Ġbehav": 2957,
      "Ġsources": 2958,
      "Ġproducts": 2959,
      "Ġbene": 2960,
      "ables": 2961,
      "unic": 2962,
      "elling": 2963,
      "Ġperformed": 2964,
      "Ġlikely": 2965,
      "Ġmathemat": 2966,
      "Ġrecent": 2967,
      "ds": 2968,
      "ugh": 2969,
      "Ġwife": 2970,
      "istry": 2971,
      "omm": 2972,
      "Ġmole": 2973,
      "Ġrot": 2974,
      "ricult": 2975,
      "then": 2976,
      "Ġspirit": 2977,
      "Ġsaf": 2978,
      "lying": 2979,
      "onse": 2980,
      "wood": 2981,
      "Ġround": 2982,
      "Ġbit": 2983,
      "Ġkilled": 2984,
      "Ġsett": 2985,
      "Ġgeorge": 2986,
      "add": 2987,
      "aving": 2988,
      "Ġhistorical": 2989,
      "Ġmeasure": 2990,
      "where": 2991,
      "Ġthreat": 2992,
      "Ġtowards": 2993,
      "Ġauthority": 2994,
      "Ġcompanies": 2995,
      "Ġcommitte": 2996,
      "Ġ2020": 2997,
      "Ġbirth": 2998,
      "Ġimper": 2999,
      "Ġparis": 3000,
      "Ġdavid": 3001,
      "Ġbreak": 3002,
      "Ġstreet": 3003,
      "Ġapproximately": 3004,
      "ift": 3005,
      "Ġadopted": 3006,
      "uch": 3007,
      "Ġ184": 3008,
      "anned": 3009,
      "Ġven": 3010,
      "Ġtemperature": 3011,
      "Ġic": 3012,
      "Ġgun": 3013,
      "Ġconsum": 3014,
      "Ġnumerous": 3015,
      "Ġextre": 3016,
      "Ġchann": 3017,
      "Ġscale": 3018,
      "berg": 3019,
      "Ġour": 3020,
      "Ġalready": 3021,
      "aring": 3022,
      "ki": 3023,
      "Ġoperation": 3024,
      "Ġreligion": 3025,
      "Ġspok": 3026,
      "Ġresponse": 3027,
      "ores": 3028,
      "oses": 3029,
      "Ġmission": 3030,
      "Ġcounty": 3031,
      "Ġcele": 3032,
      "Ġreached": 3033,
      "utive": 3034,
      "Ġclaimed": 3035,
      "Ġstage": 3036,
      "Ã³": 3037,
      "riage": 3038,
      "Ġos": 3039,
      "Ġnomin": 3040,
      "igned": 3041,
      "Ġscholars": 3042,
      "Ġsettle": 3043,
      "Ġindustrial": 3044,
      "pa": 3045,
      "Ġdone": 3046,
      "Ġsmaller": 3047,
      "Ġ26": 3048,
      "Ġquar": 3049,
      "Ġpap": 3050,
      "Ġtrue": 3051,
      "Ġbul": 3052,
      "Ġdemon": 3053,
      "Ġgar": 3054,
      "Ġdemocratic": 3055,
      "isation": 3056,
      "hist": 3057,
      "Ġkore": 3058,
      "Ġmess": 3059,
      "Ġleader": 3060,
      "Ġcareer": 3061,
      "Ġobtain": 3062,
      "Ġcry": 3063,
      "ston": 3064,
      "ini": 3065,
      "Ġborder": 3066,
      "Ġactive": 3067,
      "Ġstatus": 3068,
      "Ġda": 3069,
      "istics": 3070,
      "Ġplant": 3071,
      "Ġcreate": 3072,
      "Ġlevels": 3073,
      "Ġcompon": 3074,
      "Ġhighly": 3075,
      "can": 3076,
      "Ġparties": 3077,
      "Ġlatter": 3078,
      "ivity": 3079,
      "Ġmultiple": 3080,
      "Ġbasis": 3081,
      "Ġglobal": 3082,
      "imum": 3083,
      "Ġregions": 3084,
      "ga": 3085,
      "ners": 3086,
      "Ġgive": 3087,
      "Ġadapt": 3088,
      "itation": 3089,
      "Ġenough": 3090,
      "Ġkeep": 3091,
      "Ġtor": 3092,
      "Ġconcent": 3093,
      "Ġsoon": 3094,
      "Ġcorre": 3095,
      "Ġsele": 3096,
      "iter": 3097,
      "Ġcounter": 3098,
      "Ġdistinct": 3099,
      "Ġ28": 3100,
      "Ġquick": 3101,
      "Ġsummer": 3102,
      "Ġdisplay": 3103,
      "Ġ2003": 3104,
      "Ġtheat": 3105,
      "Ġwhole": 3106,
      "key": 3107,
      "eth": 3108,
      "Ġpack": 3109,
      "Ġmexic": 3110,
      "Ġax": 3111,
      "new": 3112,
      "iverse": 3113,
      "Ġprior": 3114,
      "Ġdivided": 3115,
      "Ġpra": 3116,
      "Ġproperty": 3117,
      "Ġlord": 3118,
      "Ġasia": 3119,
      "use": 3120,
      "Ġcateg": 3121,
      "oura": 3122,
      "Ġcenturies": 3123,
      "la": 3124,
      "Ġpath": 3125,
      "Ġrob": 3126,
      "Ġwhom": 3127,
      "Ġveh": 3128,
      "Ġhenry": 3129,
      "Ġben": 3130,
      "Ġpet": 3131,
      "Ġcred": 3132,
      "Ġagricult": 3133,
      "Ġpolice": 3134,
      "Ġmonth": 3135,
      "Ġworked": 3136,
      "Ġcannot": 3137,
      "Ġwash": 3138,
      "Ġtransl": 3139,
      "Ġflight": 3140,
      "Ġdestroy": 3141,
      "iforn": 3142,
      "ream": 3143,
      "Ġpope": 3144,
      "asons": 3145,
      "Ġmethods": 3146,
      "aughter": 3147,
      "Ġchampions": 3148,
      "Ġunderstand": 3149,
      "Ġcontem": 3150,
      "enc": 3151,
      "Ġmainly": 3152,
      "Ġdeep": 3153,
      "ander": 3154,
      "under": 3155,
      "Ġdiscovered": 3156,
      "Ġfunctions": 3157,
      "oting": 3158,
      "Ġplaced": 3159,
      "ael": 3160,
      "Ġpoor": 3161,
      "Ġhous": 3162,
      "Ġsens": 3163,
      "Ġfootball": 3164,
      "Ġtroops": 3165,
      "Ġ27": 3166,
      "Ġ2002": 3167,
      "met": 3168,
      "Ġcandid": 3169,
      "bi": 3170,
      "idents": 3171,
      "Ġshows": 3172,
      "Ġnearly": 3173,
      "Ġfinancial": 3174,
      "ĠÎ": 3175,
      "Ġcorpor": 3176,
      "Ġfreed": 3177,
      "Ġexperiment": 3178,
      "Ġforest": 3179,
      "Ġjoined": 3180,
      "Ġneigh": 3181,
      "Ġinsp": 3182,
      "Ġissues": 3183,
      "Ġchanged": 3184,
      "iance": 3185,
      "Ġrac": 3186,
      "Ġcontains": 3187,
      "Ġfemale": 3188,
      "fl": 3189,
      "Ġrecords": 3190,
      "Ġagreement": 3191,
      "ply": 3192,
      "Ġknowledge": 3193,
      "bc": 3194,
      "Ġprimarily": 3195,
      "Ġsense": 3196,
      "Ġmedical": 3197,
      "otes": 3198,
      "abor": 3199,
      "Ġtherefore": 3200,
      "Ġissue": 3201,
      "Ġchemical": 3202,
      "Ġ1950": 3203,
      "Ġimmediate": 3204,
      "Ġbelief": 3205,
      "field": 3206,
      "Ġtheore": 3207,
      "back": 3208,
      "ider": 3209,
      "bour": 3210,
      "iences": 3211,
      "Ġmoney": 3212,
      "Ġscript": 3213,
      "Ġgovernor": 3214,
      "Ġprotect": 3215,
      "reen": 3216,
      "Ġmich": 3217,
      "Ġforced": 3218,
      "Ġkind": 3219,
      "Ġcommittee": 3220,
      "Ġincor": 3221,
      "Ġmagaz": 3222,
      "Ġtransfer": 3223,
      "Ġcalend": 3224,
      "Ġcaliforn": 3225,
      "Ġairport": 3226,
      "Ġbasic": 3227,
      "Ġexch": 3228,
      "yr": 3229,
      "cont": 3230,
      "Ġinn": 3231,
      "Ġlived": 3232,
      "Ġprem": 3233,
      "Ġfamil": 3234,
      "Ġesc": 3235,
      "ulations": 3236,
      "Ġ1999": 3237,
      "ya": 3238,
      "Ġtraining": 3239,
      "mp": 3240,
      "Ġoce": 3241,
      "Ġcontrast": 3242,
      "aled": 3243,
      "oth": 3244,
      "Ġshown": 3245,
      "Ġanalysis": 3246,
      "rang": 3247,
      "Ġmarried": 3248,
      "Ġadditional": 3249,
      "wer": 3250,
      "Ġhapp": 3251,
      "uck": 3252,
      "Ġrules": 3253,
      "att": 3254,
      "but": 3255,
      "Ġ183": 3256,
      "Ġended": 3257,
      "Ġpotential": 3258,
      "Ġrelatively": 3259,
      "Ġrapid": 3260,
      "hood": 3261,
      "Ġadministration": 3262,
      "Ġtaking": 3263,
      "Ġsigned": 3264,
      "igr": 3265,
      "Ġcarbon": 3266,
      "Ġdegree": 3267,
      "head": 3268,
      "Ġiii": 3269,
      "Ġdemonst": 3270,
      "Ġbroadcast": 3271,
      "Ġmatter": 3272,
      "Ġquestion": 3273,
      "ales": 3274,
      "Ġ80": 3275,
      "Ġnavy": 3276,
      "Ġrussia": 3277,
      "Ġjack": 3278,
      "Ġexperience": 3279,
      "omas": 3280,
      "Ġupper": 3281,
      "Ġsac": 3282,
      "Ġdrug": 3283,
      "lor": 3284,
      "Ġ+": 3285,
      "Ġpac": 3286,
      "Ġacid": 3287,
      "Ġpowers": 3288,
      "Ġslow": 3289,
      "Ġdate": 3290,
      "amb": 3291,
      "Ġelectr": 3292,
      "Ġopened": 3293,
      "Ġsimple": 3294,
      "Ġactivity": 3295,
      "Ġprogress": 3296,
      "aur": 3297,
      "Ġappointed": 3298,
      "olved": 3299,
      "odes": 3300,
      "isms": 3301,
      "Ġarticle": 3302,
      "Ġdead": 3303,
      "Ġtransform": 3304,
      "well": 3305,
      "Ġire": 3306,
      "Ġthous": 3307,
      "uls": 3308,
      "Ġdepartment": 3309,
      "hol": 3310,
      "Ġib": 3311,
      "Ġwa": 3312,
      "follow": 3313,
      "Ġdetail": 3314,
      "iles": 3315,
      "Ġinfluenced": 3316,
      "Ġalg": 3317,
      "Ġclassical": 3318,
      "Ġbay": 3319,
      "erson": 3320,
      "Ġwars": 3321,
      "Ġdirector": 3322,
      "Ġhill": 3323,
      "Ġvote": 3324,
      "Ġrobert": 3325,
      "phas": 3326,
      "Ġprograms": 3327,
      "Ġcalifornia": 3328,
      "app": 3329,
      "Ġ60": 3330,
      "Ġconvention": 3331,
      "Ġsaint": 3332,
      "arm": 3333,
      "Ġbehind": 3334,
      "Ġinvestig": 3335,
      "Ġneeded": 3336,
      "ici": 3337,
      "Ġbudd": 3338,
      "Ġstop": 3339,
      "Ġnoted": 3340,
      "Ġmention": 3341,
      "Ġneut": 3342,
      "Ġresour": 3343,
      "Ġurban": 3344,
      "Ġphilosophy": 3345,
      "Ġspread": 3346,
      "Ġflu": 3347,
      "inet": 3348,
      "tered": 3349,
      "Ġiron": 3350,
      "Ġmusical": 3351,
      "Ġresulting": 3352,
      "ctr": 3353,
      "Ġmob": 3354,
      "ech": 3355,
      "Ġcub": 3356,
      "cles": 3357,
      "Ġpassed": 3358,
      "Ġextreme": 3359,
      "Ġheavy": 3360,
      "Ġcru": 3361,
      "Ġpoet": 3362,
      "wise": 3363,
      "Ġwashington": 3364,
      "Ġrace": 3365,
      "following": 3366,
      "ios": 3367,
      "wide": 3368,
      "Ġwil": 3369,
      "ellig": 3370,
      "Ġfish": 3371,
      "Ġyet": 3372,
      "Ġcompleted": 3373,
      "Ġswed": 3374,
      "Ġbish": 3375,
      "iff": 3376,
      "Ġmachine": 3377,
      "Ġcitizens": 3378,
      "Ġsexual": 3379,
      "Ġmis": 3380,
      "ev": 3381,
      "tw": 3382,
      "Ġmemory": 3383,
      "Ġliterature": 3384,
      "Ġmarriage": 3385,
      "Ġpaper": 3386,
      "Ġdecided": 3387,
      "Ġfamous": 3388,
      "izations": 3389,
      "Ġplaying": 3390,
      "Ġargued": 3391,
      "pro": 3392,
      "Ġspain": 3393,
      "Ġassum": 3394,
      "Ġnews": 3395,
      "Ġregional": 3396,
      "Ġethnic": 3397,
      "reng": 3398,
      "Ġinitial": 3399,
      "Ġcalendar": 3400,
      "Ġmov": 3401,
      "olk": 3402,
      "Ġapplied": 3403,
      "Ġrecon": 3404,
      "Ġcompared": 3405,
      "Ġautom": 3406,
      "mission": 3407,
      "Ġmakes": 3408,
      "Ġdistrict": 3409,
      "Ġheart": 3410,
      "Ġhung": 3411,
      "Ġreduced": 3412,
      "ements": 3413,
      "Ġsection": 3414,
      "Ġsuggested": 3415,
      "Ġimprove": 3416,
      "Ġdistance": 3417,
      "Ġcontract": 3418,
      "Ġcarry": 3419,
      "because": 3420,
      "Ġpromin": 3421,
      "Ġaccepted": 3422,
      "Ġdiss": 3423,
      "Ġatl": 3424,
      "ansion": 3425,
      "Ġchall": 3426,
      "Ġanimals": 3427,
      "Ġ185": 3428,
      "Ġships": 3429,
      "Ġey": 3430,
      "Ġassembly": 3431,
      "Ġ1998": 3432,
      "Ġremo": 3433,
      "Ġquality": 3434,
      "Ġapproach": 3435,
      "Ġproperties": 3436,
      "itors": 3437,
      "Ġconv": 3438,
      "Ġchap": 3439,
      "Ġfrank": 3440,
      "ris": 3441,
      "aded": 3442,
      "Ġstars": 3443,
      "view": 3444,
      "char": 3445,
      "Ġprovides": 3446,
      "rative": 3447,
      "Ġmas": 3448,
      "olf": 3449,
      "Ġequival": 3450,
      "ground": 3451,
      "thus": 3452,
      "Ġarts": 3453,
      "uting": 3454,
      "despite": 3455,
      "Ġlake": 3456,
      "Ġelections": 3457,
      "outh": 3458,
      "Ġpil": 3459,
      "Ġmind": 3460,
      "Ġthink": 3461,
      "Ġfourth": 3462,
      "Ġcompos": 3463,
      "Ġpossess": 3464,
      "oper": 3465,
      "Ġens": 3466,
      "nes": 3467,
      "eral": 3468,
      "Ġdram": 3469,
      "Ġjes": 3470,
      "Ġstreng": 3471,
      "Ġcells": 3472,
      "Ġtim": 3473,
      "Ġmad": 3474,
      "Ġhop": 3475,
      "Ġcarried": 3476,
      "cks": 3477,
      "Ġbeg": 3478,
      "Ġrare": 3479,
      "Ġimperial": 3480,
      "Ġrise": 3481,
      "rick": 3482,
      "Ġrunning": 3483,
      "Ġireland": 3484,
      "Ġcollection": 3485,
      "Ġaim": 3486,
      "Ġmut": 3487,
      "Ġ31": 3488,
      "ca": 3489,
      "Ġconnect": 3490,
      "adian": 3491,
      "iant": 3492,
      "Ġintellig": 3493,
      "Ġsurround": 3494,
      "Ġsongs": 3495,
      "Ġiv": 3496,
      "Ġtru": 3497,
      "Ġinterp": 3498,
      "Ġpreviously": 3499,
      "pri": 3500,
      "Ġtas": 3501,
      "rents": 3502,
      "Ġvalues": 3503,
      "Ġtarget": 3504,
      "Ġpattern": 3505,
      "uge": 3506,
      "Ġfriend": 3507,
      "Ġdefense": 3508,
      "no": 3509,
      "astic": 3510,
      "Ġrepe": 3511,
      "Ġoperating": 3512,
      "Ġability": 3513,
      "Ġinternet": 3514,
      "ams": 3515,
      "Ġsimply": 3516,
      "Ġwoman": 3517,
      "Ġreject": 3518,
      "Ġtreatment": 3519,
      "Ġjews": 3520,
      "nel": 3521,
      "Ġgraph": 3522,
      "Ġinitially": 3523,
      "Ġobserv": 3524,
      "Ġprobably": 3525,
      "Ġworkers": 3526,
      "Ġbenef": 3527,
      "Ġequal": 3528,
      "wa": 3529,
      "Ġappears": 3530,
      "Ġdeclared": 3531,
      "anian": 3532,
      "arc": 3533,
      "Ġlif": 3534,
      "Ġclimate": 3535,
      "Ġcontrovers": 3536,
      "Ġhours": 3537,
      "Ġcompound": 3538,
      "Ġformal": 3539,
      "Ġdraw": 3540,
      "Ġlic": 3541,
      "Ġdirection": 3542,
      "Ġsquare": 3543,
      "aches": 3544,
      "Ġstarting": 3545,
      "Ġderived": 3546,
      "Ġintended": 3547,
      "Ġ1997": 3548,
      "Ġlocation": 3549,
      "Ġprofessional": 3550,
      "Ġple": 3551,
      "Ġfiction": 3552,
      "Ġfeatured": 3553,
      "Ġban": 3554,
      "Ġstories": 3555,
      "mark": 3556,
      "west": 3557,
      "Ġemphas": 3558,
      "Ġdefinition": 3559,
      "Ġtermin": 3560,
      "da": 3561,
      "Ġletters": 3562,
      "Ġtable": 3563,
      "ola": 3564,
      "Ġshare": 3565,
      "orial": 3566,
      "Ġdip": 3567,
      "Ġ1996": 3568,
      "Ġdecre": 3569,
      "och": 3570,
      "onic": 3571,
      "Ġbecoming": 3572,
      "Ġdark": 3573,
      "ee": 3574,
      "Ġ29": 3575,
      "Ġobjects": 3576,
      "Ġsupre": 3577,
      "Ġfailed": 3578,
      "Ġreference": 3579,
      "Ġstone": 3580,
      "Ġamb": 3581,
      "Ġ181": 3582,
      "Ġtv": 3583,
      "Ġfrequently": 3584,
      "Ġly": 3585,
      "Ġcreation": 3586,
      "rich": 3587,
      "Ġjur": 3588,
      "Ġpresence": 3589,
      "both": 3590,
      "Ġdaughter": 3591,
      "ips": 3592,
      "Ġactivities": 3593,
      "dp": 3594,
      "ij": 3595,
      "Ġbond": 3596,
      "clus": 3597,
      "Ġcomposed": 3598,
      "Ġinstitute": 3599,
      "Ġmanagement": 3600,
      "edy": 3601,
      "Ġface": 3602,
      "ĠÃ": 3603,
      "Ġlin": 3604,
      "Ġspl": 3605,
      "Ġextra": 3606,
      "sey": 3607,
      "Ġdouble": 3608,
      "Ġlaunched": 3609,
      "Ġful": 3610,
      "undred": 3611,
      "Ġocean": 3612,
      "estic": 3613,
      "Ġchampionship": 3614,
      "Ġlouis": 3615,
      "Ġcas": 3616,
      "olit": 3617,
      "Ġportug": 3618,
      "Ġprovince": 3619,
      "Ġguard": 3620,
      "Ġmc": 3621,
      "Ġmale": 3622,
      "Ġreve": 3623,
      "Ġcontent": 3624,
      "Ġcontact": 3625,
      "Ġwild": 3626,
      "Ġkar": 3627,
      "Ġnormal": 3628,
      "tical": 3629,
      "uk": 3630,
      "Ġconqu": 3631,
      "ibly": 3632,
      "Ġdespite": 3633,
      "Ġextended": 3634,
      "Ġfix": 3635,
      "Ġdepend": 3636,
      "Ġcab": 3637,
      "Ġaspect": 3638,
      "Ġannual": 3639,
      "hi": 3640,
      "Ġresponsible": 3641,
      "Ġburn": 3642,
      "Ġindividuals": 3643,
      "Ġfestival": 3644,
      "Ġgram": 3645,
      "Ġdecision": 3646,
      "Ġprince": 3647,
      "Ġcoal": 3648,
      "Ġincorpor": 3649,
      "uit": 3650,
      "Ġweight": 3651,
      "bed": 3652,
      "Ġjul": 3653,
      "Ġimage": 3654,
      "Ġcelebr": 3655,
      "Ġbomb": 3656,
      "otic": 3657,
      "Ġfriends": 3658,
      "Ġjournal": 3659,
      "ging": 3660,
      "rupt": 3661,
      "Ġevolution": 3662,
      "Ġremaining": 3663,
      "Ġtrack": 3664,
      "Ġpositive": 3665,
      "bra": 3666,
      "Ġmedic": 3667,
      "Ġtun": 3668,
      "Ġpolish": 3669,
      "Ġsho": 3670,
      "Ġ1991": 3671,
      "Ġspeech": 3672,
      "Ġphen": 3673,
      "Ġhab": 3674,
      "ctors": 3675,
      "Ġbrown": 3676,
      "stein": 3677,
      "Ġopposition": 3678,
      "Ġideas": 3679,
      "Ġagreed": 3680,
      "Ġdisease": 3681,
      "Ġarmed": 3682,
      "Ġcourse": 3683,
      "Ġwave": 3684,
      "Ġattrib": 3685,
      "ensity": 3686,
      "Ġimpact": 3687,
      "Ġinternal": 3688,
      "Ġcalcul": 3689,
      "ĠÂ°": 3690,
      "Ġvan": 3691,
      "Ġfal": 3692,
      "Ġfair": 3693,
      "Ġexistence": 3694,
      "Ġnine": 3695,
      "Ġ1994": 3696,
      "board": 3697,
      "eria": 3698,
      "Ġrepresented": 3699,
      "thesis": 3700,
      "hold": 3701,
      "Ġmos": 3702,
      "Ġconsists": 3703,
      "ensus": 3704,
      "Ġpict": 3705,
      "Ġhundred": 3706,
      "Ġteams": 3707,
      "Ġcritical": 3708,
      "Ġpurch": 3709,
      "mod": 3710,
      "Ġfel": 3711,
      "Ġalph": 3712,
      "Ġvirt": 3713,
      "my": 3714,
      "Ġprison": 3715,
      "Ġapplications": 3716,
      "edic": 3717,
      "omy": 3718,
      "Ġmagazine": 3719,
      "Ġrisk": 3720,
      "chest": 3721,
      "ken": 3722,
      "Ġnecessary": 3723,
      "Ġliberal": 3724,
      "Ġdutch": 3725,
      "Ġconflict": 3726,
      "Ġ1995": 3727,
      "Ġresulted": 3728,
      "verse": 3729,
      "Ġbri": 3730,
      "Ġcombined": 3731,
      "Ġinstrument": 3732,
      "Ġwinter": 3733,
      "Ġfreedom": 3734,
      "Ġsignal": 3735,
      "âĢ": 3736,
      "ented": 3737,
      "gal": 3738,
      "Ġrang": 3739,
      "Ġfaith": 3740,
      "Ġscot": 3741,
      "Ġta": 3742,
      "Ġidentified": 3743,
      "Ġrichard": 3744,
      "Ġ1992": 3745,
      "Ġsymbol": 3746,
      "Ġalternative": 3747,
      "gar": 3748,
      "Ġbring": 3749,
      "Ġmaterials": 3750,
      "erve": 3751,
      "Ġvoc": 3752,
      "Ġsports": 3753,
      "Ġimpl": 3754,
      "har": 3755,
      "Ġrespectively": 3756,
      "Ġdistribution": 3757,
      "Ġid": 3758,
      "eles": 3759,
      "Ġpair": 3760,
      "thodox": 3761,
      "Ġachieve": 3762,
      "Ġquickly": 3763,
      "light": 3764,
      "Ġretain": 3765,
      "Ġconne": 3766,
      "inian": 3767,
      "Ġmom": 3768,
      "Ġthr": 3769,
      "Ġut": 3770,
      "Ġpoland": 3771,
      "Ġexpansion": 3772,
      "Ġcontinue": 3773,
      "Ġhumans": 3774,
      "Ġnegative": 3775,
      "mat": 3776,
      "Åį": 3777,
      "Ġexhib": 3778,
      "ternal": 3779,
      "ba": 3780,
      "akistan": 3781,
      "Ġframe": 3782,
      "Ġdistingu": 3783,
      "Ġlegisl": 3784,
      "Ġvolume": 3785,
      "Ġcurrently": 3786,
      "Ġcustom": 3787,
      "ien": 3788,
      "Ġmir": 3789,
      "Ġefforts": 3790,
      "Ġoffered": 3791,
      "Ġfuel": 3792,
      "Ġnaz": 3793,
      "Ġcompar": 3794,
      "Ġstaff": 3795,
      "Ġopposed": 3796,
      "Ġearliest": 3797,
      "Ġnorm": 3798,
      "enth": 3799,
      "Ġcup": 3800,
      "Ġice": 3801,
      "ructed": 3802,
      "Ġstudent": 3803,
      "Ġissued": 3804,
      "Ġintegr": 3805,
      "Ġcomment": 3806,
      "Ġedition": 3807,
      "Ġthings": 3808,
      "Ġoccurred": 3809,
      "Ġinhab": 3810,
      "ua": 3811,
      "Ġbab": 3812,
      "Ġhero": 3813,
      "Ġirish": 3814,
      "Ġmodels": 3815,
      "Ġholy": 3816,
      "Ġweapons": 3817,
      "ext": 3818,
      "encies": 3819,
      "sever": 3820,
      "Ġinteg": 3821,
      "Ġreaction": 3822,
      "Ġpresidential": 3823,
      "Ġexamples": 3824,
      "yond": 3825,
      "Ġkm": 3826,
      "Ġfields": 3827,
      "Ġatom": 3828,
      "Ġdigital": 3829,
      "21": 3830,
      "Ġscott": 3831,
      "Ġgreatest": 3832,
      "Ġclaims": 3833,
      "Ġguit": 3834,
      "Ġastron": 3835,
      "Ġscreen": 3836,
      "Ġpresented": 3837,
      "Ġprotection": 3838,
      "ville": 3839,
      "Ġnob": 3840,
      "Ġturned": 3841,
      "Ġexchange": 3842,
      "yth": 3843,
      "Ġpurpose": 3844,
      "Ġrecover": 3845,
      "Ġlibrary": 3846,
      "Ġchannel": 3847,
      "Ġcontemporary": 3848,
      "Ġcham": 3849,
      "Ġaffair": 3850,
      "Ġ180": 3851,
      "iques": 3852,
      "Ġcart": 3853,
      "Ġfavor": 3854,
      "Ġchic": 3855,
      "comp": 3856,
      "Ġgrowing": 3857,
      "later": 3858,
      "Ġhosp": 3859,
      "Ġphase": 3860,
      "Ġexport": 3861,
      "Ġdynast": 3862,
      "Ġtend": 3863,
      "Ġthomas": 3864,
      "Ġvary": 3865,
      "za": 3866,
      "Ġroll": 3867,
      "Ġbox": 3868,
      "Ġinterpret": 3869,
      "Ġtakes": 3870,
      "Ġconclud": 3871,
      "icit": 3872,
      "Ġeffective": 3873,
      "Ġmary": 3874,
      "icted": 3875,
      "Ġrequest": 3876,
      "rison": 3877,
      "Ġwanted": 3878,
      "Ġstock": 3879,
      "Ġallows": 3880,
      "Ġcra": 3881,
      "ithm": 3882,
      "lymp": 3883,
      "Ġversions": 3884,
      "Ġfrequency": 3885,
      "Ġplants": 3886,
      "Ġacts": 3887,
      "Ġdirected": 3888,
      "Ġcollect": 3889,
      "actions": 3890,
      "Ġarrang": 3891,
      "Ġfat": 3892,
      "Ġgeneration": 3893,
      "Ġpacific": 3894,
      "Ġorient": 3895,
      "Ġunique": 3896,
      "Ġnotable": 3897,
      "ressed": 3898,
      "Ġmountain": 3899,
      "Ġfigure": 3900,
      "Ġcore": 3901,
      "Ġactually": 3902,
      "Ġincome": 3903,
      "rate": 3904,
      "Ġexpected": 3905,
      "Ġequip": 3906,
      "Ġbuildings": 3907,
      "19": 3908,
      "Ġsector": 3909,
      "road": 3910,
      "Ġjoint": 3911,
      "Ġowned": 3912,
      "Ġcapac": 3913,
      "Ġfast": 3914,
      "Ġmotor": 3915,
      "10": 3916,
      "izes": 3917,
      "Ġolder": 3918,
      "Ġvictory": 3919,
      "Ġconfir": 3920,
      "ients": 3921,
      "vey": 3922,
      "Ġinstance": 3923,
      "Ġdialect": 3924,
      "Ġod": 3925,
      "theast": 3926,
      "Ġira": 3927,
      "agan": 3928,
      "Ġcrew": 3929,
      "Ġflo": 3930,
      "Ġadj": 3931,
      "Ġperman": 3932,
      "Ġ1993": 3933,
      "Ġorthodox": 3934,
      "Ġmeeting": 3935,
      "Ġinj": 3936,
      "Ġcold": 3937,
      "Ġolymp": 3938,
      "Ġdro": 3939,
      "igen": 3940,
      "ieval": 3941,
      "Ġentered": 3942,
      "Ġmotion": 3943,
      "Ġsin": 3944,
      "orph": 3945,
      "Ġunif": 3946,
      "Ġsoldiers": 3947,
      "Ġdomestic": 3948,
      "Ġdie": 3949,
      "Ġcharge": 3950,
      "Ġspecif": 3951,
      "Ġmand": 3952,
      "Ġweb": 3953,
      "Ġ1989": 3954,
      "Ġlimit": 3955,
      "lig": 3956,
      "umn": 3957,
      "Ġdefeated": 3958,
      "ils": 3959,
      "Ġrepublican": 3960,
      "imal": 3961,
      "Ġattacks": 3962,
      "Ġpit": 3963,
      "Ġmaster": 3964,
      "Ġlabour": 3965,
      "Ġreplace": 3966,
      "several": 3967,
      "win": 3968,
      "Ġadvant": 3969,
      "Ġbelieve": 3970,
      "Ġacademy": 3971,
      "imin": 3972,
      "ordin": 3973,
      "Ġaustralian": 3974,
      "illed": 3975,
      "bre": 3976,
      "Ġpakistan": 3977,
      "Ġprefer": 3978,
      "Ġreact": 3979,
      "Ġott": 3980,
      "aker": 3981,
      "Ġclosed": 3982,
      "Ġordered": 3983,
      "Ġcolumb": 3984,
      "ately": 3985,
      "Ġallowing": 3986,
      "Ġcro": 3987,
      "Ġways": 3988,
      "Ġparal": 3989,
      "Ġcommunist": 3990,
      "Ġvirgin": 3991,
      "Ġnic": 3992,
      "their": 3993,
      "elled": 3994,
      "Ġengineering": 3995,
      "Ġregarded": 3996,
      "Ġgard": 3997,
      "Ġbeyond": 3998,
      "Ġjustice": 3999,
      "Ġvictor": 4000,
      "Ġbad": 4001,
      "Ġchron": 4002,
      "Ġfinally": 4003,
      "Ġsequence": 4004,
      "Ġserious": 4005,
      "Ġequipment": 4006,
      "Ġconference": 4007,
      "Ġshowed": 4008,
      "Ġbehavior": 4009,
      "Ġformation": 4010,
      "Ġ1940": 4011,
      "Ġsecretary": 4012,
      "Ġequivalent": 4013,
      "Ġsuc": 4014,
      "Ġgoal": 4015,
      "two": 4016,
      "ano": 4017,
      "Ġjose": 4018,
      "Ġrough": 4019,
      "Ġcontrolled": 4020,
      "Ġhonor": 4021,
      "ani": 4022,
      "Ġgir": 4023,
      "works": 4024,
      "Ġsand": 4025,
      "Ġobserved": 4026,
      "Ġpron": 4027,
      "Ġhelped": 4028,
      "sm": 4029,
      "osis": 4030,
      "aught": 4031,
      "Ġmoon": 4032,
      "Ġcanadian": 4033,
      "Ġartists": 4034,
      "Ġsupreme": 4035,
      "Ġspeaking": 4036,
      "Ġexpressed": 4037,
      "Ġshot": 4038,
      "80": 4039,
      "Ġspent": 4040,
      "Ġsteel": 4041,
      "Ġidentity": 4042,
      "Ġfrancis": 4043,
      "Ġbol": 4044,
      "Ġasked": 4045,
      "Ġgiving": 4046,
      "Ġexecutive": 4047,
      "Ġdub": 4048,
      "Ġtheatre": 4049,
      "fect": 4050,
      "Ġwit": 4051,
      "Ġ1930": 4052,
      "Ġpu": 4053,
      "Ġgain": 4054,
      "Ġreign": 4055,
      "ception": 4056,
      "Ġpowerful": 4057,
      "Ġsolar": 4058,
      "band": 4059,
      "ares": 4060,
      "Ġconc": 4061,
      "ceeded": 4062,
      "Ġnotes": 4063,
      "Ġserve": 4064,
      "Ġfocus": 4065,
      "war": 4066,
      "Ġpeter": 4067,
      "Ġanimal": 4068,
      "Ġappearance": 4069,
      "Ġ179": 4070,
      "Ġbranch": 4071,
      "Ġrecognized": 4072,
      "Ġresources": 4073,
      "âĢĻ": 4074,
      "also": 4075,
      "Ġencoura": 4076,
      "Ġshar": 4077,
      "Ġfully": 4078,
      "Ġanth": 4079,
      "Ġ32": 4080,
      "Ġ1920": 4081,
      "Ġfundament": 4082,
      "Ġtold": 4083,
      "Ġgh": 4084,
      "Ġsets": 4085,
      "Ġgained": 4086,
      "Ġalgor": 4087,
      "Ġcontaining": 4088,
      "Ġstructures": 4089,
      "Ġrecomm": 4090,
      "Ġmedieval": 4091,
      "tr": 4092,
      "Ġnewsp": 4093,
      "Ġuniversal": 4094,
      "Ġmexico": 4095,
      "Ġslight": 4096,
      "Ġmarked": 4097,
      "yd": 4098,
      "Ġlie": 4099,
      "oke": 4100,
      "Ġcommunities": 4101,
      "Ġdan": 4102,
      "racy": 4103,
      "zil": 4104,
      "Ġmatch": 4105,
      "Ġfactors": 4106,
      "igration": 4107,
      "Ġbrief": 4108,
      "Ġatm": 4109,
      "onia": 4110,
      "theless": 4111,
      "mers": 4112,
      "Ġqueen": 4113,
      "Ġintel": 4114,
      "ita": 4115,
      "cop": 4116,
      "Ġvalley": 4117,
      "Ġhypo": 4118,
      "Ġtechniques": 4119,
      "sim": 4120,
      "Ġflag": 4121,
      "Ġluc": 4122,
      "urches": 4123,
      "ped": 4124,
      "Ġsupply": 4125,
      "that": 4126,
      "rier": 4127,
      "Ġplaces": 4128,
      "Ġadvanced": 4129,
      "Ġapplication": 4130,
      "Ġlith": 4131,
      "Ġgall": 4132,
      "Ġclos": 4133,
      "Ġrain": 4134,
      "Ġmoving": 4135,
      "Ġgrew": 4136,
      "Ġ35": 4137,
      "Ġstandards": 4138,
      "Ġfollows": 4139,
      "Ġfamilies": 4140,
      "Ġbelong": 4141,
      "aming": 4142,
      "usal": 4143,
      "Ġviet": 4144,
      "Ġdynasty": 4145,
      "Ġconnected": 4146,
      "Ġvel": 4147,
      "itable": 4148,
      "alled": 4149,
      "Ġoccurs": 4150,
      "Ġcatal": 4151,
      "Ġresistance": 4152,
      "lom": 4153,
      "iments": 4154,
      "ortun": 4155,
      "Ġrefused": 4156,
      "Ġfactor": 4157,
      "gment": 4158,
      "isters": 4159,
      "Ġchurches": 4160,
      "fr": 4161,
      "Ġtree": 4162,
      "entially": 4163,
      "aging": 4164,
      "Ġtwent": 4165,
      "Ġdecades": 4166,
      "Ġconsequ": 4167,
      "quar": 4168,
      "Ġsituation": 4169,
      "Ġactions": 4170,
      "Ġcrown": 4171,
      "Ġprice": 4172,
      "het": 4173,
      "Ġleaving": 4174,
      "Ġamericans": 4175,
      "Ġfoundation": 4176,
      "Ġheat": 4177,
      "Ġwealth": 4178,
      "Ġprominent": 4179,
      "Ġnucle": 4180,
      "utation": 4181,
      "Ġplays": 4182,
      "Ġcris": 4183,
      "Ġzeal": 4184,
      "Ġinspired": 4185,
      "Ġrefers": 4186,
      "Ġguitar": 4187,
      "Ġbird": 4188,
      "oral": 4189,
      "tery": 4190,
      "Ġsilver": 4191,
      "Ġbowl": 4192,
      "any": 4193,
      "claim": 4194,
      "Ġdescript": 4195,
      "Ġwing": 4196,
      "Ġofficially": 4197,
      "Ġcompetition": 4198,
      "Ġawarded": 4199,
      "arent": 4200,
      "Ġsays": 4201,
      "Ġlad": 4202,
      "Ġdemand": 4203,
      "ees": 4204,
      "ody": 4205,
      "Ġhaw": 4206,
      "each": 4207,
      "Ġdog": 4208,
      "Ġqual": 4209,
      "Ġwriter": 4210,
      "Ġ70": 4211,
      "ship": 4212,
      "Ġarms": 4213,
      "Ġuser": 4214,
      "Ġwinning": 4215,
      "Ġga": 4216,
      "Ġray": 4217,
      "Ġrates": 4218,
      "Ġinside": 4219,
      "Ġremoved": 4220,
      "Ġplanned": 4221,
      "Ġsmith": 4222,
      "Ġnegot": 4223,
      "Ġdestroyed": 4224,
      "ening": 4225,
      "Ġdna": 4226,
      "Ġwithd": 4227,
      "Ġuniverse": 4228,
      "Ġtub": 4229,
      "Ġdifferences": 4230,
      "Ġturk": 4231,
      "Ġquarter": 4232,
      "Ġves": 4233,
      "Ġexact": 4234,
      "Ġdifference": 4235,
      "Ġexisting": 4236,
      "Ġjesus": 4237,
      "andon": 4238,
      "Ġboy": 4239,
      "Ġwrite": 4240,
      "Ġcondition": 4241,
      "Ġislamic": 4242,
      "vert": 4243,
      "Ġsplit": 4244,
      "ker": 4245,
      "Ġther": 4246,
      "Ġsav": 4247,
      "Ġcycle": 4248,
      "Ġafgh": 4249,
      "Ġimmediately": 4250,
      "mas": 4251,
      "Ġmonarch": 4252,
      "ographic": 4253,
      "Ġexpanded": 4254,
      "Ġpolitics": 4255,
      "Ġepisode": 4256,
      "writ": 4257,
      "Ġbell": 4258,
      "Ġseem": 4259,
      "Ġsubsequently": 4260,
      "Ġspoken": 4261,
      "Ġetc": 4262,
      "uters": 4263,
      "Ġcryst": 4264,
      "gu": 4265,
      "ona": 4266,
      "Ġstations": 4267,
      "Ġworldwide": 4268,
      "Ġenem": 4269,
      "Ġseat": 4270,
      "Ġcooper": 4271,
      "sch": 4272,
      "Ġring": 4273,
      "Ġ90": 4274,
      "Ġcompletely": 4275,
      "Ġbridge": 4276,
      "Ġreduce": 4277,
      "Ġ!": 4278,
      "Ġgives": 4279,
      "ogen": 4280,
      "unicip": 4281,
      "oe": 4282,
      "Ġvietn": 4283,
      "Ġoutput": 4284,
      "ss": 4285,
      "Ġtell": 4286,
      "Ġaid": 4287,
      "Ġsearch": 4288,
      "Ġsport": 4289,
      "Ġdoctor": 4290,
      "Ġavoid": 4291,
      "Ġrailway": 4292,
      "iations": 4293,
      "Ġaccur": 4294,
      "Ġoxy": 4295,
      "Ġcomes": 4296,
      "Ġrand": 4297,
      "Ġmeant": 4298,
      "Ġprep": 4299,
      "Ġsaying": 4300,
      "Ġinstitutions": 4301,
      "Ġprinciple": 4302,
      "va": 4303,
      "Ġign": 4304,
      "icial": 4305,
      "Ġreach": 4306,
      "Ġstor": 4307,
      "Ġvoice": 4308,
      "Ġatmosp": 4309,
      "col": 4310,
      "Ġspring": 4311,
      "car": 4312,
      "oration": 4313,
      "Ġinhe": 4314,
      "Ġzero": 4315,
      "Ġpure": 4316,
      "Ġarrest": 4317,
      "ensions": 4318,
      "Ġinfin": 4319,
      "gl": 4320,
      "Ġsolution": 4321,
      "Ġcombat": 4322,
      "Ġlaunch": 4323,
      "ett": 4324,
      "Ġwindows": 4325,
      "Ġapparent": 4326,
      "Ġdevices": 4327,
      "Ġfigures": 4328,
      "Ġbeat": 4329,
      "Ġphenomen": 4330,
      "part": 4331,
      "Ġmit": 4332,
      "Ġintelligence": 4333,
      "ancy": 4334,
      "Ġhus": 4335,
      "Ġlos": 4336,
      "Ġdeliver": 4337,
      "gs": 4338,
      "Ġsolid": 4339,
      "Ġmyth": 4340,
      "Ġorbit": 4341,
      "ieties": 4342,
      "Ġorganizations": 4343,
      "Ġgradu": 4344,
      "lav": 4345,
      "rd": 4346,
      "vin": 4347,
      "Ġfifth": 4348,
      "Ġran": 4349,
      "Ġinterview": 4350,
      "Ġpoll": 4351,
      "Ġsud": 4352,
      "Ġopening": 4353,
      "Ġarchitecture": 4354,
      "Ġexc": 4355,
      "Ġeffort": 4356,
      "Ġimportance": 4357,
      "zz": 4358,
      "iled": 4359,
      "Ġcos": 4360,
      "Ġraised": 4361,
      "Ġfit": 4362,
      "Ġmentioned": 4363,
      "Ġweeks": 4364,
      "60": 4365,
      "iring": 4366,
      "Ġscene": 4367,
      "mad": 4368,
      "Ġsevere": 4369,
      "Ġmunicip": 4370,
      "Ġcontext": 4371,
      "Ġranked": 4372,
      "ests": 4373,
      "Ġ1986": 4374,
      "Ġchicago": 4375,
      "uro": 4376,
      "ulate": 4377,
      "Ġarrived": 4378,
      "mo": 4379,
      "cell": 4380,
      "Ġpropos": 4381,
      "nd": 4382,
      "Ġproved": 4383,
      "Ġplans": 4384,
      "Ġpeak": 4385,
      "Ġattention": 4386,
      "Ġdevice": 4387,
      "Ġterritories": 4388,
      "Ġsought": 4389,
      "Ġshap": 4390,
      "Ġinvasion": 4391,
      "Ġplanet": 4392,
      "Ġincreasingly": 4393,
      "Ġdetermined": 4394,
      "Ġadult": 4395,
      "Ġsomething": 4396,
      "Ġsubsequent": 4397,
      "25": 4398,
      "Ġberlin": 4399,
      "inces": 4400,
      "Ġdoub": 4401,
      "Ġfleet": 4402,
      "ias": 4403,
      "Ġfeel": 4404,
      "Ġsax": 4405,
      "adium": 4406,
      "ike": 4407,
      "Ġmont": 4408,
      "Ġcreating": 4409,
      "Ġancest": 4410,
      "mic": 4411,
      "illa": 4412,
      "Ġcauses": 4413,
      "anda": 4414,
      "Ġchair": 4415,
      "indu": 4416,
      "Ġadm": 4417,
      "Ġgoing": 4418,
      "pping": 4419,
      "Ġelectronic": 4420,
      "Ġrecently": 4421,
      "Ġstay": 4422,
      "Ġconservative": 4423,
      "era": 4424,
      "Ġadvent": 4425,
      "Ġkept": 4426,
      "Ġhere": 4427,
      "Ġafghan": 4428,
      "Ġcerem": 4429,
      "Ġdrive": 4430,
      "Ġwear": 4431,
      "Ġvice": 4432,
      "Ġdescribes": 4433,
      "Ġachieved": 4434,
      "Ġfixed": 4435,
      "Ġbrazil": 4436,
      "Ġparalle": 4437,
      "Ġzealand": 4438,
      "wan": 4439,
      "Ġdiscip": 4440,
      "Ġauthors": 4441,
      "Ġhydrogen": 4442,
      "Ġliqu": 4443,
      "Ġmichael": 4444,
      "haps": 4445,
      "iced": 4446,
      "Ġtraff": 4447,
      "due": 4448,
      "aph": 4449,
      "Ġsubs": 4450,
      "Ġsail": 4451,
      "Ġ500": 4452,
      "Ġpalest": 4453,
      "Ġconducted": 4454,
      "Ġscotland": 4455,
      "Ġwriters": 4456,
      "Ġphysics": 4457,
      "Ġcrisis": 4458,
      "orter": 4459,
      "agon": 4460,
      "Ġofficers": 4461,
      "Ġspecifically": 4462,
      "Ġsites": 4463,
      "Ġ1987": 4464,
      "Ġaffect": 4465,
      "Ġmountains": 4466,
      "further": 4467,
      "Ġanaly": 4468,
      "mann": 4469,
      "Ġdeveloping": 4470,
      "Ġrespond": 4471,
      "Ġsubstant": 4472,
      "Ġmoment": 4473,
      "among": 4474,
      "force": 4475,
      "Ġoverall": 4476,
      "Ġlinear": 4477,
      "gon": 4478,
      "sa": 4479,
      "Ġdensity": 4480,
      "known": 4481,
      "Ġbishop": 4482,
      "gian": 4483,
      "Ġalle": 4484,
      "Ġleadership": 4485,
      "Ġabandon": 4486,
      "Ġprogramming": 4487,
      "Ġdedic": 4488,
      "Ġlingu": 4489,
      "Ġcapacity": 4490,
      "lines": 4491,
      "sen": 4492,
      "early": 4493,
      "Ġ1984": 4494,
      "Ġextensive": 4495,
      "Ġopera": 4496,
      "Ġjoseph": 4497,
      "umin": 4498,
      "Ġactual": 4499,
      "Ġattempted": 4500,
      "Ġcolonial": 4501,
      "Ġunderstanding": 4502,
      "bl": 4503,
      "Ġdar": 4504,
      "Ġalt": 4505,
      "Ġcombination": 4506,
      "Ġmolec": 4507,
      "Ġliterary": 4508,
      "Ġsettlement": 4509,
      "Ġweak": 4510,
      "Ġrequires": 4511,
      "Ġgrav": 4512,
      "Ġalexander": 4513,
      "Ġones": 4514,
      "what": 4515,
      "Ġsignificantly": 4516,
      "ih": 4517,
      "Ġalone": 4518,
      "Ġheight": 4519,
      "Ġpolicies": 4520,
      "Ġchoice": 4521,
      "Ġadvoc": 4522,
      "Ġrejected": 4523,
      "iber": 4524,
      "acing": 4525,
      "Ġmagnetic": 4526,
      "Ġcomponents": 4527,
      "Ġtried": 4528,
      "Ġrefle": 4529,
      "Ġpossibly": 4530,
      "Ġnotably": 4531,
      "Ġspect": 4532,
      "Ġopin": 4533,
      "Ġattempts": 4534,
      "Ġenvironmental": 4535,
      "Ġkil": 4536,
      "Ġoldest": 4537,
      "Ġprojects": 4538,
      "Ġjun": 4539,
      "Ġ1975": 4540,
      "Ġwides": 4541,
      "dered": 4542,
      "Ġcrime": 4543,
      "Ġfolk": 4544,
      "Ġ1982": 4545,
      "Ġruled": 4546,
      "Ġroom": 4547,
      "Ġstudio": 4548,
      "Ġanne": 4549,
      "oty": 4550,
      "Ġtoward": 4551,
      "cons": 4552,
      "Ġpaid": 4553,
      "Ġreflect": 4554,
      "Ġcollabor": 4555,
      "ocks": 4556,
      "ilit": 4557,
      "Ġproced": 4558,
      "Ġusers": 4559,
      "Ġpray": 4560,
      "Ġgranted": 4561,
      "Ġ1945": 4562,
      "Ġfundamental": 4563,
      "down": 4564,
      "lies": 4565,
      "rel": 4566,
      "Ġ1979": 4567,
      "Ġdescribe": 4568,
      "Ġviews": 4569,
      "Ġglass": 4570,
      "rugg": 4571,
      "Ġmixed": 4572,
      "amin": 4573,
      "Ġdecade": 4574,
      "30": 4575,
      "Ġawards": 4576,
      "Ġoh": 4577,
      "Ġorganized": 4578,
      "Ġscen": 4579,
      "Ġtemple": 4580,
      "vant": 4581,
      "Ġsir": 4582,
      "Ġswe": 4583,
      "Ġbrand": 4584,
      "Ġdoctr": 4585,
      "Ġpositions": 4586,
      "Ġstring": 4587,
      "Ġadvantage": 4588,
      "Ġaccomp": 4589,
      "Ġiraq": 4590,
      "inter": 4591,
      "Ġleave": 4592,
      "Ġowners": 4593,
      "Ġprize": 4594,
      "Ġprotoc": 4595,
      "tra": 4596,
      "uration": 4597,
      "ighter": 4598,
      "Ġ1985": 4599,
      "vi": 4600,
      "Ġbodies": 4601,
      "Ġshared": 4602,
      "pread": 4603,
      "Ġagg": 4604,
      "Ġsuggests": 4605,
      "Ġschem": 4606,
      "orders": 4607,
      "Ġsecondary": 4608,
      "Ġoccasion": 4609,
      "Ġkorea": 4610,
      "Ġcorrect": 4611,
      "Ġdiplom": 4612,
      "Ġshape": 4613,
      "Ġclasses": 4614,
      "Ġdrum": 4615,
      "Ġproport": 4616,
      "Ġdiscovery": 4617,
      "Ġsenate": 4618,
      "Ġoccupied": 4619,
      "Ġsimpl": 4620,
      "Ġcommunication": 4621,
      "eed": 4622,
      "Ġath": 4623,
      "Ġterror": 4624,
      "Ġconduct": 4625,
      "Ġinstruments": 4626,
      "histor": 4627,
      "inst": 4628,
      "Ġtom": 4629,
      "Ġprocesses": 4630,
      "11": 4631,
      "Ġlives": 4632,
      "Ġ1988": 4633,
      "Ġ64": 4634,
      "Ġ1968": 4635,
      "ule": 4636,
      "Ġnote": 4637,
      "Ġconstructed": 4638,
      "Ġlands": 4639,
      "Ġplatform": 4640,
      "rid": 4641,
      "Ġbron": 4642,
      "Ġoxygen": 4643,
      "lis": 4644,
      "Ġisol": 4645,
      "Ġstrugg": 4646,
      "ault": 4647,
      "Ġion": 4648,
      "Ġtheories": 4649,
      "Ġchance": 4650,
      "fin": 4651,
      "Ã¨": 4652,
      "Ġtechnical": 4653,
      "Ġnaval": 4654,
      "Ġba": 4655,
      "uese": 4656,
      "Ġtexts": 4657,
      "Ġaffairs": 4658,
      "Ġatlantic": 4659,
      "Ġforward": 4660,
      "Ġconvers": 4661,
      "Ġobtained": 4662,
      "Ġfelt": 4663,
      "Ġdang": 4664,
      "Ġexternal": 4665,
      "Ġages": 4666,
      "Ġzone": 4667,
      "Ġoperated": 4668,
      "Ġofficials": 4669,
      "Ġjuris": 4670,
      "ills": 4671,
      "Ġheavily": 4672,
      "Ġdaily": 4673,
      "Ġmovie": 4674,
      "through": 4675,
      "Ġbecomes": 4676,
      "ras": 4677,
      "Ġreasons": 4678,
      "Ġtowns": 4679,
      "Ġdamage": 4680,
      "Ġsusp": 4681,
      "Ġwidespread": 4682,
      "Ġpublication": 4683,
      "time": 4684,
      "Ġgdp": 4685,
      "Ġ1976": 4686,
      "Ġgolden": 4687,
      "Ġpermanent": 4688,
      "Ġwr": 4689,
      "Ġfear": 4690,
      "Ġstudied": 4691,
      "Ġparticles": 4692,
      "Ġlisted": 4693,
      "Ġfres": 4694,
      "Ġmerg": 4695,
      "Ġreven": 4696,
      "Ġyour": 4697,
      "kes": 4698,
      "Ġsides": 4699,
      "Ġdance": 4700,
      "ogue": 4701,
      "Ġuseful": 4702,
      "Ġfailure": 4703,
      "Ġmaximum": 4704,
      "Ġfighting": 4705,
      "water": 4706,
      "Ġcodice": 4707,
      "Ġmobile": 4708,
      "cher": 4709,
      "miss": 4710,
      "Ġslightly": 4711,
      "ding": 4712,
      "ifying": 4713,
      "Ġformat": 4714,
      "Ġphilosop": 4715,
      "Ġnit": 4716,
      "Ġcompr": 4717,
      "Ġbrain": 4718,
      "Ġmathematics": 4719,
      "Ġinfant": 4720,
      "Ġcaptured": 4721,
      "Ġcircum": 4722,
      "ety": 4723,
      "Ġcool": 4724,
      "eds": 4725,
      "teen": 4726,
      "Ġproducing": 4727,
      "Ġhospital": 4728,
      "ota": 4729,
      "Ġcourts": 4730,
      "Ġradiation": 4731,
      "ala": 4732,
      "clusion": 4733,
      "Ġchristians": 4734,
      "kins": 4735,
      "Ġalco": 4736,
      "Ġprohib": 4737,
      "ograp": 4738,
      "Ġ1983": 4739,
      "Ġgoods": 4740,
      "Ġcel": 4741,
      "Ġdetect": 4742,
      "Ġsuffered": 4743,
      "Ġcrim": 4744,
      "Ġreceive": 4745,
      "Ġcritics": 4746,
      "Ġeasily": 4747,
      "book": 4748,
      "ipped": 4749,
      "ested": 4750,
      "Ġamend": 4751,
      "Ġsufficient": 4752,
      "Ġmap": 4753,
      "Ġrab": 4754,
      "Ġindex": 4755,
      "Ġcovered": 4756,
      "cules": 4757,
      "bar": 4758,
      "rec": 4759,
      "iven": 4760,
      "Ġrub": 4761,
      "Ġwhereas": 4762,
      "Ġedward": 4763,
      "Ġstrateg": 4764,
      "Ġcontained": 4765,
      "erved": 4766,
      "Ġdry": 4767,
      "Ġprint": 4768,
      "Ġstatement": 4769,
      "iger": 4770,
      "Ġstrength": 4771,
      "Ġnick": 4772,
      "Ġ1978": 4773,
      "aling": 4774,
      "Ġarist": 4775,
      "Ġruns": 4776,
      "Ġtexas": 4777,
      "fare": 4778,
      "Ġflat": 4779,
      "Ġelse": 4780,
      "Ġabsor": 4781,
      "Ġ45": 4782,
      "Ġopportun": 4783,
      "joy": 4784,
      "Ġbapt": 4785,
      "Ġvillage": 4786,
      "ads": 4787,
      "Ġexpression": 4788,
      "Ġviolence": 4789,
      "Ġcompounds": 4790,
      "nor": 4791,
      "Ġ1981": 4792,
      "Ġ1972": 4793,
      "azz": 4794,
      "Ġquantum": 4795,
      "tion": 4796,
      "Ġdefence": 4797,
      "Ġrevol": 4798,
      "Ġtypical": 4799,
      "Ġportuguese": 4800,
      "Ġroute": 4801,
      "Ġpartners": 4802,
      "ellow": 4803,
      "Ġ1974": 4804,
      "Ġdepending": 4805,
      "Ġsales": 4806,
      "Ġinput": 4807,
      "Ġvow": 4808,
      "Ġchristianity": 4809,
      "Ġclosely": 4810,
      "Ġchain": 4811,
      "Ġresidents": 4812,
      "Ġreports": 4813,
      "Ġauthorities": 4814,
      "such": 4815,
      "Ġfile": 4816,
      "iana": 4817,
      "Ġparents": 4818,
      "Ġimproved": 4819,
      "eign": 4820,
      "Ġ1973": 4821,
      "Ġdetermin": 4822,
      "Ġsnow": 4823,
      "Ġroughly": 4824,
      "aper": 4825,
      "lers": 4826,
      "uff": 4827,
      "Ã¤": 4828,
      "Ġsant": 4829,
      "ĠâĪ": 4830,
      "Ġregister": 4831,
      "ws": 4832,
      "ician": 4833,
      "Ġattra": 4834,
      "Ġcampus": 4835,
      "Ġintroduction": 4836,
      "Ġinvolve": 4837,
      "non": 4838,
      "Ġbass": 4839,
      "ologies": 4840,
      "iro": 4841,
      "Ġcin": 4842,
      "ali": 4843,
      "Ġcoordin": 4844,
      "Ġaffected": 4845,
      "Ġprinciples": 4846,
      "Ġrepeated": 4847,
      "fe": 4848,
      "ato": 4849,
      "Ġfinished": 4850,
      "atically": 4851,
      "soft": 4852,
      "Ġvisit": 4853,
      "Ġspiritual": 4854,
      "Ġsle": 4855,
      "Ġvon": 4856,
      "Ġcensus": 4857,
      "Ġvector": 4858,
      "john": 4859,
      "Ġagricultural": 4860,
      "Ġhouses": 4861,
      "Ġ1967": 4862,
      "Ġentirely": 4863,
      "hum": 4864,
      "Ġsover": 4865,
      "Ġlas": 4866,
      "Ġentertain": 4867,
      "Ġsovereign": 4868,
      "bet": 4869,
      "sw": 4870,
      "Ġattended": 4871,
      "Ġ1969": 4872,
      "Ġhands": 4873,
      "Ġtrial": 4874,
      "Ġpopularity": 4875,
      "Ġund": 4876,
      "Ġ300": 4877,
      "Ġhistorian": 4878,
      "don": 4879,
      "ading": 4880,
      "Ġstadium": 4881,
      "see": 4882,
      "osph": 4883,
      "ili": 4884,
      "oles": 4885,
      "raw": 4886,
      "Ġchart": 4887,
      "Ġproviding": 4888,
      "Ġinfluential": 4889,
      "Ġpractices": 4890,
      "Ġcorporation": 4891,
      "Ġseats": 4892,
      "ructure": 4893,
      "Ġsatell": 4894,
      "Ġmaintained": 4895,
      "Ġacademic": 4896,
      "Ġaz": 4897,
      "comm": 4898,
      "igenous": 4899,
      "Ġcook": 4900,
      "Ġcircuit": 4901,
      "Ġemerged": 4902,
      "gers": 4903,
      "Ġconsc": 4904,
      "Ġmedium": 4905,
      "Ġartist": 4906,
      "Ġangeles": 4907,
      "Ġdecline": 4908,
      "Ġregarding": 4909,
      "rif": 4910,
      "ords": 4911,
      "Ġequation": 4912,
      "Ġcontinuous": 4913,
      "Ġpage": 4914,
      "Ġram": 4915,
      "Ġlee": 4916,
      "Ġsetting": 4917,
      "Ġ1971": 4918,
      "Ġvisual": 4919,
      "Ġscientists": 4920,
      "Ġwel": 4921,
      "rol": 4922,
      "onym": 4923,
      "Ġnether": 4924,
      "Ġofficer": 4925,
      "Ġtemperatures": 4926,
      "Ġperhaps": 4927,
      "Ġheadquar": 4928,
      "Ġsister": 4929,
      "Ġunknown": 4930,
      "equ": 4931,
      "Ġ?": 4932,
      "heim": 4933,
      "alu": 4934,
      "ceived": 4935,
      "Ġalliance": 4936,
      "Ġmedicine": 4937,
      "ado": 4938,
      "Ġric": 4939,
      "Ġpoem": 4940,
      "Ġmartin": 4941,
      "Ġbact": 4942,
      "Ġcarol": 4943,
      "Ġrose": 4944,
      "Ġrecording": 4945,
      "Ġtraditions": 4946,
      "Ġcommander": 4947,
      "stone": 4948,
      "Ġdefeat": 4949,
      "Ġeld": 4950,
      "Ġexclus": 4951,
      "Ġcomputers": 4952,
      "Ġresolution": 4953,
      "rates": 4954,
      "Ġslo": 4955,
      "Ġrural": 4956,
      "osen": 4957,
      "Ġvisited": 4958,
      "Ġabsol": 4959,
      "Ġnas": 4960,
      "Ġgro": 4961,
      "Ġchrom": 4962,
      "Ġtranslation": 4963,
      "Ġpersian": 4964,
      "Ġprofessor": 4965,
      "Ġaudience": 4966,
      "rations": 4967,
      "Ġtu": 4968,
      "Ġbott": 4969,
      "Ġapproved": 4970,
      "Ġsemi": 4971,
      "Ġpiece": 4972,
      "enger": 4973,
      "anz": 4974,
      "ĠâĢľ": 4975,
      "Ġminutes": 4976,
      "Ġpeoples": 4977,
      "Ġoppon": 4978,
      "isf": 4979,
      "Ġbce": 4980,
      "Ġcausing": 4981,
      "Ġcandidate": 4982,
      "Ġvac": 4983,
      "itionally": 4984,
      "Ġago": 4985,
      "Ġpatri": 4986,
      "Ġpalace": 4987,
      "Ġemployed": 4988,
      "Ġportray": 4989,
      "Ġmanaged": 4990,
      "even": 4991,
      "Ġ177": 4992,
      "Ġextremely": 4993,
      "Ġaspects": 4994,
      "Ġnap": 4995,
      "Ġvehicles": 4996,
      "Ġpenn": 4997,
      "Ġmes": 4998,
      "Ġrivers": 4999,
      "Ġgrant": 5000,
      "Ġparallel": 5001,
      "Ġinhabit": 5002,
      "Ġadministrative": 5003,
      "Ġsom": 5004,
      "Ġpros": 5005,
      "Ġenjoy": 5006,
      "40": 5007,
      "ession": 5008,
      "Ġneighbor": 5009,
      "Ġthousands": 5010,
      "mans": 5011,
      "Ġathe": 5012,
      "Ġpopulations": 5013,
      "Ġsell": 5014,
      "Ġmam": 5015,
      "Ġheb": 5016,
      "Ġministry": 5017,
      "Ġillust": 5018,
      "Ġbbc": 5019,
      "Ġmr": 5020,
      "Ġinterpre": 5021,
      "Ġagency": 5022,
      "ny": 5023,
      "Ġcu": 5024,
      "Ġbon": 5025,
      "Ġash": 5026,
      "Ġottoman": 5027,
      "Ġquite": 5028,
      "Ġcastle": 5029,
      "Ġlearning": 5030,
      "Ġacquired": 5031,
      "Ġpul": 5032,
      "Ġnothing": 5033,
      "Ġinstitution": 5034,
      "Ġtraffic": 5035,
      "iat": 5036,
      "ienced": 5037,
      "Ġbind": 5038,
      "ador": 5039,
      "Ġjurisd": 5040,
      "ione": 5041,
      "Ġdynam": 5042,
      "Ġnetherlands": 5043,
      "rence": 5044,
      "Ġsettled": 5045,
      "Ġgot": 5046,
      "Ġscore": 5047,
      "Ġnewly": 5048,
      "Ġpolar": 5049,
      "Ġdebate": 5050,
      "kh": 5051,
      "Ġvotes": 5052,
      "Ġdedicated": 5053,
      "Ġhour": 5054,
      "Ġpaint": 5055,
      "Ġtribes": 5056,
      "Ġultimately": 5057,
      "Ġaccompan": 5058,
      "bury": 5059,
      "Ġsole": 5060,
      "Ġconfeder": 5061,
      "zech": 5062,
      "12": 5063,
      "Ġton": 5064,
      "ishing": 5065,
      "sels": 5066,
      "Ġ1966": 5067,
      "Ġskin": 5068,
      "Ġnetworks": 5069,
      "eff": 5070,
      "oring": 5071,
      "Ġindigenous": 5072,
      "Ġpreced": 5073,
      "Ġpurposes": 5074,
      "oo": 5075,
      "Ġsab": 5076,
      "Ġpick": 5077,
      "oured": 5078,
      "Ġhell": 5079,
      "Ġchosen": 5080,
      "Ġcorps": 5081,
      "Ġasian": 5082,
      "unt": 5083,
      "Ġhorse": 5084,
      "Ġthir": 5085,
      "Ġsust": 5086,
      "Ġspin": 5087,
      "Ġip": 5088,
      "rees": 5089,
      "Ġcoming": 5090,
      "Ġgovernments": 5091,
      "Ġratio": 5092,
      "Ġrevealed": 5093,
      "Ġconnection": 5094,
      "Ġeditor": 5095,
      "Ġrival": 5096,
      "Ġapple": 5097,
      "Ġlabel": 5098,
      "Ġmeasures": 5099,
      "Ġsurrounding": 5100,
      "Ġchamber": 5101,
      "Ġexerc": 5102,
      "Ġrestrict": 5103,
      "Ġcontributed": 5104,
      "Ġwid": 5105,
      "Ġken": 5106,
      "Ġplate": 5107,
      "Ġusage": 5108,
      "Ġapart": 5109,
      "Ġengines": 5110,
      "Ġgreatly": 5111,
      "kin": 5112,
      "Ġcav": 5113,
      "urt": 5114,
      "Ġsevent": 5115,
      "Ġfirm": 5116,
      "Ġgreece": 5117,
      "iling": 5118,
      "bes": 5119,
      "Ġargument": 5120,
      "Ġalge": 5121,
      "Ġimages": 5122,
      "Ġconstitutional": 5123,
      "Ġpenins": 5124,
      "rapy": 5125,
      "Ġsafety": 5126,
      "rim": 5127,
      "Ġduke": 5128,
      "Ġ33": 5129,
      "akh": 5130,
      "Ġclo": 5131,
      "ologist": 5132,
      "Ġideal": 5133,
      "rane": 5134,
      "Ġkings": 5135,
      "Ġjac": 5136,
      "Ġtitled": 5137,
      "Ġdetermine": 5138,
      "Ġconcluded": 5139,
      "Ġtouch": 5140,
      "Ġarc": 5141,
      "Ġcorn": 5142,
      "Ġreading": 5143,
      "Ġvehicle": 5144,
      "ni": 5145,
      "Ġfant": 5146,
      "Ġplane": 5147,
      "Ġgeomet": 5148,
      "Ġtechnique": 5149,
      "Ġauton": 5150,
      "Ġorders": 5151,
      "igrants": 5152,
      "inger": 5153,
      "stream": 5154,
      "ĠÂ£": 5155,
      "Ġpoetry": 5156,
      "Ġconfirmed": 5157,
      "Ġ1965": 5158,
      "Ġtheorem": 5159,
      "Ġcriminal": 5160,
      "icon": 5161,
      "Ġstable": 5162,
      "iants": 5163,
      "Ġarchae": 5164,
      "Ġsucceeded": 5165,
      "di": 5166,
      "Ġtransition": 5167,
      "Ġ1977": 5168,
      "Ġ178": 5169,
      "Ġmathematical": 5170,
      "oon": 5171,
      "Ġmarine": 5172,
      "Ġcontinues": 5173,
      "Ġcriticism": 5174,
      "Ġmode": 5175,
      "Ġexplain": 5176,
      "Ġtai": 5177,
      "Ġhistorians": 5178,
      "Ġnazi": 5179,
      "Ġliquid": 5180,
      "vis": 5181,
      "ĠÏ": 5182,
      "Ġles": 5183,
      "active": 5184,
      "Ġbrothers": 5185,
      "Ġintellect": 5186,
      "rie": 5187,
      "Ġadvert": 5188,
      "mi": 5189,
      "Ġille": 5190,
      "Ġmort": 5191,
      "Ġunlike": 5192,
      "Ġselect": 5193,
      "Ġreality": 5194,
      "Ġsciences": 5195,
      "Ġabsolute": 5196,
      "xual": 5197,
      "Ġunable": 5198,
      "Ġinvestment": 5199,
      "Ġlayer": 5200,
      "Ġestablishment": 5201,
      "Ġchalleng": 5202,
      "Ġpc": 5203,
      "Ġfu": 5204,
      "ictions": 5205,
      "Ġaccounts": 5206,
      "Ġselected": 5207,
      "Ġcd": 5208,
      "Ġelectro": 5209,
      "Ġlinked": 5210,
      "Ġmerc": 5211,
      "rix": 5212,
      "Ġelev": 5213,
      "Ġneeds": 5214,
      "Ġisraeli": 5215,
      "Ġlithu": 5216,
      "house": 5217,
      "Ġ1939": 5218,
      "abeth": 5219,
      "Ġyellow": 5220,
      "ogy": 5221,
      "Ġimag": 5222,
      "Ġoppos": 5223,
      "itzer": 5224,
      "ida": 5225,
      "ache": 5226,
      "Ġabd": 5227,
      "Ġotherwise": 5228,
      "Ġfeat": 5229,
      "ux": 5230,
      "Ġfru": 5231,
      "play": 5232,
      "Ġ38": 5233,
      "ologists": 5234,
      "Ġvirginia": 5235,
      "Ġczech": 5236,
      "Ġcycl": 5237,
      "Ġaer": 5238,
      "ople": 5239,
      "Ġexped": 5240,
      "Ġshell": 5241,
      "Ġnarrow": 5242,
      "Ġrapidly": 5243,
      "iciency": 5244,
      "Ġinterpretation": 5245,
      "Ġalbert": 5246,
      "Ġexperienced": 5247,
      "Ġbands": 5248,
      "Ġdominated": 5249,
      "Ġprincipal": 5250,
      "Ġagriculture": 5251,
      "oren": 5252,
      "Ġgenetic": 5253,
      "Ġdefend": 5254,
      "Ġ150": 5255,
      "ket": 5256,
      "isp": 5257,
      "Ġabol": 5258,
      "Ġ1963": 5259,
      "Ġadvance": 5260,
      "Ġnearby": 5261,
      "Ġ36": 5262,
      "Ġcapable": 5263,
      "ois": 5264,
      "Ġsie": 5265,
      "Ġtrust": 5266,
      "Ġbible": 5267,
      "Ġhistoric": 5268,
      "Ġexception": 5269,
      "Ġtruth": 5270,
      "rete": 5271,
      "Ġphr": 5272,
      "Ġ1962": 5273,
      "Ġstrongly": 5274,
      "Ġbudget": 5275,
      "similar": 5276,
      "hr": 5277,
      "inity": 5278,
      "Ġdoll": 5279,
      "olitan": 5280,
      "Ġuniform": 5281,
      "do": 5282,
      "ja": 5283,
      "ura": 5284,
      "Ġpieces": 5285,
      "Ġinfrast": 5286,
      "Ġbroke": 5287,
      "before": 5288,
      "Ġresearc": 5289,
      "Ġbed": 5290,
      "Ġbah": 5291,
      "Ġfeed": 5292,
      "Ġsurvey": 5293,
      "Ġprotein": 5294,
      "Ġarabic": 5295,
      "ena": 5296,
      "Ġeg": 5297,
      "Ġuniversities": 5298,
      "Ġveget": 5299,
      "Ġconsiderable": 5300,
      "Ġsafe": 5301,
      "Ġdiet": 5302,
      "Ġunc": 5303,
      "Ġknight": 5304,
      "Ġrepresentatives": 5305,
      "Ġhindu": 5306,
      "otion": 5307,
      "Ġprocessing": 5308,
      "Ġmoral": 5309,
      "Ġcolumbia": 5310,
      "tes": 5311,
      "Ġtwel": 5312,
      "Ġedge": 5313,
      "Ġextent": 5314,
      "asy": 5315,
      "Ġku": 5316,
      "Ġserving": 5317,
      "itarian": 5318,
      "Ġmanner": 5319,
      "Ġelimin": 5320,
      "know": 5321,
      "pir": 5322,
      "orters": 5323,
      "Ġanton": 5324,
      "Ġrig": 5325,
      "Ġgreg": 5326,
      "Ġstanding": 5327,
      "Ġholds": 5328,
      "onian": 5329,
      "Ġcards": 5330,
      "Ġcomedy": 5331,
      "Ġcancer": 5332,
      "Ġtwice": 5333,
      "Ġ1964": 5334,
      "Ġbatt": 5335,
      "Ġmovements": 5336,
      "Ġsweden": 5337,
      "organ": 5338,
      "Ġutil": 5339,
      "Ġonline": 5340,
      "Ġdesigns": 5341,
      "Ġperiods": 5342,
      "Ġdominant": 5343,
      "Ġacting": 5344,
      "contin": 5345,
      "Ġatomic": 5346,
      "Ġcolony": 5347,
      "Ġwritings": 5348,
      "Ġukra": 5349,
      "Ġessential": 5350,
      "Ġpy": 5351,
      "ollo": 5352,
      "Ġshall": 5353,
      "24": 5354,
      "modern": 5355,
      "Ġlun": 5356,
      "Ġasc": 5357,
      "Ġwhy": 5358,
      "Ġprovinces": 5359,
      "Ġ1948": 5360,
      "Ġdrink": 5361,
      "Ġveloc": 5362,
      "pat": 5363,
      "eland": 5364,
      "Ġteaching": 5365,
      "issance": 5366,
      "Ġconsisting": 5367,
      "anes": 5368,
      "Ġattend": 5369,
      "Ġdeclined": 5370,
      "Ġmeasured": 5371,
      "Ġtwenty": 5372,
      "15": 5373,
      "Ġstan": 5374,
      "thur": 5375,
      "Ġteac": 5376,
      "phone": 5377,
      "Ġregime": 5378,
      "Ġinterests": 5379,
      "Ġpeninsula": 5380,
      "celer": 5381,
      "Ġproducer": 5382,
      "grad": 5383,
      "Ġcategory": 5384,
      "Ġexists": 5385,
      "Ġiran": 5386,
      "Ġrecognition": 5387,
      "Ġrus": 5388,
      "Ġorchest": 5389,
      "Ġexpect": 5390,
      "Ġmetrop": 5391,
      "Ġinnov": 5392,
      "Ġfash": 5393,
      "Ġyield": 5394,
      "Ġmerch": 5395,
      "Ġinhabitants": 5396,
      "rey": 5397,
      "Ġallies": 5398,
      "Ġrelation": 5399,
      "iders": 5400,
      "usalem": 5401,
      "16": 5402,
      "Ġbear": 5403,
      "Ġjoin": 5404,
      "Ġdegrees": 5405,
      "18": 5406,
      "nat": 5407,
      "Ġvul": 5408,
      "Ġcomposition": 5409,
      "Ġportion": 5410,
      "Ġcaptain": 5411,
      "Ġprotestant": 5412,
      "Ġeye": 5413,
      "Ġcabinet": 5414,
      "pes": 5415,
      "zo": 5416,
      "Ġtail": 5417,
      "Ġpractical": 5418,
      "Ġwant": 5419,
      "Ġabst": 5420,
      "certain": 5421,
      "Ġrepresentation": 5422,
      "Ġcomponent": 5423,
      "Ġvietnam": 5424,
      "Ġsoutheast": 5425,
      "Ġfocused": 5426,
      "jection": 5427,
      "ÅĤ": 5428,
      "Ġtrees": 5429,
      "Ġlogic": 5430,
      "Ġstraight": 5431,
      "Ġmessage": 5432,
      "Ġhebrew": 5433,
      "Ġtren": 5434,
      "ching": 5435,
      "Ġcompl": 5436,
      "Ġscand": 5437,
      "Ġpublish": 5438,
      "Ġtrain": 5439,
      "14": 5440,
      "Ġsar": 5441,
      "Ġcomic": 5442,
      "Ġwales": 5443,
      "Ġcorresponding": 5444,
      "Ġinfrastructure": 5445,
      "Ġdivers": 5446,
      "Ġrepresents": 5447,
      "yan": 5448,
      "Ġtaught": 5449,
      "antine": 5450,
      "Ġvalid": 5451,
      "Ġcoalition": 5452,
      "Ġmulti": 5453,
      "Ġol": 5454,
      "rome": 5455,
      "Ġseems": 5456,
      "Ġcla": 5457,
      "Ġholding": 5458,
      "Ġepisodes": 5459,
      "Ġhusband": 5460,
      "aria": 5461,
      "Ġcars": 5462,
      "Ġmanufacturing": 5463,
      "Ġenh": 5464,
      "fully": 5465,
      "Ġincreases": 5466,
      "Ġhousehold": 5467,
      "Ġtraditionally": 5468,
      "Ġgradually": 5469,
      "ho": 5470,
      "Ġwis": 5471,
      "rog": 5472,
      "Ġtools": 5473,
      "Ġconstruct": 5474,
      "Ġsupporting": 5475,
      "Ġappropri": 5476,
      "Ġrenamed": 5477,
      "Ġfacilities": 5478,
      "order": 5479,
      "stood": 5480,
      "Ġmassive": 5481,
      "Ġviewed": 5482,
      "Ġproteins": 5483,
      "Ġjerusalem": 5484,
      "between": 5485,
      "70": 5486,
      "Ġcrow": 5487,
      "Ġinner": 5488,
      "Ġtower": 5489,
      "Ġallied": 5490,
      "ranean": 5491,
      "Ġteach": 5492,
      "Ġcharacteristics": 5493,
      "Ġscottish": 5494,
      "Ġ#": 5495,
      "Ġslaves": 5496,
      "Ġdrawn": 5497,
      "Ġencoun": 5498,
      "iny": 5499,
      "Ġperfect": 5500,
      "Ġmanus": 5501,
      "Ġtesting": 5502,
      "Ġappoint": 5503,
      "Ġvariable": 5504,
      "Ġmolecules": 5505,
      "Ġplot": 5506,
      "Ġacceler": 5507,
      "naissance": 5508,
      "Ġdenomin": 5509,
      "Ġyounger": 5510,
      "Ġdates": 5511,
      "Ġ34": 5512,
      "Ġseparated": 5513,
      "Ġcosts": 5514,
      "Ġopposite": 5515,
      "fall": 5516,
      "Ġcalls": 5517,
      "Ġeffectively": 5518,
      "Ġoperate": 5519,
      "Ġbaseball": 5520,
      "Ġconscious": 5521,
      "inations": 5522,
      "Ġstrict": 5523,
      "Ġherit": 5524,
      "Ġvast": 5525,
      "Ġphon": 5526,
      "Ġeliz": 5527,
      "Ġiniti": 5528,
      "Ġconcepts": 5529,
      "Ġspeakers": 5530,
      "Ġfashion": 5531,
      "Ġprepar": 5532,
      "Ġafghanistan": 5533,
      "Ġevolved": 5534,
      "Ġweather": 5535,
      "Ġjean": 5536,
      "Ġalgebra": 5537,
      "iar": 5538,
      "anium": 5539,
      "Ġoxford": 5540,
      "Ġsenior": 5541,
      "Ġbure": 5542,
      "Ġkid": 5543,
      "osure": 5544,
      "Ġclim": 5545,
      "Ġscul": 5546,
      "Ġcultures": 5547,
      "Ġopinion": 5548,
      "500": 5549,
      "Ġsort": 5550,
      "Ġbom": 5551,
      "Ġdream": 5552,
      "urg": 5553,
      "Ġcanon": 5554,
      "Ġbranc": 5555,
      "Ġtransmission": 5556,
      "Ġclassified": 5557,
      "Ġaustria": 5558,
      "cel": 5559,
      "Ġatoms": 5560,
      "Ġdeclar": 5561,
      "Ġalgorithm": 5562,
      "Ġped": 5563,
      "Ġassumed": 5564,
      "Ġbanks": 5565,
      "Ġclassic": 5566,
      "Ġlegend": 5567,
      "Ġharm": 5568,
      "Ġalongside": 5569,
      "Ġtank": 5570,
      "Ġstal": 5571,
      "Ġalleged": 5572,
      "Ġmanuscript": 5573,
      "Ġsympt": 5574,
      "Ġmurder": 5575,
      "lywood": 5576,
      "urally": 5577,
      "igan": 5578,
      "Ġdemocracy": 5579,
      "Ġmachines": 5580,
      "Ġindicate": 5581,
      "Ġselection": 5582,
      "Ġinherit": 5583,
      "Ġheadquarters": 5584,
      "Ġbeaut": 5585,
      "Ġdeploy": 5586,
      "Ġdoctrine": 5587,
      "itled": 5588,
      "Ġgender": 5589,
      "Ġphilipp": 5590,
      "Ġprotocol": 5591,
      "tz": 5592,
      "Ġna": 5593,
      "Ġproof": 5594,
      "Ġarticles": 5595,
      "Ġrefuge": 5596,
      "Ġstore": 5597,
      "Ġderiv": 5598,
      "Ġreconst": 5599,
      "Ġmunicipal": 5600,
      "iable": 5601,
      "Ġfame": 5602,
      "Ġthousand": 5603,
      "Ġatmosphere": 5604,
      "Ġlies": 5605,
      "Ġformally": 5606,
      "Ġhyper": 5607,
      "come": 5608,
      "Ġgenerated": 5609,
      "Ġexpand": 5610,
      "Ġ1944": 5611,
      "Ġexplos": 5612,
      "Ġdocuments": 5613,
      "Ġsuccessfully": 5614,
      "Ġcommunications": 5615,
      "Ġfalse": 5616,
      "Ġgenre": 5617,
      "wealth": 5618,
      "Ġbackground": 5619,
      "Ġcinem": 5620,
      "Ġrit": 5621,
      "Ġrevolutionary": 5622,
      "antly": 5623,
      "hips": 5624,
      "Ġmental": 5625,
      "Ġroles": 5626,
      "Ġmarsh": 5627,
      "Ġattacked": 5628,
      "iterranean": 5629,
      "Ġtrading": 5630,
      "Ġcircle": 5631,
      "Ġegyptian": 5632,
      "Ġincorporated": 5633,
      "ko": 5634,
      "Ġmist": 5635,
      "Ġrein": 5636,
      "Ġjob": 5637,
      "Ġexperiments": 5638,
      "going": 5639,
      "Ġconverted": 5640,
      "Ġelectrons": 5641,
      "Ġattributed": 5642,
      "Ġ*": 5643,
      "Ġfought": 5644,
      "angel": 5645,
      "Ġending": 5646,
      "Ġtitles": 5647,
      "isted": 5648,
      "udes": 5649,
      "Ġslave": 5650,
      "Ġroads": 5651,
      "Ġrandom": 5652,
      "mes": 5653,
      "Ġsed": 5654,
      "Ġnfl": 5655,
      "Ġalleg": 5656,
      "iki": 5657,
      "Ġexplained": 5658,
      "Ġsky": 5659,
      "Ġyouth": 5660,
      "Ġdivine": 5661,
      "Ġhungary": 5662,
      "Ġnormally": 5663,
      "Ġmere": 5664,
      "Ġdeleg": 5665,
      "Ġgene": 5666,
      "Ġmediterranean": 5667,
      "Ġcoastal": 5668,
      "Ġdropped": 5669,
      "Ġalf": 5670,
      "Ġjim": 5671,
      "Ġassass": 5672,
      "Ġflor": 5673,
      "Ġromans": 5674,
      "Ġ75": 5675,
      "ims": 5676,
      "agu": 5677,
      "Ġfinite": 5678,
      "Ġsla": 5679,
      "Ġfrancisco": 5680,
      "Ġdat": 5681,
      "rency": 5682,
      "Ġfranch": 5683,
      "Ġbern": 5684,
      "Ġstorage": 5685,
      "tar": 5686,
      "Ġshif": 5687,
      "ĠâĢĿ": 5688,
      "Ġexplicit": 5689,
      "Ġdomain": 5690,
      "Ġelectrical": 5691,
      "Ġamendment": 5692,
      "Ġdin": 5693,
      "Ġbyz": 5694,
      "akers": 5695,
      "Ġstrate": 5696,
      "Ġdiagn": 5697,
      "Ġkorean": 5698,
      "Ġconcentration": 5699,
      "Ġsculpt": 5700,
      "Ġrenew": 5701,
      "Ġminimum": 5702,
      "Ġwalls": 5703,
      "Ġdescription": 5704,
      "Ġwire": 5705,
      "Ġbib": 5706,
      "Ġmanif": 5707,
      "Ġ400": 5708,
      "Ġconcert": 5709,
      "Ġscholar": 5710,
      "Ġwolf": 5711,
      "Ġphosph": 5712,
      "Ġ1961": 5713,
      "Ġmodified": 5714,
      "Ġenemy": 5715,
      "Ġspaces": 5716,
      "Ġparad": 5717,
      "Ġflood": 5718,
      "Ġhardware": 5719,
      "Ġabandoned": 5720,
      "ture": 5721,
      "Ġbos": 5722,
      "Ġdrop": 5723,
      "ameter": 5724,
      "Ġswitch": 5725,
      "Ġconcerns": 5726,
      "Ġswedish": 5727,
      "Ġalcohol": 5728,
      "Ġwed": 5729,
      "Ġcommonwealth": 5730,
      "Ġsocialist": 5731,
      "Ġoxid": 5732,
      "Ġroot": 5733,
      "Ġcanal": 5734,
      "Ġunderstood": 5735,
      "Ġminority": 5736,
      "Ġintellectual": 5737,
      "ew": 5738,
      "Ġow": 5739,
      "oud": 5740,
      "Ġstim": 5741,
      "Ġindo": 5742,
      "Ġcarl": 5743,
      "Ġformerly": 5744,
      "Ġmanufactur": 5745,
      "communic": 5746,
      "Ġaccused": 5747,
      "Ġmanager": 5748,
      "Ġmechanism": 5749,
      "Ġaxis": 5750,
      "Ġfine": 5751,
      "Ġri": 5752,
      "Ġevalu": 5753,
      "Ġstrategy": 5754,
      "Ġment": 5755,
      "Ġextin": 5756,
      "Ġcriticized": 5757,
      "Ġentertainment": 5758,
      "edia": 5759,
      "Ġassigned": 5760,
      "Ġ1941": 5761,
      "Ġtact": 5762,
      "abet": 5763,
      "Ġerror": 5764,
      "Ġpropag": 5765,
      "Ġpromoted": 5766,
      "roll": 5767,
      "enses": 5768,
      "awa": 5769,
      "Ġsubmar": 5770,
      "Ġ49": 5771,
      "Ġsuccessor": 5772,
      "Ġsuperior": 5773,
      "Ġfresh": 5774,
      "Ġstress": 5775,
      "Ġworth": 5776,
      "ricts": 5777,
      "Ġtests": 5778,
      "Ġvent": 5779,
      "Ġassess": 5780,
      "Ġexisted": 5781,
      "Ġintegrated": 5782,
      "Ġastronom": 5783,
      "Ġfeaturing": 5784,
      "ti": 5785,
      "Ġsons": 5786,
      "Ġampl": 5787,
      "Ġparticle": 5788,
      "Ġwaters": 5789,
      "Ġinfantry": 5790,
      "uous": 5791,
      "Ġcable": 5792,
      "Ġunf": 5793,
      "Ġindones": 5794,
      "Ġjohnson": 5795,
      "13": 5796,
      "Ġrational": 5797,
      "Ġlect": 5798,
      "Ġtrig": 5799,
      "Ġpruss": 5800,
      "ressive": 5801,
      "Ġvisible": 5802,
      "Ġmuslims": 5803,
      "lar": 5804,
      "mond": 5805,
      "Ġnone": 5806,
      "agen": 5807,
      "Ġdepos": 5808,
      "Ġcontinental": 5809,
      "Ġpassage": 5810,
      "pective": 5811,
      "Ġplanning": 5812,
      "Ġinfinite": 5813,
      "lets": 5814,
      "unlike": 5815,
      "Ġcontra": 5816,
      "hedral": 5817,
      "Ġdoing": 5818,
      "Ġinvolves": 5819,
      "Ġdistributed": 5820,
      "Ġnewspaper": 5821,
      "pres": 5822,
      "oul": 5823,
      "opp": 5824,
      "Ġtheme": 5825,
      "Ġdescend": 5826,
      "Ġdesignated": 5827,
      "Ġcrus": 5828,
      "Ġtranslated": 5829,
      "rogen": 5830,
      "Ġ1949": 5831,
      "Ġwitness": 5832,
      "jan": 5833,
      "Ġchlor": 5834,
      "Ġgenes": 5835,
      "Ġlowest": 5836,
      "Ġhitler": 5837,
      "Ġtask": 5838,
      "wis": 5839,
      "enh": 5840,
      "Ġpione": 5841,
      "icians": 5842,
      "Ġorb": 5843,
      "rics": 5844,
      "Ġlocations": 5845,
      "Ġloyal": 5846,
      "tod": 5847,
      "Ġcogn": 5848,
      "iano": 5849,
      "ructions": 5850,
      "Ġsoil": 5851,
      "Ġpersons": 5852,
      "Ġinvolving": 5853,
      "Ġpredomin": 5854,
      "Ġgulf": 5855,
      "Ġjazz": 5856,
      "Ġforming": 5857,
      "Ġmeat": 5858,
      "Ġwebs": 5859,
      "Ġneutral": 5860,
      "claimed": 5861,
      "Ġheritage": 5862,
      "unk": 5863,
      "Ġ65": 5864,
      "Ġaudio": 5865,
      "Ġrebell": 5866,
      "Ġlaboratory": 5867,
      "sk": 5868,
      "oln": 5869,
      "Ġshut": 5870,
      "Ġtransportation": 5871,
      "Ġcoc": 5872,
      "Ġchristmas": 5873,
      "Ġsatisf": 5874,
      "erted": 5875,
      "Ġwine": 5876,
      "Ġhat": 5877,
      "ounder": 5878,
      "Ġactor": 5879,
      "Ġreduction": 5880,
      "Ġreforms": 5881,
      "Ġdistinction": 5882,
      "Ġbeliefs": 5883,
      "Ġjackson": 5884,
      "Ġtam": 5885,
      "hens": 5886,
      "Ġ1942": 5887,
      "Ġvolt": 5888,
      "Ġpainting": 5889,
      "Ġhosted": 5890,
      "ml": 5891,
      "Ġah": 5892,
      "erves": 5893,
      "Ġwaves": 5894,
      "Ġonto": 5895,
      "Ġprol": 5896,
      "Ġcharacterized": 5897,
      "Ġjersey": 5898,
      "Ġot": 5899,
      "Ġsomewhat": 5900,
      "Ġupd": 5901,
      "Ġreprodu": 5902,
      "Ġdependent": 5903,
      "Ġgam": 5904,
      "Ġisot": 5905,
      "urb": 5906,
      "igation": 5907,
      "Ġrod": 5908,
      "Ġpicture": 5909,
      "Ġseasons": 5910,
      "Ġslav": 5911,
      "Ġprecise": 5912,
      "Ġbranches": 5913,
      "Ġmong": 5914,
      "ruption": 5915,
      "Ġapollo": 5916,
      "Ġpenal": 5917,
      "sell": 5918,
      "Ġshift": 5919,
      "Ġbob": 5920,
      "Ġsult": 5921,
      "Ġpier": 5922,
      "Ġnut": 5923,
      "urrent": 5924,
      "osh": 5925,
      "ifications": 5926,
      "var": 5927,
      "Ġfried": 5928,
      "Ġvision": 5929,
      "Ġreputation": 5930,
      "Ġmemorial": 5931,
      "Ġadding": 5932,
      "Ġsignals": 5933,
      "Ġharv": 5934,
      "Ġlegislation": 5935,
      "Ġresearchers": 5936,
      "fir": 5937,
      "Ġgross": 5938,
      "Ġvoted": 5939,
      "Ġneither": 5940,
      "apse": 5941,
      "Ġcommitted": 5942,
      "Ġtourn": 5943,
      "Ġitems": 5944,
      "abil": 5945,
      "aug": 5946,
      "Ġdesert": 5947,
      "umes": 5948,
      "Ġnep": 5949,
      "velt": 5950,
      "Ġefficient": 5951,
      "Ġargues": 5952,
      "Ġcheck": 5953,
      "Ġnovels": 5954,
      "Ġcolonies": 5955,
      "Ġelizabeth": 5956,
      "will": 5957,
      "icks": 5958,
      "osevelt": 5959,
      "Ġacknow": 5960,
      "Ġradical": 5961,
      "Ġjeff": 5962,
      "Ġhoriz": 5963,
      "Ġdrugs": 5964,
      "22": 5965,
      "Ġtenn": 5966,
      "Ġss": 5967,
      "Ġplus": 5968,
      "Ġagent": 5969,
      "Ġsynd": 5970,
      "hammad": 5971,
      "Ġchemistry": 5972,
      "prise": 5973,
      "Ġfloor": 5974,
      "ran": 5975,
      "Ġlot": 5976,
      "omorph": 5977,
      "cts": 5978,
      "Ġattract": 5979,
      "Ġbrig": 5980,
      "Ġcalc": 5981,
      "Ġmembership": 5982,
      "Ġbiological": 5983,
      "Ġcandidates": 5984,
      "gn": 5985,
      "Ġ39": 5986,
      "burgh": 5987,
      "Ġske": 5988,
      "ager": 5989,
      "ĠâĪĴ": 5990,
      "Ġslavery": 5991,
      "pan": 5992,
      "bridge": 5993,
      "Ġexcess": 5994,
      "ensional": 5995,
      "Ġamounts": 5996,
      "cription": 5997,
      "Ġhypothesis": 5998,
      "Ġnorway": 5999,
      "Ġoccas": 6000,
      "Ġexplo": 6001,
      "Ġimplemented": 6002,
      "Ġhunting": 6003,
      "Ġarbit": 6004,
      "Ġgermanic": 6005,
      "Ġmetropolitan": 6006,
      "unc": 6007,
      "emic": 6008,
      "Ġclassification": 6009,
      "Ġ1947": 6010,
      "Ġdelay": 6011,
      "Ġcant": 6012,
      "uled": 6013,
      "Ġyards": 6014,
      "Ġmechanical": 6015,
      "Ġmicrosoft": 6016,
      "Ġmcc": 6017,
      "Ġproceed": 6018,
      "employ": 6019,
      "Ġphilip": 6020,
      "Ġangle": 6021,
      "Ġprepared": 6022,
      "86": 6023,
      "cs": 6024,
      "Ġsample": 6025,
      "iday": 6026,
      "Ġbright": 6027,
      "Ġ37": 6028,
      "Ġvelocity": 6029,
      "Ġcow": 6030,
      "Ġpartly": 6031,
      "Ġ1956": 6032,
      "Ġ1958": 6033,
      "Ġpersonnel": 6034,
      "Ġtwelve": 6035,
      "cal": 6036,
      "ivals": 6037,
      "Ġexplan": 6038,
      "mus": 6039,
      "vak": 6040,
      "Ġthing": 6041,
      "aya": 6042,
      "Ġunus": 6043,
      "Ġpromote": 6044,
      "Ġanalog": 6045,
      "Ġensure": 6046,
      "Ġcontroversy": 6047,
      "Ġoccasionally": 6048,
      "Ġleban": 6049,
      "Ġquestions": 6050,
      "Ġcontroversial": 6051,
      "Ġheard": 6052,
      "Ġmatters": 6053,
      "Ġcouple": 6054,
      "gia": 6055,
      "Ġdual": 6056,
      "incoln": 6057,
      "Ġstyles": 6058,
      "today": 6059,
      "adel": 6060,
      "Ġpossibility": 6061,
      "Ġathlet": 6062,
      "etary": 6063,
      "Ġfavour": 6064,
      "Ġfellow": 6065,
      "Ġtransferred": 6066,
      "Ġconsec": 6067,
      "Ġhair": 6068,
      "Ġstrike": 6069,
      "Ġapply": 6070,
      "Ġcaes": 6071,
      "Ġpatterns": 6072,
      "Ġanarch": 6073,
      "Ġreaching": 6074,
      "Ġgoes": 6075,
      "Ġkilling": 6076,
      "Ġsatellite": 6077,
      "rons": 6078,
      "orig": 6079,
      "aine": 6080,
      "Ġshortly": 6081,
      "Ġmagnitude": 6082,
      "Ġdetails": 6083,
      "Ġsymptoms": 6084,
      "Ġtiss": 6085,
      "opl": 6086,
      "Ġspan": 6087,
      "Ġgermans": 6088,
      "Ġconcerned": 6089,
      "Ġtreated": 6090,
      "Ġsubjects": 6091,
      "Ġadapted": 6092,
      "Ġturkish": 6093,
      "pass": 6094,
      "ira": 6095,
      "Ġkong": 6096,
      "acle": 6097,
      "ighth": 6098,
      "Ġroots": 6099,
      "ji": 6100,
      "Ġselling": 6101,
      "Ġpig": 6102,
      "Ġfans": 6103,
      "Ġgrown": 6104,
      "Ġrif": 6105,
      "Ġrepresenting": 6106,
      "Ġtaiwan": 6107,
      "Ġing": 6108,
      "Ġapost": 6109,
      "Ġdebt": 6110,
      "Ġassistance": 6111,
      "chy": 6112,
      "ava": 6113,
      "Ġinterior": 6114,
      "Ġorigins": 6115,
      "ikh": 6116,
      "worth": 6117,
      "Ġbegins": 6118,
      "Ġextension": 6119,
      "Ġserves": 6120,
      "Ġconfig": 6121,
      "Ġrelationships": 6122,
      "Ġ|": 6123,
      "enna": 6124,
      "Ġhan": 6125,
      "idency": 6126,
      "Ġentry": 6127,
      "Ġcopies": 6128,
      "Ġwilliams": 6129,
      "additionally": 6130,
      "Ġshaped": 6131,
      "zy": 6132,
      "Ġministers": 6133,
      "Ġdistricts": 6134,
      "Ġfinland": 6135,
      "iac": 6136,
      "Ġmah": 6137,
      "Ġincident": 6138,
      "Ġdecay": 6139,
      "Ġweapon": 6140,
      "instead": 6141,
      "gments": 6142,
      "Ġaqu": 6143,
      "Ġvit": 6144,
      "Ġadvis": 6145,
      "Ġdeclaration": 6146,
      "town": 6147,
      "Ġosc": 6148,
      "Ġjones": 6149,
      "Ġboston": 6150,
      "osexual": 6151,
      "Ġthrone": 6152,
      "Ġsubstantial": 6153,
      "ounded": 6154,
      "Ġoffers": 6155,
      "Ġhundreds": 6156,
      "yer": 6157,
      "Ġwrites": 6158,
      "Ġleads": 6159,
      "Ġbottom": 6160,
      "Ġrecept": 6161,
      "idden": 6162,
      "Ġmarkets": 6163,
      "Ġperforming": 6164,
      "Ġlearned": 6165,
      "Ġlegislative": 6166,
      "Ġdol": 6167,
      "rain": 6168,
      "Ġleaves": 6169,
      "Ġcategories": 6170,
      "Ġcredited": 6171,
      "Ġexperimental": 6172,
      "Ġadmir": 6173,
      "17": 6174,
      "rus": 6175,
      "Ġcp": 6176,
      "Ġcited": 6177,
      "Ġfoss": 6178,
      "esty": 6179,
      "ultane": 6180,
      "Ġfox": 6181,
      "Ġpitch": 6182,
      "Ġexclud": 6183,
      "aka": 6184,
      "Ġfeet": 6185,
      "Ġthemes": 6186,
      "Ġflav": 6187,
      "Ġoriginated": 6188,
      "Ġerr": 6189,
      "Ġdeaths": 6190,
      "Ġaffil": 6191,
      "Ġretained": 6192,
      "Ġpent": 6193,
      "Ġthin": 6194,
      "opes": 6195,
      "Ġmarx": 6196,
      "Ġshowing": 6197,
      "Ġpassing": 6198,
      "Ġprotected": 6199,
      "Ġsugar": 6200,
      "Ġfunds": 6201,
      "Ġdriven": 6202,
      "Ġka": 6203,
      "Ġdefine": 6204,
      "Ġtourism": 6205,
      "Ġboat": 6206,
      "Ġsched": 6207,
      "Ġanthrop": 6208,
      "Ġdelivered": 6209,
      "Ġritual": 6210,
      "sub": 6211,
      "Ġak": 6212,
      "Ġsi": 6213,
      "Ġbang": 6214,
      "Ġmouth": 6215,
      "Ġyard": 6216,
      "Ġrow": 6217,
      "Ġidentify": 6218,
      "Ġ1918": 6219,
      "Ġdestruction": 6220,
      "Ġconsumption": 6221,
      "Ġjulian": 6222,
      "Ġfounder": 6223,
      "ela": 6224,
      "Ġhem": 6225,
      "23": 6226,
      "Ġfaced": 6227,
      "astern": 6228,
      "Ġvoy": 6229,
      "ansas": 6230,
      "Ġconsult": 6231,
      "Ġcharged": 6232,
      "Ġmissile": 6233,
      "Ġpilot": 6234,
      "real": 6235,
      "Ġrice": 6236,
      "Ġexpensive": 6237,
      "Ġdemonstrated": 6238,
      "Ġtall": 6239,
      "Ġ1959": 6240,
      "Ġdating": 6241,
      "appe": 6242,
      "Ġcalling": 6243,
      "Ġalbums": 6244,
      "27": 6245,
      "oly": 6246,
      "Ġbil": 6247,
      "Ġhub": 6248,
      "Ġappeal": 6249,
      "Ġnorthwest": 6250,
      "Ġchanging": 6251,
      "Ġreducing": 6252,
      "Ġcopper": 6253,
      "Ġsurvived": 6254,
      "Ġbes": 6255,
      "Ġmosc": 6256,
      "Ġrepresentative": 6257,
      "ographical": 6258,
      "Ġperformances": 6259,
      "rose": 6260,
      "rav": 6261,
      "Ġrecru": 6262,
      "Ġshel": 6263,
      "Ġcontroll": 6264,
      "Ġfemin": 6265,
      "Ġguns": 6266,
      "Ġouter": 6267,
      "Ġfly": 6268,
      "Ġstating": 6269,
      "Ġrising": 6270,
      "Ġsupporters": 6271,
      "Ġpriest": 6272,
      "Ġdivisions": 6273,
      "Ġgods": 6274,
      "Ġbirds": 6275,
      "Ġcrop": 6276,
      "tering": 6277,
      "Ġtry": 6278,
      "Ġsoul": 6279,
      "Ġcapture": 6280,
      "Ġparliamentary": 6281,
      "net": 6282,
      "Ġevil": 6283,
      "Ġhollywood": 6284,
      "Ġexpedition": 6285,
      "28": 6286,
      "Ġtone": 6287,
      "Ġtrop": 6288,
      "Ġcul": 6289,
      "abilities": 6290,
      "Ġenab": 6291,
      "Ġbehavi": 6292,
      "Ġpreferred": 6293,
      "only": 6294,
      "Ġmarg": 6295,
      "Ġserver": 6296,
      "Ġattached": 6297,
      "Ġdistinguished": 6298,
      "Ġadjust": 6299,
      "Ġko": 6300,
      "engers": 6301,
      "Ġclubs": 6302,
      "Ġdialects": 6303,
      "Ġolympic": 6304,
      "Ġsultan": 6305,
      "Ġil": 6306,
      "anth": 6307,
      "uten": 6308,
      "Ġ55": 6309,
      "ylv": 6310,
      "Ġconsisted": 6311,
      "Ġrequirements": 6312,
      "Ġwithdraw": 6313,
      "Ġscheme": 6314,
      "Ġbag": 6315,
      "itudes": 6316,
      "Ġreactions": 6317,
      "Ġmayor": 6318,
      "Ġannivers": 6319,
      "Ġalexand": 6320,
      "Ġchose": 6321,
      "Ġserb": 6322,
      "Ġends": 6323,
      "Ġtrip": 6324,
      "Ġhay": 6325,
      "Ġgri": 6326,
      "Ġstages": 6327,
      "Ġkin": 6328,
      "Ġcompat": 6329,
      "Ġproduces": 6330,
      "Ġvolcan": 6331,
      "Ġprayer": 6332,
      "vo": 6333,
      "western": 6334,
      "Ġkit": 6335,
      "Ġentitled": 6336,
      "Ġconventional": 6337,
      "Ġpunish": 6338,
      "Ġdimensional": 6339,
      "Ġmun": 6340,
      "Ġillegal": 6341,
      "Ġmm": 6342,
      "Ġjobs": 6343,
      "Ġbroken": 6344,
      "Ġreceiving": 6345,
      "ossible": 6346,
      "Ġturkey": 6347,
      "Ġhence": 6348,
      "Ġsulf": 6349,
      "Ġfab": 6350,
      "alf": 6351,
      "Ġmining": 6352,
      "Ġ1943": 6353,
      "Ġ1957": 6354,
      "Ġconstitu": 6355,
      "Ġsymbols": 6356,
      "Ġscenes": 6357,
      "26": 6358,
      "29": 6359,
      "gi": 6360,
      "thetic": 6361,
      "osa": 6362,
      "Ġmales": 6363,
      "zen": 6364,
      "idel": 6365,
      "sole": 6366,
      "Ġprices": 6367,
      "ribed": 6368,
      "Ġfounding": 6369,
      "Ġsixth": 6370,
      "Ġdun": 6371,
      "Ġhorn": 6372,
      "Ġtrying": 6373,
      "auc": 6374,
      "Ġ44": 6375,
      "bin": 6376,
      "Ġ1900": 6377,
      "Ġinvented": 6378,
      "Ġ1953": 6379,
      "Ġrestric": 6380,
      "Ġprobability": 6381,
      "Ġhabit": 6382,
      "Ġcircumst": 6383,
      "Ġnan": 6384,
      "Ġrum": 6385,
      "Ġclar": 6386,
      "Ġmetals": 6387,
      "Ġhistorically": 6388,
      "Ġeducational": 6389,
      "Ġnominated": 6390,
      "Ġvocal": 6391,
      "rat": 6392,
      "rical": 6393,
      "xide": 6394,
      "olis": 6395,
      "therefore": 6396,
      "Ġsalt": 6397,
      "Ġstrategic": 6398,
      "once": 6399,
      "olith": 6400,
      "romagn": 6401,
      "Ġmars": 6402,
      "Ġwarm": 6403,
      "Ġdenmark": 6404,
      "Ġoccupation": 6405,
      "Ġnoun": 6406,
      "Ġhyp": 6407,
      "Ġprogramme": 6408,
      "Ġfederation": 6409,
      "Ġburied": 6410,
      "Ġindicated": 6411,
      "Ġcarrying": 6412,
      "Ġbegun": 6413,
      "Ġmoscow": 6414,
      "uing": 6415,
      "Ġhier": 6416,
      "irect": 6417,
      "Ġaccord": 6418,
      "Ġsimultane": 6419,
      "Ġ1946": 6420,
      "Ġvariations": 6421,
      "Ġalpha": 6422,
      "fort": 6423,
      "Ġfro": 6424,
      "unction": 6425,
      "iah": 6426,
      "Ġcomplic": 6427,
      "Ġclock": 6428,
      "Ġoblig": 6429,
      "Ġsounds": 6430,
      "Ġlooking": 6431,
      "Ġclean": 6432,
      "Ġanniversary": 6433,
      "han": 6434,
      "Ġ48": 6435,
      "Ġguar": 6436,
      "Ġlongest": 6437,
      "roscop": 6438,
      "Ġorganic": 6439,
      "Ġpsychology": 6440,
      "Ġboundary": 6441,
      "Ġinvestigation": 6442,
      "Ġchairman": 6443,
      "Ġdio": 6444,
      "Ġbuddh": 6445,
      "ilation": 6446,
      "ancing": 6447,
      "Ġheaded": 6448,
      "Ġargent": 6449,
      "Ġbin": 6450,
      "omes": 6451,
      "seud": 6452,
      "Ġplain": 6453,
      "Ġsalv": 6454,
      "Ġdiam": 6455,
      "Ġts": 6456,
      "Ġreserve": 6457,
      "Ġoverse": 6458,
      "Ġquad": 6459,
      "Ġphilosophical": 6460,
      "Ã³n": 6461,
      "Ġrarely": 6462,
      "Ġreflected": 6463,
      "Ġbronze": 6464,
      "itzerland": 6465,
      "onso": 6466,
      "ulating": 6467,
      "Ġ43": 6468,
      "Ġinfe": 6469,
      "Ġresponsibility": 6470,
      "Ã§": 6471,
      "Ġflying": 6472,
      "Ġclin": 6473,
      "Ġvariation": 6474,
      "Ġmainland": 6475,
      "Ġdraft": 6476,
      "Ġchapter": 6477,
      "aly": 6478,
      "issions": 6479,
      "Ġarrival": 6480,
      "ses": 6481,
      "Ġdict": 6482,
      "rac": 6483,
      "aints": 6484,
      "udi": 6485,
      "dule": 6486,
      "asts": 6487,
      "Ġcharges": 6488,
      "Ġdepression": 6489,
      "Ġescape": 6490,
      "Ġbenefit": 6491,
      "Ġbinary": 6492,
      "Ġnotion": 6493,
      "Ġcharacteristic": 6494,
      "cers": 6495,
      "Ġunsu": 6496,
      "oslav": 6497,
      "Ġperceived": 6498,
      "Ġcolour": 6499,
      "Ġoffices": 6500,
      "Ġdepends": 6501,
      "Ġgoals": 6502,
      "Ġemphasis": 6503,
      "eme": 6504,
      "Ġclust": 6505,
      "Ġinterface": 6506,
      "Ġbuff": 6507,
      "Ġfreder": 6508,
      "Ġmorph": 6509,
      "hire": 6510,
      "erals": 6511,
      "Ġshr": 6512,
      "Ġremark": 6513,
      "Ġorganisms": 6514,
      "bro": 6515,
      "enge": 6516,
      "olar": 6517,
      "Ġagents": 6518,
      "Ġ1955": 6519,
      "Ġlimits": 6520,
      "Ġjudge": 6521,
      "Ġsymmet": 6522,
      "Ġgalax": 6523,
      "ey": 6524,
      "Ġmail": 6525,
      "Ġthor": 6526,
      "Ġdecisions": 6527,
      "Ġelectoral": 6528,
      "Ġjuda": 6529,
      "Ġrecommended": 6530,
      "Ġsleep": 6531,
      "life": 6532,
      "Ġarthur": 6533,
      "Ġengaged": 6534,
      "Ġcarib": 6535,
      "Ġpublis": 6536,
      "Ġoperates": 6537,
      "Ġfunding": 6538,
      "Ġdor": 6539,
      "Ġtool": 6540,
      "Ġlen": 6541,
      "etime": 6542,
      "Ġprinted": 6543,
      "Ġmissions": 6544,
      "Ġannex": 6545,
      "Ġsale": 6546,
      "Ġbac": 6547,
      "Ġdiverse": 6548,
      "Ġhug": 6549,
      "Ġeat": 6550,
      "istical": 6551,
      "Ġsupposed": 6552,
      "Ġinvent": 6553,
      "Ġcert": 6554,
      "Ġconcern": 6555,
      "Ġbalance": 6556,
      "Ġibm": 6557,
      "Ġfantasy": 6558,
      "dam": 6559,
      "Ġ1952": 6560,
      "Ġordinary": 6561,
      "Ġgirl": 6562,
      "64": 6563,
      "Ġhur": 6564,
      "Ġconj": 6565,
      "Ġkir": 6566,
      "Ġcha": 6567,
      "Ġresident": 6568,
      "oked": 6569,
      "Ġminute": 6570,
      "Ġfled": 6571,
      "Ġanglo": 6572,
      "Ġcollapse": 6573,
      "inth": 6574,
      "Ġhope": 6575,
      "Ġgate": 6576,
      "Ġtracks": 6577,
      "Ġindustries": 6578,
      "Ġsubsid": 6579,
      "Ġaccompanied": 6580,
      "Ġbattles": 6581,
      "hann": 6582,
      "Ġtons": 6583,
      "Ġbid": 6584,
      "Ġdanish": 6585,
      "Ġwheel": 6586,
      "Ġearned": 6587,
      "Ġvaries": 6588,
      "Ġanything": 6589,
      "Ġprompt": 6590,
      "Ġsubstit": 6591,
      "Ġstrip": 6592,
      "Ġsod": 6593,
      "ila": 6594,
      "Ġtelephone": 6595,
      "Ġidentical": 6596,
      "Ġdispute": 6597,
      "Ġtheology": 6598,
      "Ġfan": 6599,
      "Ġlosing": 6600,
      "Ġsuit": 6601,
      "Ġdismiss": 6602,
      "Ġestate": 6603,
      "Ġtaxes": 6604,
      "Ġdiscussed": 6605,
      "Ġmolecular": 6606,
      "Ġfaster": 6607,
      "stan": 6608,
      "Ġpurs": 6609,
      "Ġcontributions": 6610,
      "Ġalphabet": 6611,
      "Ġohio": 6612,
      "Ġopportunity": 6613,
      "Ġanat": 6614,
      "str": 6615,
      "Ġhear": 6616,
      "Ġ47": 6617,
      "Ġsinger": 6618,
      "Ġrailroad": 6619,
      "ylvania": 6620,
      "Ä«": 6621,
      "Ġpir": 6622,
      "Ġhuge": 6623,
      "Ġrib": 6624,
      "Ġrug": 6625,
      "Ġgodd": 6626,
      "Ġsunday": 6627,
      "Ġarrested": 6628,
      "Ġari": 6629,
      "Ġarmen": 6630,
      "Ġhousing": 6631,
      "Ġhungarian": 6632,
      "bish": 6633,
      "hus": 6634,
      "Ġborders": 6635,
      "Ġruler": 6636,
      "Ġrocket": 6637,
      "Ġwilson": 6638,
      "ratic": 6639,
      "Ġcot": 6640,
      "itic": 6641,
      "Ġroutes": 6642,
      "bel": 6643,
      "eenth": 6644,
      "sis": 6645,
      "van": 6646,
      "Ġstret": 6647,
      "Ġheli": 6648,
      "inson": 6649,
      "Ġargue": 6650,
      "Ġcomposer": 6651,
      "Ġceremony": 6652,
      "mel": 6653,
      "erb": 6654,
      "Ġthick": 6655,
      "omial": 6656,
      "Ġstro": 6657,
      "Ġdivor": 6658,
      "Ġsquad": 6659,
      "Ġencouraged": 6660,
      "Ġdur": 6661,
      "Ġdrew": 6662,
      "Ġhind": 6663,
      "Ġgib": 6664,
      "abul": 6665,
      "Ġresc": 6666,
      "Ġliver": 6667,
      "Ġfunctional": 6668,
      "Ġtherapy": 6669,
      "Ġpseud": 6670,
      "Ġlincoln": 6671,
      "Ġell": 6672,
      "Ġannoun": 6673,
      "Ġtreas": 6674,
      "Ġcelebrated": 6675,
      "Ġphrase": 6676,
      "ito": 6677,
      "emen": 6678,
      "Ġdesire": 6679,
      "Ġmatrix": 6680,
      "Ġcollected": 6681,
      "Ġconsistent": 6682,
      "Ġnobel": 6683,
      "Ġproposal": 6684,
      "Ġtong": 6685,
      "Ġagree": 6686,
      "ront": 6687,
      "Ġmiles": 6688,
      "Ġlandsc": 6689,
      "Ġinfluences": 6690,
      "Ġeverything": 6691,
      "Ġbot": 6692,
      "Ġgn": 6693,
      "Ġunemploy": 6694,
      "Ġcolumn": 6695,
      "never": 6696,
      "Ġsurf": 6697,
      "Ġorganisation": 6698,
      "Ġseek": 6699,
      "Ġdiseases": 6700,
      "Ġeyes": 6701,
      "chester": 6702,
      "Ġreally": 6703,
      "Ġrecip": 6704,
      "Ġaccident": 6705,
      "Ġmembr": 6706,
      "Ġgran": 6707,
      "Ġsecure": 6708,
      "Ġtriang": 6709,
      "Ġreturning": 6710,
      "Ġruling": 6711,
      "Ġluther": 6712,
      "Ġstephen": 6713,
      "furthermore": 6714,
      "Ġtanks": 6715,
      "Ġpel": 6716,
      "Ġgang": 6717,
      "Ġcurrency": 6718,
      "Ġgoth": 6719,
      "Ġpercentage": 6720,
      "Ġkhan": 6721,
      "Ġchallenge": 6722,
      "Ġconversion": 6723,
      "bu": 6724,
      "Ġpale": 6725,
      "Ġunp": 6726,
      "Ġlaid": 6727,
      "Ġphenomenon": 6728,
      "ographer": 6729,
      "Ġinterpreted": 6730,
      "Å¡": 6731,
      "Ġfilled": 6732,
      "ication": 6733,
      "Ġfiles": 6734,
      "Ġretired": 6735,
      "Ġtechnologies": 6736,
      "Ġlinks": 6737,
      "Ġtet": 6738,
      "Ġpartial": 6739,
      "Ġintervent": 6740,
      "valent": 6741,
      "Ġfalls": 6742,
      "Ġimmigrants": 6743,
      "Ġcruc": 6744,
      "Ġgarden": 6745,
      "iveness": 6746,
      "Ġsic": 6747,
      "Ġsight": 6748,
      "Ġworship": 6749,
      "Ġannually": 6750,
      "Ġestablishing": 6751,
      "Ġappropriate": 6752,
      "Ġacknowled": 6753,
      "Ġrestaur": 6754,
      "Ġ1938": 6755,
      "Ġ1919": 6756,
      "Ġrhyth": 6757,
      "Ġelectricity": 6758,
      "first": 6759,
      "Ġguarant": 6760,
      "eding": 6761,
      "Ġlanding": 6762,
      "Ġpassenger": 6763,
      "Ġpatients": 6764,
      "Ġeasy": 6765,
      "Ġcivilian": 6766,
      "Ġhotel": 6767,
      "ele": 6768,
      "Ġempt": 6769,
      "Ġimpossible": 6770,
      "Ġharmon": 6771,
      "within": 6772,
      "Ġadminister": 6773,
      "Ġviolent": 6774,
      "Ġlosses": 6775,
      "Ġcredit": 6776,
      "Ġfired": 6777,
      "Ġdv": 6778,
      "Ġlam": 6779,
      "Ġrenaissance": 6780,
      "ctic": 6781,
      "acent": 6782,
      "about": 6783,
      "Ġwarfare": 6784,
      "Ġpoems": 6785,
      "Ġdeput": 6786,
      "Ġmotiv": 6787,
      "Ġdebut": 6788,
      "Ġpurchased": 6789,
      "Ġbyzantine": 6790,
      "Ġtang": 6791,
      "Ġpear": 6792,
      "ilton": 6793,
      "Ġsections": 6794,
      "Ġknew": 6795,
      "Ġcarrier": 6796,
      "Ġ1933": 6797,
      "Ġfarm": 6798,
      "Ġmorning": 6799,
      "Ġdiplomatic": 6800,
      "similarly": 6801,
      "Ġartific": 6802,
      "Ġresemb": 6803,
      "Ġmillenn": 6804,
      "ek": 6805,
      "Ġpin": 6806,
      "Ġfis": 6807,
      "Ġuns": 6808,
      "Ġabund": 6809,
      "Ġboys": 6810,
      "Ġspectr": 6811,
      "Ġtrained": 6812,
      "Ġmetaph": 6813,
      "Ġregularly": 6814,
      "right": 6815,
      "zer": 6816,
      "ima": 6817,
      "Ġcomics": 6818,
      "Ġkent": 6819,
      "ella": 6820,
      "Ġpresidency": 6821,
      "Ġjudaism": 6822,
      "Ġsah": 6823,
      "orous": 6824,
      "ptic": 6825,
      "Ġpartner": 6826,
      "Ġlasted": 6827,
      "Ġemployment": 6828,
      "Ġemployees": 6829,
      "Ġpurchase": 6830,
      "Ġsustain": 6831,
      "Ġhorizon": 6832,
      "gets": 6833,
      "oir": 6834,
      "Ġans": 6835,
      "Ġprosec": 6836,
      "Ġkick": 6837,
      "Ġenforce": 6838,
      "const": 6839,
      "Ġacids": 6840,
      "Ġprovision": 6841,
      "Ġdepth": 6842,
      "Ġ160": 6843,
      "Ġprede": 6844,
      "Ġencod": 6845,
      "Ġimplementation": 6846,
      "gas": 6847,
      "mont": 6848,
      "Ġaven": 6849,
      "Ġmi": 6850,
      "Ġdated": 6851,
      "Ġgather": 6852,
      "urance": 6853,
      "Ġstored": 6854,
      "Ġswitzerland": 6855,
      "Ġstatistics": 6856,
      "Ġseparation": 6857,
      "Ġsiege": 6858,
      "iner": 6859,
      "Ġuncertain": 6860,
      "Ġsomeone": 6861,
      "Ġexposure": 6862,
      "Ġefficiency": 6863,
      "Ġcondem": 6864,
      "Ġexecuted": 6865,
      "Ġessentially": 6866,
      "Ġbull": 6867,
      "Ġrevers": 6868,
      "Ġali": 6869,
      "Ġromantic": 6870,
      "Ġreferences": 6871,
      "Ġsteps": 6872,
      "Ġtheoretical": 6873,
      "Ġconquest": 6874,
      "Ġspectrum": 6875,
      "iop": 6876,
      "Ġps": 6877,
      "Ġvik": 6878,
      "Ġcoach": 6879,
      "Ġoffensive": 6880,
      "Ġfinn": 6881,
      "Ġsave": 6882,
      "Ġfranchise": 6883,
      "Ġlists": 6884,
      "Ġcenters": 6885,
      "Ġvoltage": 6886,
      "99": 6887,
      "Ã±": 6888,
      "three": 6889,
      "exam": 6890,
      "Ġcopy": 6891,
      "Ġcooperation": 6892,
      "itt": 6893,
      "Ġfasc": 6894,
      "Ġlakes": 6895,
      "Ġvoting": 6896,
      "Ġinstall": 6897,
      "Ġ1954": 6898,
      "Ġtestament": 6899,
      "Ġdetailed": 6900,
      "Ġrevenue": 6901,
      "Ġpi": 6902,
      "Ġdiver": 6903,
      "Ġtoler": 6904,
      "Ġpartially": 6905,
      "Ġblues": 6906,
      "Ġequations": 6907,
      "Ġlegit": 6908,
      "Ġ120": 6909,
      "Ġcroat": 6910,
      "Ġpaintings": 6911,
      "around": 6912,
      "Ġtomb": 6913,
      "aret": 6914,
      "Ġcathedral": 6915,
      "Ġlux": 6916,
      "pet": 6917,
      "Ġbeach": 6918,
      "ules": 6919,
      "agues": 6920,
      "Ġconson": 6921,
      "Ġstead": 6922,
      "Ġmalays": 6923,
      "Ġgrounds": 6924,
      "Ġsubstance": 6925,
      "Ġduty": 6926,
      "Ġdocumentary": 6927,
      "Ġbonds": 6928,
      "Ġjurisdiction": 6929,
      "Ġcommem": 6930,
      "phal": 6931,
      "Ġunderground": 6932,
      "Ġcape": 6933,
      "Ġsocieties": 6934,
      "Ġcosm": 6935,
      "Ġgoddess": 6936,
      "85": 6937,
      "Ġjord": 6938,
      "overty": 6939,
      "Ġinstalled": 6940,
      "Ġimprison": 6941,
      "bean": 6942,
      "Ġcultiv": 6943,
      "Ġfemales": 6944,
      "Ġbinding": 6945,
      "Ġassault": 6946,
      "Ġsolutions": 6947,
      "Ġnecessarily": 6948,
      "Ġracial": 6949,
      "hyd": 6950,
      "Ġinstruction": 6951,
      "Ġmexican": 6952,
      "Ġcloser": 6953,
      "Ġexactly": 6954,
      "Ġphilosopher": 6955,
      "47": 6956,
      "iser": 6957,
      "icide": 6958,
      "Ġrebellion": 6959,
      "mn": 6960,
      "Ġlyn": 6961,
      "ipel": 6962,
      "Ġrelat": 6963,
      "Ġsolo": 6964,
      "Ġfrequent": 6965,
      "Ġcommissioned": 6966,
      "Ġpremi": 6967,
      "Ġranging": 6968,
      "Ġlady": 6969,
      "Ġcontest": 6970,
      "Ġintent": 6971,
      "atively": 6972,
      "Ġ1936": 6973,
      "ugoslav": 6974,
      "Ġtroub": 6975,
      "Ġchampion": 6976,
      "Ġchannels": 6977,
      "Ġtube": 6978,
      "Ġvacu": 6979,
      "rant": 6980,
      "Ġsyll": 6981,
      "Ġmainstream": 6982,
      "Ġcovers": 6983,
      "pers": 6984,
      "Ġtheod": 6985,
      "Ġwaste": 6986,
      "Ġspot": 6987,
      "Ġapproval": 6988,
      "Ġbarb": 6989,
      "Ã¡n": 6990,
      "Ġcongreg": 6991,
      "Ġchoose": 6992,
      "Ġspoke": 6993,
      "Ġbanned": 6994,
      "Ġdiction": 6995,
      "Ġrud": 6996,
      "Ġmedal": 6997,
      "Ġ95": 6998,
      "Ġestimates": 6999,
      "Ġmechanics": 7000,
      "een": 7001,
      "hy": 7002,
      "icate": 7003,
      "Ġinterested": 7004,
      "Ġclearly": 7005,
      "Ġpictures": 7006,
      "Ġstalin": 7007,
      "Ġcircumstances": 7008,
      "Ġmol": 7009,
      "Ġgosp": 7010,
      "Ġsuccession": 7011,
      "Ġmagic": 7012,
      "Ġexecution": 7013,
      "Ġpapal": 7014,
      "Ġframework": 7015,
      "Ġproportion": 7016,
      "Ġstruggle": 7017,
      "Ġeconomics": 7018,
      "Ġdescribing": 7019,
      "Ġneighbour": 7020,
      "Ġbuddhist": 7021,
      "Ġcrystal": 7022,
      "nevertheless": 7023,
      "othe": 7024,
      "Ġbru": 7025,
      "Ġpoverty": 7026,
      "Ġvic": 7027,
      "unte": 7028,
      "Ġarmies": 7029,
      "Ġmyster": 7030,
      "Ġsurviving": 7031,
      "Ġlicens": 7032,
      "Ġrestricted": 7033,
      "wall": 7034,
      "apers": 7035,
      "Ġmuhammad": 7036,
      "Ġowner": 7037,
      "Ġtempor": 7038,
      "Ġstream": 7039,
      "Ġwalk": 7040,
      "Ġresponded": 7041,
      "Ġisolated": 7042,
      "cope": 7043,
      "Ġhaz": 7044,
      "Ġdecor": 7045,
      "Ġpassengers": 7046,
      "Ġpatent": 7047,
      "brid": 7048,
      "Ġstructural": 7049,
      "Ġdavis": 7050,
      "Ġduties": 7051,
      "Ġprogressive": 7052,
      "Ġownership": 7053,
      "Ġattracted": 7054,
      "adow": 7055,
      "Ġkal": 7056,
      "Ġcompact": 7057,
      "Ġdepicted": 7058,
      "Ġ176": 7059,
      "Ġheaven": 7060,
      "Ġibn": 7061,
      "Ġbriefly": 7062,
      "Ġvessels": 7063,
      "Ġseventh": 7064,
      "Ġfruit": 7065,
      "Ġfib": 7066,
      "Ġinqu": 7067,
      "Ġdy": 7068,
      "Ġterritorial": 7069,
      "Ġrotation": 7070,
      "Ġexports": 7071,
      "olithic": 7072,
      "arn": 7073,
      "Ġemot": 7074,
      "Ġparam": 7075,
      "Ġ1917": 7076,
      "Ġranking": 7077,
      "otype": 7078,
      "35": 7079,
      "90": 7080,
      "Ġleon": 7081,
      "Ġinflation": 7082,
      "Ġrestored": 7083,
      "Ġadaptation": 7084,
      "Ġforests": 7085,
      "Ġmichigan": 7086,
      "Ġae": 7087,
      "Ġgor": 7088,
      "Ġnotation": 7089,
      "Ġthereby": 7090,
      "Ġmusicians": 7091,
      "ynam": 7092,
      "standing": 7093,
      "Ġcuis": 7094,
      "law": 7095,
      "Ġcad": 7096,
      "Ġfict": 7097,
      "Ġfacilit": 7098,
      "Ġsettlements": 7099,
      "mble": 7100,
      "à¦": 7101,
      "Ġere": 7102,
      "Ġsoph": 7103,
      "ifies": 7104,
      "Ġsurren": 7105,
      "Ġcrimes": 7106,
      "Ġborrow": 7107,
      "Ġcomplexity": 7108,
      "Ġfacult": 7109,
      "Ġfinding": 7110,
      "Ġcoup": 7111,
      "Ġprisoners": 7112,
      "ez": 7113,
      "rep": 7114,
      "Ġlewis": 7115,
      "aked": 7116,
      "ĠâĢĻ": 7117,
      "Ġprev": 7118,
      "Ġinstructions": 7119,
      "Ġpublicly": 7120,
      "Ġdiamond": 7121,
      "examples": 7122,
      "ded": 7123,
      "Ġsend": 7124,
      "Ġmetall": 7125,
      "shire": 7126,
      "world": 7127,
      "ati": 7128,
      "ompl": 7129,
      "Ġdisk": 7130,
      "Ġdisorder": 7131,
      "Ġports": 7132,
      "Ġarranged": 7133,
      "uits": 7134,
      "rium": 7135,
      "Ġky": 7136,
      "iful": 7137,
      "Ġyugoslav": 7138,
      "Ġcompens": 7139,
      "Ġcomputing": 7140,
      "Ġadam": 7141,
      "Ġprin": 7142,
      "Ġaccompl": 7143,
      "Ġvarieties": 7144,
      "Ġexposed": 7145,
      "Ġguine": 7146,
      "common": 7147,
      "Ġskills": 7148,
      "Ġsynthesis": 7149,
      "Ġracing": 7150,
      "Ġdrama": 7151,
      "ĠÃ©": 7152,
      "Ġpreserved": 7153,
      "Ġbasin": 7154,
      "Ġ1929": 7155,
      "Ġnapole": 7156,
      "gue": 7157,
      "icy": 7158,
      "endo": 7159,
      "Ġnorwe": 7160,
      "Ġcoff": 7161,
      "Ġentr": 7162,
      "Ġcorruption": 7163,
      "Ġapproaches": 7164,
      "Ġexperiences": 7165,
      "Ġvolunte": 7166,
      "Ġmoroc": 7167,
      "Ġmounted": 7168,
      "Ġbiggest": 7169,
      "Ġcomparison": 7170,
      "hard": 7171,
      "oen": 7172,
      "Ġvariant": 7173,
      "Ġoperational": 7174,
      "Ġindicates": 7175,
      "point": 7176,
      "Ġhills": 7177,
      "Ġfluid": 7178,
      "mud": 7179,
      "Ġtort": 7180,
      "Ġsteam": 7181,
      "Ġlicense": 7182,
      "Ġranges": 7183,
      "200": 7184,
      "gium": 7185,
      "Ġhong": 7186,
      "Ġthrow": 7187,
      "ocated": 7188,
      "Ġguide": 7189,
      "Ġelectromagn": 7190,
      "Ġpleas": 7191,
      "Ġace": 7192,
      "Ġtheater": 7193,
      "oma": 7194,
      "Ġinteraction": 7195,
      "Ġmonaster": 7196,
      "Ġreligions": 7197,
      "Ġcardinal": 7198,
      "Ġreplacement": 7199,
      "elect": 7200,
      "lical": 7201,
      "Ġstability": 7202,
      "riers": 7203,
      "Ġ1937": 7204,
      "Ġescap": 7205,
      "Ġmerely": 7206,
      "num": 7207,
      "Ġpowered": 7208,
      "Ġabsence": 7209,
      "Ġlearn": 7210,
      "Ġterminal": 7211,
      "Ġpublishing": 7212,
      "bell": 7213,
      "gun": 7214,
      "Ġfold": 7215,
      "eman": 7216,
      "Ġnoble": 7217,
      "Ġcharter": 7218,
      "Ġconcerning": 7219,
      "Ġaimed": 7220,
      "Ġvictoria": 7221,
      "Ġnickn": 7222,
      "Ġbacteria": 7223,
      "ctive": 7224,
      "cho": 7225,
      "Ġboats": 7226,
      "Ġwrong": 7227,
      "Ġmig": 7228,
      "Ġreun": 7229,
      "Ġunless": 7230,
      "Ġresidence": 7231,
      "place": 7232,
      "Ġdefensive": 7233,
      "Ġfollowers": 7234,
      "upon": 7235,
      "Ġmixture": 7236,
      "Ġgil": 7237,
      "Ġplural": 7238,
      "Ġjudicial": 7239,
      "Ġhomosexual": 7240,
      "Ġbishops": 7241,
      "Ġlifetime": 7242,
      "aust": 7243,
      "fc": 7244,
      "tv": 7245,
      "uset": 7246,
      "Ġconven": 7247,
      "Ġshore": 7248,
      "Ġplas": 7249,
      "Ġmanip": 7250,
      "Ġlesser": 7251,
      "Ġfacility": 7252,
      "Ġvariables": 7253,
      "Ġlunar": 7254,
      "ooth": 7255,
      "hered": 7256,
      "Ġliv": 7257,
      "Ġgent": 7258,
      "Ġstem": 7259,
      "ithms": 7260,
      "rage": 7261,
      "Ġchip": 7262,
      "Ġreferring": 7263,
      "Ġbases": 7264,
      "Ġinitiated": 7265,
      "Ġdemocrats": 7266,
      "Ġcaribbean": 7267,
      "stic": 7268,
      "Ġranks": 7269,
      "Ġunity": 7270,
      "Ġintention": 7271,
      "Ġfactory": 7272,
      "Ġuranium": 7273,
      "Ġsacrif": 7274,
      "Ġvarying": 7275,
      "trans": 7276,
      "Ġenjoyed": 7277,
      "Ġtournament": 7278,
      "lou": 7279,
      "rous": 7280,
      "Ġeag": 7281,
      "Ġalk": 7282,
      "Ġresign": 7283,
      "Ġdisappe": 7284,
      "Ġ68": 7285,
      "aza": 7286,
      "Ġ1951": 7287,
      "Ġparticipate": 7288,
      "Ġjourney": 7289,
      "Ġgraphics": 7290,
      "Ġoriented": 7291,
      "Ġ42": 7292,
      "Ġmilk": 7293,
      "Ġrevival": 7294,
      "Ġavo": 7295,
      "uate": 7296,
      "Ġgiant": 7297,
      "Ġkam": 7298,
      "Ġsigns": 7299,
      "Ġ1914": 7300,
      "Ġcontinuing": 7301,
      "Ġgrammar": 7302,
      "Ġgravity": 7303,
      "Ġdangerous": 7304,
      "ora": 7305,
      "Ġjump": 7306,
      "Ġevangel": 7307,
      "Ġoperator": 7308,
      "Ġretire": 7309,
      "Ġsecular": 7310,
      "Ġturb": 7311,
      "Ġillness": 7312,
      "Ġmovies": 7313,
      "Ġpredecess": 7314,
      "dney": 7315,
      "Ġcyl": 7316,
      "Ġhors": 7317,
      "Ġroosevelt": 7318,
      "Ġrecognised": 7319,
      "Ġdisag": 7320,
      "Ġrelief": 7321,
      "Ġvisitors": 7322,
      "Ġarguments": 7323,
      "Ġseeking": 7324,
      "Ġmaxim": 7325,
      "Ġoptical": 7326,
      "Ġprocedure": 7327,
      "Ġrear": 7328,
      "Ġgay": 7329,
      "imb": 7330,
      "Ġorange": 7331,
      "mean": 7332,
      "Ġsettlers": 7333,
      "Ġfishing": 7334,
      "eration": 7335,
      "oli": 7336,
      "aks": 7337,
      "Ġresol": 7338,
      "achuset": 7339,
      "Ġpatron": 7340,
      "ulsion": 7341,
      "Ġunusual": 7342,
      "cos": 7343,
      "Ġandrew": 7344,
      "Ġtoxic": 7345,
      "andy": 7346,
      "Ġscat": 7347,
      "Ġremove": 7348,
      "Ã©e": 7349,
      "ova": 7350,
      "ipping": 7351,
      "Ġsuffering": 7352,
      "Ġconsumer": 7353,
      "Ġvacuum": 7354,
      "Ġtab": 7355,
      "Ġale": 7356,
      "Ġninet": 7357,
      "Ġportugal": 7358,
      "Ġinvolvement": 7359,
      "Ġscheduled": 7360,
      "achusetts": 7361,
      "Ġties": 7362,
      "Ġtib": 7363,
      "Ġaw": 7364,
      "Ġbought": 7365,
      "orus": 7366,
      "Ġfill": 7367,
      "Ġinfer": 7368,
      "ocent": 7369,
      "Ġabb": 7370,
      "Ġremov": 7371,
      "Ġsouthwest": 7372,
      "Ġsentence": 7373,
      "Ġost": 7374,
      "Ġdal": 7375,
      "Ġcomprom": 7376,
      "Ġ600": 7377,
      "Ġdistinguish": 7378,
      "Ġpalestinian": 7379,
      "brit": 7380,
      "lan": 7381,
      "mu": 7382,
      "oys": 7383,
      "Ġhelic": 7384,
      "Ġjon": 7385,
      "Ġpopul": 7386,
      "Ġpasses": 7387,
      "Ġsurvive": 7388,
      "Ġquantities": 7389,
      "Ġrestrictions": 7390,
      "Ġmaced": 7391,
      "Ġgau": 7392,
      "aments": 7393,
      "Ġrav": 7394,
      "Ġdisney": 7395,
      "Ġnewton": 7396,
      "Ġmineral": 7397,
      "Ġstrings": 7398,
      "Ġtermed": 7399,
      "Ġcamera": 7400,
      "Ġdrawing": 7401,
      "ican": 7402,
      "Ġraw": 7403,
      "ette": 7404,
      "Ġcolors": 7405,
      "Ġinvited": 7406,
      "Ġswiss": 7407,
      "Ġemergency": 7408,
      "Ġwatch": 7409,
      "Ġelder": 7410,
      "Ġwebsite": 7411,
      "Ġok": 7412,
      "Ġinhib": 7413,
      "Ġhoc": 7414,
      "ouri": 7415,
      "theastern": 7416,
      "iration": 7417,
      "illery": 7418,
      "ourse": 7419,
      "Ġpermitted": 7420,
      "Ġmargin": 7421,
      "oster": 7422,
      "Ġmonitor": 7423,
      "Ġepic": 7424,
      "Ġspacecraft": 7425,
      "Ġdenied": 7426,
      "Ġcambridge": 7427,
      "adelph": 7428,
      "iti": 7429,
      "Ġperspective": 7430,
      "Ġbasket": 7431,
      "Ġstatements": 7432,
      "Ġfewer": 7433,
      "Ġreviews": 7434,
      "Ġadjacent": 7435,
      "Ġphilippines": 7436,
      "Ġmongol": 7437,
      "Ġstatistical": 7438,
      "Ġhomes": 7439,
      "Ġnegotiations": 7440,
      "Ġnorwegian": 7441,
      "Ġmigration": 7442,
      "eless": 7443,
      "Ġmeth": 7444,
      "Ġtransit": 7445,
      "Ġconstantin": 7446,
      "Ġkeeping": 7447,
      "Ġcaval": 7448,
      "Ġhierarch": 7449,
      "37": 7450,
      "Ġtay": 7451,
      "Ġsuitable": 7452,
      "Ġkenn": 7453,
      "Ġadmitted": 7454,
      "Ġnomination": 7455,
      "Ġobservations": 7456,
      "Ġchampionships": 7457,
      "Ġintegration": 7458,
      "Ġceremon": 7459,
      "Ġdatab": 7460,
      "bishop": 7461,
      "rehens": 7462,
      "isition": 7463,
      "ube": 7464,
      "Ġclaiming": 7465,
      "Ġsenator": 7466,
      "Ġdiscussion": 7467,
      "Ġnewspapers": 7468,
      "Ġukraine": 7469,
      "Ġbeng": 7470,
      "Ġpush": 7471,
      "Ġraces": 7472,
      "Ġcharl": 7473,
      "cycl": 7474,
      "Ġvoters": 7475,
      "Ġnarrative": 7476,
      "Ġautonom": 7477,
      "Ġunsuccess": 7478,
      "Ġpagan": 7479,
      "iph": 7480,
      "avian": 7481,
      "Ġscored": 7482,
      "Ġrecre": 7483,
      "Ġpref": 7484,
      "Ġspecified": 7485,
      "Ġsynthes": 7486,
      "Ġstreets": 7487,
      "Ġparticipated": 7488,
      "kel": 7489,
      "init": 7490,
      "oking": 7491,
      "inton": 7492,
      "Ġestimate": 7493,
      "Ġswit": 7494,
      "Ġslowly": 7495,
      "Ġconnections": 7496,
      "Ġsudan": 7497,
      "Ġmamm": 7498,
      "Ġexceed": 7499,
      "Ġtrump": 7500,
      "Ġdoor": 7501,
      "Ġfinance": 7502,
      "Ġbenefits": 7503,
      "Ġhawai": 7504,
      "36": 7505,
      "Ġtick": 7506,
      "Ġdress": 7507,
      "Ġhu": 7508,
      "Ġworn": 7509,
      "Ġcommod": 7510,
      "Ġmarit": 7511,
      "Ġpole": 7512,
      "Ġremote": 7513,
      "Ġseconds": 7514,
      "Ġpsychological": 7515,
      "Ġpapers": 7516,
      "Ġbringing": 7517,
      "Ġshock": 7518,
      "veland": 7519,
      "Ġmassachusetts": 7520,
      "Ġglac": 7521,
      "Ġthreatened": 7522,
      "Ġvirtual": 7523,
      "Ġaccurate": 7524,
      "Ġartificial": 7525,
      "omer": 7526,
      "Ġongoing": 7527,
      "Ġshield": 7528,
      "Ġblind": 7529,
      "Ġtransmit": 7530,
      "Ġremember": 7531,
      "haust": 7532,
      "Ġmeetings": 7533,
      "Ġapparently": 7534,
      "krit": 7535,
      "Ġfighter": 7536,
      "Ġtot": 7537,
      "Ġprove": 7538,
      "Ġkos": 7539,
      "Ġupgr": 7540,
      "Ġbuy": 7541,
      "Ġheads": 7542,
      "Ġveter": 7543,
      "Ġtalk": 7544,
      "Ġdeliber": 7545,
      "34": 7546,
      "bing": 7547,
      "hal": 7548,
      "Ġbeer": 7549,
      "Ġron": 7550,
      "emed": 7551,
      "Ġshorter": 7552,
      "Ġpeas": 7553,
      "Ġactors": 7554,
      "Ġconsciousness": 7555,
      "Ġtag": 7556,
      "Ġnom": 7557,
      "utor": 7558,
      "Ġnortheast": 7559,
      "Ġnato": 7560,
      "Ġoptim": 7561,
      "Ġcarolina": 7562,
      "Ġopponents": 7563,
      "Ġbiblical": 7564,
      "Ġfrederick": 7565,
      "Ġnaming": 7566,
      "ounds": 7567,
      "Ġbrad": 7568,
      "Ġ1922": 7569,
      "Ġstopped": 7570,
      "Ġportrayed": 7571,
      "din": 7572,
      "Ġker": 7573,
      "Ġneck": 7574,
      "Ġemit": 7575,
      "Ġpersu": 7576,
      "Ġ1934": 7577,
      "Ġbaltic": 7578,
      "inois": 7579,
      "Ġdamaged": 7580,
      "Ġaxi": 7581,
      "Ġlegislature": 7582,
      "Ġcommemor": 7583,
      "rin": 7584,
      "trad": 7585,
      "Ġtens": 7586,
      "Ġfur": 7587,
      "roc": 7588,
      "Ġtob": 7589,
      "Ġpersec": 7590,
      "Ġsyria": 7591,
      "Ġinteract": 7592,
      "Ġartistic": 7593,
      "Ġsupports": 7594,
      "Ġelabor": 7595,
      "Ġbreaking": 7596,
      "Ġkinds": 7597,
      "Ġcinema": 7598,
      "Ġawa": 7599,
      "inn": 7600,
      "Ġcrick": 7601,
      "oto": 7602,
      "Ġ2021": 7603,
      "Ġpregn": 7604,
      "Ġcave": 7605,
      "Ġequipped": 7606,
      "Ġnaturally": 7607,
      "Ġsimilarly": 7608,
      "suit": 7609,
      "Ġboundaries": 7610,
      "Ġbabyl": 7611,
      "Ġrecovery": 7612,
      "hl": 7613,
      "Ġbav": 7614,
      "Ġpyth": 7615,
      "Ġisa": 7616,
      "Ġstones": 7617,
      "Ġye": 7618,
      "Ġraise": 7619,
      "oa": 7620,
      "eded": 7621,
      "Ġgi": 7622,
      "Ġsphere": 7623,
      "kee": 7624,
      "box": 7625,
      "Ġteleg": 7626,
      "Ġdiameter": 7627,
      "Ġpossession": 7628,
      "Ġsudden": 7629,
      "fs": 7630,
      "wart": 7631,
      "Ġlig": 7632,
      "Ġrid": 7633,
      "Ġ46": 7634,
      "Ġconflicts": 7635,
      "Ġpairs": 7636,
      "Ġsharp": 7637,
      "louis": 7638,
      "vid": 7639,
      "Ġenact": 7640,
      "endum": 7641,
      "Ġload": 7642,
      "Ġvienna": 7643,
      "Ġprofession": 7644,
      "Ġcotton": 7645,
      "meanwhile": 7646,
      "spec": 7647,
      "Ġpiano": 7648,
      "urd": 7649,
      "until": 7650,
      "Ġsche": 7651,
      "Ġsydney": 7652,
      "Ġcounties": 7653,
      "Ġimmigration": 7654,
      "Ġmathematic": 7655,
      "Ġrebu": 7656,
      "Ġcustoms": 7657,
      "Ġhappened": 7658,
      "Ġrecommend": 7659,
      "Ġanyone": 7660,
      "Ġ175": 7661,
      "Ġmississ": 7662,
      "Ġapproxim": 7663,
      "Ġtransformation": 7664,
      "Ġthinking": 7665,
      "Ġolympics": 7666,
      "Ġneighborhood": 7667,
      "Ġdioxide": 7668,
      "Ġpus": 7669,
      "roit": 7670,
      "iler": 7671,
      "Ġjr": 7672,
      "Ġcance": 7673,
      "Ġresigned": 7674,
      "Ġmonop": 7675,
      "ixon": 7676,
      "sequently": 7677,
      "Ġhosts": 7678,
      "Ġmonarchy": 7679,
      "Å«": 7680,
      "Ġtel": 7681,
      "Ġsession": 7682,
      "uras": 7683,
      "Ġusual": 7684,
      "Ġblocks": 7685,
      "Ġjohann": 7686,
      "Ġgrass": 7687,
      "Ġ170": 7688,
      "Ġprofit": 7689,
      "Ġobjective": 7690,
      "Ġconcentrated": 7691,
      "Ġmerged": 7692,
      "Ġexplanation": 7693,
      "sylvania": 7694,
      "inder": 7695,
      "Ġbone": 7696,
      "station": 7697,
      "Ġbears": 7698,
      "Ġexile": 7699,
      "Ġmaria": 7700,
      "Ġstudios": 7701,
      "bey": 7702,
      "Ġ99": 7703,
      "Ġcolleges": 7704,
      "Ġ1935": 7705,
      "Ġromania": 7706,
      "Ġmeasurement": 7707,
      "Ġdecrease": 7708,
      "Ġgirls": 7709,
      "Ġregistered": 7710,
      "Ġtropical": 7711,
      "Ġwider": 7712,
      "Ġnig": 7713,
      "ocene": 7714,
      "Ġ85": 7715,
      "Ġ1932": 7716,
      "Ġbusinesses": 7717,
      "Ġlyrics": 7718,
      "current": 7719,
      "Ġfusion": 7720,
      "ateral": 7721,
      "Ġundert": 7722,
      "Ġaccum": 7723,
      "Ġtemporary": 7724,
      "Ġanglic": 7725,
      "Ġmagnet": 7726,
      "Ġrecovered": 7727,
      "Ġtells": 7728,
      "Ġsovereignty": 7729,
      "Ġintervention": 7730,
      "Ġcuisine": 7731,
      "Ġsans": 7732,
      "itals": 7733,
      "Ġstood": 7734,
      "Ġjet": 7735,
      "Ġexhaust": 7736,
      "aki": 7737,
      "Ġregulations": 7738,
      "Ġsupplies": 7739,
      "Ġmissiles": 7740,
      "Ġpolyn": 7741,
      "Ġpronounced": 7742,
      "Ġguinea": 7743,
      "uv": 7744,
      "Ġcm": 7745,
      "Ġdc": 7746,
      "Ġ1000": 7747,
      "Ġneuro": 7748,
      "Ġvalu": 7749,
      "Ġtelecommunic": 7750,
      "Ġengineer": 7751,
      "Ġconservation": 7752,
      "Ġdistinctive": 7753,
      "Ġfamiliar": 7754,
      "Ġmississipp": 7755,
      "32": 7756,
      "nia": 7757,
      "Ġagencies": 7758,
      "Ġprovinc": 7759,
      "Ġgeorgia": 7760,
      "ĠÃĹ": 7761,
      "Ġprosper": 7762,
      "div": 7763,
      "post": 7764,
      "Ġvib": 7765,
      "Ġearn": 7766,
      "Ġbush": 7767,
      "Ġcovering": 7768,
      "Ġevolutionary": 7769,
      "Ġdescendants": 7770,
      "Ġbuddhism": 7771,
      "much": 7772,
      "olid": 7773,
      "avia": 7774,
      "Ġparent": 7775,
      "Ġsword": 7776,
      "Ġreaders": 7777,
      "Ġexclusively": 7778,
      "Ġexplicitly": 7779,
      "Ġtissue": 7780,
      "Ġhired": 7781,
      "ortion": 7782,
      "aste": 7783,
      "Ġcontinent": 7784,
      "Ġdescent": 7785,
      "Ġparticipation": 7786,
      "Ġelsewhere": 7787,
      "atin": 7788,
      "Ġproto": 7789,
      "agram": 7790,
      "Ġiranian": 7791,
      "Ġpainted": 7792,
      "Ġexercise": 7793,
      "Ġflorida": 7794,
      "rig": 7795,
      "Ġwet": 7796,
      "Ġmold": 7797,
      "Ġdies": 7798,
      "aska": 7799,
      "Ġwhit": 7800,
      "Ġdesired": 7801,
      "Ġdrag": 7802,
      "Ġadoption": 7803,
      "Ġsacred": 7804,
      "Ġcuba": 7805,
      "Ġintegral": 7806,
      "Ġmolecule": 7807,
      "Ġfinnish": 7808,
      "48": 7809,
      "75": 7810,
      "Ġvene": 7811,
      "Ġlev": 7812,
      "Ġcontrad": 7813,
      "ailand": 7814,
      "Ġassign": 7815,
      "Ġplanets": 7816,
      "Ġprivile": 7817,
      "Ġ250": 7818,
      "Ġdefinitions": 7819,
      "Ġdramatic": 7820,
      "Ġunemployment": 7821,
      "66": 7822,
      "Ġsor": 7823,
      "Ġsig": 7824,
      "oric": 7825,
      "Ġindeed": 7826,
      "Ġphiladelph": 7827,
      "Ġaustrian": 7828,
      "Ġcontrols": 7829,
      "Ġantiqu": 7830,
      "Ġhorror": 7831,
      "Ã¼r": 7832,
      "Ġwealthy": 7833,
      "Ġempty": 7834,
      "Ġremoval": 7835,
      "lock": 7836,
      "oes": 7837,
      "path": 7838,
      "Ã«": 7839,
      "Ġpump": 7840,
      "Ġinaug": 7841,
      "those": 7842,
      "Ġreserves": 7843,
      "ruck": 7844,
      "orship": 7845,
      "Ġreceiver": 7846,
      "Ġeasier": 7847,
      "Ġcreative": 7848,
      "45": 7849,
      "Ġpic": 7850,
      "Ġoral": 7851,
      "raction": 7852,
      "aga": 7853,
      "Ġreferendum": 7854,
      "Ġliberation": 7855,
      "Ġwinds": 7856,
      "Ġwavel": 7857,
      "natural": 7858,
      "instein": 7859,
      "Ġstores": 7860,
      "Ġarray": 7861,
      "apore": 7862,
      "Ġspending": 7863,
      "Ġincom": 7864,
      "Ġbelgium": 7865,
      "Ġreleases": 7866,
      "Ġharry": 7867,
      "gener": 7868,
      "Ġjudges": 7869,
      "Ġessay": 7870,
      "Ġthermal": 7871,
      "Ġhorses": 7872,
      "Ġwol": 7873,
      "chron": 7874,
      "Ġconclusion": 7875,
      "anta": 7876,
      "Ġmarks": 7877,
      "Ġreplacing": 7878,
      "Ġhole": 7879,
      "Ġoffering": 7880,
      "Ġdifficulty": 7881,
      "Ġshooting": 7882,
      "Ġconsequence": 7883,
      "onymous": 7884,
      "Ġpennsylvania": 7885,
      "Ġpages": 7886,
      "Ġkel": 7887,
      "Ġperception": 7888,
      "phy": 7889,
      "tenance": 7890,
      "Ġparks": 7891,
      "Ġhanded": 7892,
      "Ġ130": 7893,
      "Ġpunk": 7894,
      "prior": 7895,
      "Ġtrend": 7896,
      "Ġsimultaneously": 7897,
      "itis": 7898,
      "Ġalien": 7899,
      "Ġchile": 7900,
      "Ġshares": 7901,
      "Ġcomprehens": 7902,
      "Ġ51": 7903,
      "Ġindependently": 7904,
      "Ġengineers": 7905,
      "Ġmissouri": 7906,
      "Ġmaintaining": 7907,
      "ymes": 7908,
      "Ġgregory": 7909,
      "Ġteacher": 7910,
      "Ġoverseas": 7911,
      "á¹": 7912,
      "Ġpand": 7913,
      "sts": 7914,
      "phil": 7915,
      "Ġguest": 7916,
      "Ġ800": 7917,
      "Ġready": 7918,
      "Ġstarred": 7919,
      "Ġorchestra": 7920,
      "Ġconsecutive": 7921,
      "Ġcaesar": 7922,
      "Ġfictional": 7923,
      "Ġconstantinople": 7924,
      "inf": 7925,
      "Ġbreat": 7926,
      "Ġforb": 7927,
      "Ġsegment": 7928,
      "ipher": 7929,
      "Ġmaur": 7930,
      "Ġcorner": 7931,
      "Ġbrook": 7932,
      "Ġearthqu": 7933,
      "Ġappearances": 7934,
      "Ġ1890": 7935,
      "Ġcampaigns": 7936,
      "Ġcodes": 7937,
      "Ġgraduate": 7938,
      "Ġpolynomial": 7939,
      "iest": 7940,
      "Ġoption": 7941,
      "Ġbeam": 7942,
      "Ġgenerate": 7943,
      "Ġobservation": 7944,
      "Ġalgorithms": 7945,
      "Ġcord": 7946,
      "Ġprophe": 7947,
      "Ġepist": 7948,
      "Ġdriving": 7949,
      "Ġillinois": 7950,
      "Ġdelta": 7951,
      "Ġvulner": 7952,
      "Ġprovincial": 7953,
      "idal": 7954,
      "Ġjam": 7955,
      "iang": 7956,
      "ighters": 7957,
      "soon": 7958,
      "Ġartillery": 7959,
      "Ġmetab": 7960,
      "Ġverb": 7961,
      "Ġdisplayed": 7962,
      "Ġphenomena": 7963,
      "Ġmaritime": 7964,
      "ng": 7965,
      "osaur": 7966,
      "essions": 7967,
      "Ġproducers": 7968,
      "Ġactress": 7969,
      "Ġcamps": 7970,
      "Ġtargets": 7971,
      "Ġarrangement": 7972,
      "Ġlieuten": 7973,
      "Ġpartnership": 7974,
      "top": 7975,
      "Ġions": 7976,
      "erce": 7977,
      "lem": 7978,
      "otle": 7979,
      "Ġaged": 7980,
      "keley": 7981,
      "ensively": 7982,
      "Ġspecialized": 7983,
      "Ġquantity": 7984,
      "Ġprecip": 7985,
      "Ġsensitive": 7986,
      "Ġinjury": 7987,
      "Ġthirty": 7988,
      "Ġalfred": 7989,
      "william": 7990,
      "Ġmississippi": 7991,
      "Ġalumin": 7992,
      "Ġsubur": 7993,
      "Ġgoverning": 7994,
      "Ġfran": 7995,
      "Ġinvention": 7996,
      "Ġloop": 7997,
      "Ġsequences": 7998,
      "Ġvillages": 7999,
      "Ġpremier": 8000,
      "Ġsaxon": 8001,
      "Ġvowel": 8002,
      "bus": 8003,
      "uan": 8004,
      "Ġforth": 8005,
      "thor": 8006,
      "intendo": 8007,
      "Ġcapita": 8008,
      "Ġradar": 8009,
      "Ġbroadcasting": 8010,
      "Ġteachings": 8011,
      "Ġhelicop": 8012,
      "mary": 8013,
      "Ġmg": 8014,
      "Ġdense": 8015,
      "Ġamaz": 8016,
      "Ġperm": 8017,
      "Ġreserv": 8018,
      "Ġstands": 8019,
      "Ġlaure": 8020,
      "Ġantib": 8021,
      "Ġ1911": 8022,
      "Ġmanifest": 8023,
      "49": 8024,
      "Ġsaints": 8025,
      "Ġrout": 8026,
      "Ġeru": 8027,
      "Ġsteve": 8028,
      "Ġvictims": 8029,
      "Ġfalling": 8030,
      "Ġcasual": 8031,
      "Ġindonesia": 8032,
      "Ġmillennium": 8033,
      "Ġphiladelphia": 8034,
      "greg": 8035,
      "Ġdj": 8036,
      "Ġadams": 8037,
      "Ġphoen": 8038,
      "Ġcoinc": 8039,
      "Ġpoison": 8040,
      "Ġmaintenance": 8041,
      "Ġsaudi": 8042,
      "Ġlegacy": 8043,
      "Ġarchbishop": 8044,
      "Ġdocumented": 8045,
      "Ġconquered": 8046,
      "Ġsanta": 8047,
      "Ġtouchdown": 8048,
      "Ġpredominantly": 8049,
      "erts": 8050,
      "Ġpont": 8051,
      "umed": 8052,
      "Ġlibert": 8053,
      "Ġeditions": 8054,
      "Ġvolumes": 8055,
      "Ġvertical": 8056,
      "Ġdifficulties": 8057,
      "ommod": 8058,
      "Ġlandscape": 8059,
      "Ġbh": 8060,
      "illes": 8061,
      "pled": 8062,
      "Ġflash": 8063,
      "Ġdirectors": 8064,
      "Ġsatur": 8065,
      "Ġcontribution": 8066,
      "Ġlogical": 8067,
      "Ġdiego": 8068,
      "Ġdaniel": 8069,
      "Ġdynamic": 8070,
      "Ġinse": 8071,
      "Ġshah": 8072,
      "Ġmarry": 8073,
      "Ġaccommod": 8074,
      "Ġplayoff": 8075,
      "Ġoperators": 8076,
      "Ġmoderate": 8077,
      "elsh": 8078,
      "Ġstatue": 8079,
      "Ġwinner": 8080,
      "Ġcivilization": 8081,
      "Ġbiology": 8082,
      "Ġburning": 8083,
      "Ġexhibition": 8084,
      "Ġchronic": 8085,
      "Ġotto": 8086,
      "just": 8087,
      "Ġtape": 8088,
      "Ġblow": 8089,
      "Ġtow": 8090,
      "Ġmoves": 8091,
      "Ġkansas": 8092,
      "Ġamate": 8093,
      "Ġswim": 8094,
      "Ġoccurring": 8095,
      "Ġmanufactured": 8096,
      "Ġadults": 8097,
      "Ġchancell": 8098,
      "Ġlithuania": 8099,
      "Ġbehaviour": 8100,
      "Ġjordan": 8101,
      "31": 8102,
      "Ġcens": 8103,
      "rod": 8104,
      "christ": 8105,
      "Ġkaz": 8106,
      "awn": 8107,
      "Ġ41": 8108,
      "Ġturning": 8109,
      "Ġdimensions": 8110,
      "Ġcitizen": 8111,
      "Ġlinguistic": 8112,
      "Ġlaser": 8113,
      "tim": 8114,
      "alo": 8115,
      "Ġlind": 8116,
      "ationally": 8117,
      "Ġsuicide": 8118,
      "Ġtwin": 8119,
      "Ġentering": 8120,
      "Ġkingdoms": 8121,
      "Ġpotentially": 8122,
      "Ġreportedly": 8123,
      "Ġclothing": 8124,
      "Ġabstract": 8125,
      "group": 8126,
      "Ġoak": 8127,
      "Ġbits": 8128,
      "orms": 8129,
      "Ġintense": 8130,
      "Ġspr": 8131,
      "Ġpointed": 8132,
      "Ġherself": 8133,
      "Ġevening": 8134,
      "Ġpenet": 8135,
      "Ġsituations": 8136,
      "Ġcorporate": 8137,
      "Ġprinting": 8138,
      "Ġaes": 8139,
      "erto": 8140,
      "encing": 8141,
      "ori": 8142,
      "Ġflex": 8143,
      "Ġdick": 8144,
      "Ġeighth": 8145,
      "Ġnich": 8146,
      "ouston": 8147,
      "amps": 8148,
      "Ġdefines": 8149,
      "Ġexpert": 8150,
      "Ġtrials": 8151,
      "Ġcompete": 8152,
      "Ġrespective": 8153,
      "Ġmaintains": 8154,
      "Ġlayers": 8155,
      "Ġmeasurements": 8156,
      "Ġlebanon": 8157,
      "iary": 8158,
      "nas": 8159,
      "Ġahead": 8160,
      "enburg": 8161,
      "Ġlung": 8162,
      "una": 8163,
      "Ġscar": 8164,
      "Ġflour": 8165,
      "Ġjoe": 8166,
      "Ġenthus": 8167,
      "Ġrulers": 8168,
      "Ġethiop": 8169,
      "Ġphilosophers": 8170,
      "Ġopponent": 8171,
      "Ġadmiral": 8172,
      "Ġgothic": 8173,
      "38": 8174,
      "bb": 8175,
      "inus": 8176,
      "Ġsri": 8177,
      "Ġrays": 8178,
      "Ġkg": 8179,
      "Ġobst": 8180,
      "Ġpersonality": 8181,
      "Ġreturns": 8182,
      "Ġverse": 8183,
      "bourg": 8184,
      "Ġdiversity": 8185,
      "Ġteles": 8186,
      "Ġhob": 8187,
      "amation": 8188,
      "Ġabroad": 8189,
      "Ġinteractions": 8190,
      "Ġcarn": 8191,
      "Ġentity": 8192,
      "Ġpublications": 8193,
      "Ġorganised": 8194,
      "Ġcurve": 8195,
      "Ġexplor": 8196,
      "Ġ1925": 8197,
      "Ġelectronics": 8198,
      "Ġtasks": 8199,
      "Ġnucleus": 8200,
      "Ġseemed": 8201,
      "Ġculmin": 8202,
      "Ġcavalry": 8203,
      "Ġautonomous": 8204,
      "born": 8205,
      "rator": 8206,
      "Ġovers": 8207,
      "Ġford": 8208,
      "ista": 8209,
      "ellar": 8210,
      "athan": 8211,
      "Ġimposed": 8212,
      "Ġcoron": 8213,
      "Ġrequiring": 8214,
      "Ġ1923": 8215,
      "Ġsamuel": 8216,
      "Ġlogo": 8217,
      "Ġarabia": 8218,
      "Ġhonour": 8219,
      "Ġfraction": 8220,
      "Ġoccasions": 8221,
      "Ġelectromagnetic": 8222,
      "Ġvenez": 8223,
      "olics": 8224,
      "Ġcommerce": 8225,
      "Ġvariants": 8226,
      "Ġmatches": 8227,
      "Ġadvice": 8228,
      "Ġdougl": 8229,
      "Ġerrors": 8230,
      "sky": 8231,
      "itative": 8232,
      "roid": 8233,
      "Ġlank": 8234,
      "Ġstruck": 8235,
      "Ġconsole": 8236,
      "Ġdeemed": 8237,
      "Ġrush": 8238,
      "ostic": 8239,
      "Ġprevalent": 8240,
      "Ġattor": 8241,
      "Ġtransc": 8242,
      "Ġvaried": 8243,
      "Ġ1910": 8244,
      "Ġdetroit": 8245,
      "Ġcoverage": 8246,
      "Ġweekly": 8247,
      "Ġgeometry": 8248,
      "Ġadvertising": 8249,
      "econom": 8250,
      "hu": 8251,
      "Ġmine": 8252,
      "Ġdir": 8253,
      "Ġstabil": 8254,
      "Ġorth": 8255,
      "Ġclay": 8256,
      "Ġmeg": 8257,
      "Ġphone": 8258,
      "Ġnationalist": 8259,
      "Ġ1928": 8260,
      "Ġfacing": 8261,
      "Ġgetting": 8262,
      "Ġsurrounded": 8263,
      "39": 8264,
      "Ġpist": 8265,
      "lyn": 8266,
      "olas": 8267,
      "eld": 8268,
      "opher": 8269,
      "Ġplastic": 8270,
      "Ġspons": 8271,
      "Ġsubsc": 8272,
      "Ġbrid": 8273,
      "Ġmines": 8274,
      "Ġsurve": 8275,
      "Ġhybrid": 8276,
      "Ġpredicted": 8277,
      "Ġlords": 8278,
      "Ġmammals": 8279,
      "Ġlem": 8280,
      "Ġshir": 8281,
      "heric": 8282,
      "Ġassy": 8283,
      "short": 8284,
      "Ġfinds": 8285,
      "Ġcardin": 8286,
      "Ġdimension": 8287,
      "Ġprocedures": 8288,
      "Ġadministered": 8289,
      "zed": 8290,
      "Ġuss": 8291,
      "Ġpermit": 8292,
      "Ġconsensus": 8293,
      "Ġregul": 8294,
      "Ġsingles": 8295,
      "Ġportra": 8296,
      "obi": 8297,
      "restrial": 8298,
      "Ġmessages": 8299,
      "unciation": 8300,
      "eing": 8301,
      "father": 8302,
      "power": 8303,
      "Ġlose": 8304,
      "Ġreverse": 8305,
      "Ġusa": 8306,
      "ologically": 8307,
      "Ġconstell": 8308,
      "Ġ1921": 8309,
      "Ġ1927": 8310,
      "akespe": 8311,
      "Ġmarshall": 8312,
      "Ġlieutenant": 8313,
      "fish": 8314,
      "ystem": 8315,
      "Ġnbc": 8316,
      "class": 8317,
      "Ġrocks": 8318,
      "Ġmanual": 8319,
      "Ġbelt": 8320,
      "load": 8321,
      "Ġdemands": 8322,
      "Ġsingular": 8323,
      "Ġcompatible": 8324,
      "Ġmembrane": 8325,
      "'m": 8326,
      "rating": 8327,
      "Ġhipp": 8328,
      "Ġreich": 8329,
      "Ġintermediate": 8330,
      "Ġbeta": 8331,
      "Ġtrains": 8332,
      "Ġgrade": 8333,
      "Ġgrey": 8334,
      "ovo": 8335,
      "Ġmassac": 8336,
      "Ġpetro": 8337,
      "Ġjefferson": 8338,
      "iast": 8339,
      "mouth": 8340,
      "Ġbread": 8341,
      "state": 8342,
      "Ġproductions": 8343,
      "Ġminimal": 8344,
      "Ġauthen": 8345,
      "Ġsingapore": 8346,
      "Ġdriver": 8347,
      "Ġwalter": 8348,
      "Ġcleveland": 8349,
      "Ġassistant": 8350,
      "Ġexclusive": 8351,
      "Ġscandin": 8352,
      "Ġreconstruction": 8353,
      "Ġmanufacturers": 8354,
      "Ġsubmarine": 8355,
      "Ġtied": 8356,
      "Ġtransmitted": 8357,
      "neg": 8358,
      "Ġequil": 8359,
      "gery": 8360,
      "Ġfarmers": 8361,
      "Ġspeaker": 8362,
      "compass": 8363,
      "Ġmomentum": 8364,
      "akespeare": 8365,
      "mor": 8366,
      "Ãº": 8367,
      "Ġvs": 8368,
      "Ġresid": 8369,
      "Ġhighway": 8370,
      "amese": 8371,
      "Ġamongst": 8372,
      "Ġ1912": 8373,
      "Ġdonald": 8374,
      "Ġ1870": 8375,
      "Ġphotograph": 8376,
      "Ġrolling": 8377,
      "Ġnasa": 8378,
      "rimination": 8379,
      "fil": 8380,
      "Ġpav": 8381,
      "Ġbeings": 8382,
      "Ġkra": 8383,
      "anged": 8384,
      "Ġdevelopments": 8385,
      "Ġfert": 8386,
      "Ġdisputed": 8387,
      "Ġrevolt": 8388,
      "Ġathens": 8389,
      "intern": 8390,
      "Ġreagan": 8391,
      "Ġgiants": 8392,
      "Ġallen": 8393,
      "Ġprey": 8394,
      "Ġdemanded": 8395,
      "ierra": 8396,
      "Ġchildhood": 8397,
      "Ġ1924": 8398,
      "Ġmechanisms": 8399,
      "Ġenterprise": 8400,
      "Ġneutron": 8401,
      "Ġdarwin": 8402,
      "throughout": 8403,
      "Ġdvd": 8404,
      "Ġfaculty": 8405,
      "33": 8406,
      "Ġtheor": 8407,
      "isations": 8408,
      "Ġfulf": 8409,
      "sex": 8410,
      "occ": 8411,
      "phony": 8412,
      "Ġzo": 8413,
      "Ġnamely": 8414,
      "Ġrestoration": 8415,
      "Ġangel": 8416,
      "Ġaddressed": 8417,
      "Ġinitiative": 8418,
      "vens": 8419,
      "Ġches": 8420,
      "isa": 8421,
      "Ġhond": 8422,
      "Ġworst": 8423,
      "Ġreson": 8424,
      "ibilities": 8425,
      "Ġairlines": 8426,
      "Ġ1931": 8427,
      "Ġstarring": 8428,
      "Ġcompetitive": 8429,
      "Ġoxide": 8430,
      "Ġbombing": 8431,
      "Ġsweet": 8432,
      "Ġnitrogen": 8433,
      "Ġfossil": 8434,
      "Ġrugby": 8435,
      "Ġtibet": 8436,
      "67": 8437,
      "wal": 8438,
      "Ġwelsh": 8439,
      "Ġmike": 8440,
      "raham": 8441,
      "Ġexcell": 8442,
      "Ġroy": 8443,
      "Ġmarc": 8444,
      "Ġgenus": 8445,
      "Ġunderlying": 8446,
      "Ġ58": 8447,
      "Ġ77": 8448,
      "together": 8449,
      "Ġhandle": 8450,
      "Ġliterally": 8451,
      "Ġfoods": 8452,
      "Ġpollution": 8453,
      "Ġchromos": 8454,
      "Ġabolished": 8455,
      "urre": 8456,
      "aux": 8457,
      "Ġcoeff": 8458,
      "others": 8459,
      "Ġverte": 8460,
      "Ġsamples": 8461,
      "Ġresource": 8462,
      "Ġrefugees": 8463,
      "Ġpenalty": 8464,
      "chem": 8465,
      "fts": 8466,
      "mart": 8467,
      "Ġtight": 8468,
      "Ġarose": 8469,
      "Ġraf": 8470,
      "Ġsubt": 8471,
      "Ġ54": 8472,
      "Ġsmooth": 8473,
      "Ġremainder": 8474,
      "upiter": 8475,
      "acco": 8476,
      "Ġbulk": 8477,
      "Ġtunnel": 8478,
      "Ġslavic": 8479,
      "iy": 8480,
      "Ġcous": 8481,
      "oro": 8482,
      "esian": 8483,
      "Ġlion": 8484,
      "uran": 8485,
      "ulum": 8486,
      "Ġindirect": 8487,
      "Ġcoins": 8488,
      "Ġjoy": 8489,
      "Ġmetric": 8490,
      "Ġrevised": 8491,
      "Ġdowntown": 8492,
      "Ġkeyboard": 8493,
      "Ġconcrete": 8494,
      "Ġceltic": 8495,
      "Ġconfiguration": 8496,
      "Ġcum": 8497,
      "icts": 8498,
      "Ġstack": 8499,
      "Ġextend": 8500,
      "Ġaccuracy": 8501,
      "vol": 8502,
      "Ġcort": 8503,
      "Ġgab": 8504,
      "Ġstorm": 8505,
      "Ġalter": 8506,
      "Ġsupplement": 8507,
      "Ġultimate": 8508,
      "Ġcrypt": 8509,
      "Ġinstrumental": 8510,
      "Ġconsequences": 8511,
      "Ġsloven": 8512,
      "Ġcricket": 8513,
      "gel": 8514,
      "xx": 8515,
      "inced": 8516,
      "Ġmaj": 8517,
      "Ġwilling": 8518,
      "Ġhumanity": 8519,
      "Ġcircular": 8520,
      "Ġprotests": 8521,
      "Ġcalculated": 8522,
      "Ġdublin": 8523,
      "Ġdubbed": 8524,
      "Ġpunishment": 8525,
      "year": 8526,
      "Ġcbs": 8527,
      "Ġgone": 8528,
      "ulus": 8529,
      "Ġrings": 8530,
      "umps": 8531,
      "Ġencompass": 8532,
      "ieth": 8533,
      "outs": 8534,
      "Ġpharm": 8535,
      "Ġregiment": 8536,
      "Ġmonetary": 8537,
      "Ġfuneral": 8538,
      "Ġesp": 8539,
      "Ġprofile": 8540,
      "Ġflights": 8541,
      "Ġanswer": 8542,
      "Ġbasketball": 8543,
      "Ġvenezuel": 8544,
      "rum": 8545,
      "Ġaster": 8546,
      "Ġhans": 8547,
      "Ġheter": 8548,
      "izer": 8549,
      "Ġcolomb": 8550,
      "Ġgoverned": 8551,
      "Ġsimon": 8552,
      "Ġtested": 8553,
      "Ġberkeley": 8554,
      "Ġfault": 8555,
      "break": 8556,
      "Ġvowels": 8557,
      "Ġdeployed": 8558,
      "now": 8559,
      "Ġaware": 8560,
      "Ġthailand": 8561,
      "uma": 8562,
      "Ġnoise": 8563,
      "Ġcoined": 8564,
      "Ġcivilians": 8565,
      "Ġimprovements": 8566,
      "Ġwearing": 8567,
      "Ġsanskrit": 8568,
      "Ã¸": 8569,
      "atus": 8570,
      "Ġbore": 8571,
      "room": 8572,
      "Ġsharing": 8573,
      "Ġroof": 8574,
      "typ": 8575,
      "Ġpromised": 8576,
      "Ġcataly": 8577,
      "Ġdictionary": 8578,
      "Ġtaylor": 8579,
      "sburg": 8580,
      "Ġvacc": 8581,
      "Ġseal": 8582,
      "forced": 8583,
      "Ġcoin": 8584,
      "Ġconvinced": 8585,
      "Ġvirtually": 8586,
      "Ġpuerto": 8587,
      "68": 8588,
      "aran": 8589,
      "Ġclient": 8590,
      "Ġemissions": 8591,
      "Ġimported": 8592,
      "vakia": 8593,
      "ben": 8594,
      "Ġsau": 8595,
      "Ġwes": 8596,
      "Ġrever": 8597,
      "Ġgly": 8598,
      "amine": 8599,
      "Ġprox": 8600,
      "ante": 8601,
      "Ġclause": 8602,
      "Ġmeters": 8603,
      "Ġeccles": 8604,
      "Ġenemies": 8605,
      "Ġenabled": 8606,
      "Ġauthentic": 8607,
      "Ġcaught": 8608,
      "icated": 8609,
      "Ġclergy": 8610,
      "Ġdischar": 8611,
      "Ġcompletion": 8612,
      "Ġ165": 8613,
      "Ġcollaboration": 8614,
      "human": 8615,
      "Ġdeputy": 8616,
      "fa": 8617,
      "lad": 8618,
      "Ġaber": 8619,
      "Ġdust": 8620,
      "Ġenz": 8621,
      "Ġenlight": 8622,
      "Ġstudying": 8623,
      "Ġlocally": 8624,
      "Ġdiscrimination": 8625,
      "Ġern": 8626,
      "Ġbehalf": 8627,
      "Ġdiscipline": 8628,
      "cp": 8629,
      "Ġbry": 8630,
      "Ġlt": 8631,
      "americ": 8632,
      "Ġproclaimed": 8633,
      "dering": 8634,
      "Ġ52": 8635,
      "Ġobvious": 8636,
      "arsh": 8637,
      "Ġretail": 8638,
      "Ġsinging": 8639,
      "Ġcatholics": 8640,
      "Ġmutual": 8641,
      "Ġdecreased": 8642,
      "Ġbeautiful": 8643,
      "Ġmentions": 8644,
      "Ġhockey": 8645,
      "wich": 8646,
      "along": 8647,
      "Ġnintendo": 8648,
      "Ġencycl": 8649,
      "Ġirre": 8650,
      "Ġbattal": 8651,
      "Ġappearing": 8652,
      "Ġacceptance": 8653,
      "Ġautomatic": 8654,
      "Ġinhabited": 8655,
      "fire": 8656,
      "alia": 8657,
      "Ġgest": 8658,
      "Ġconspir": 8659,
      "Ġloose": 8660,
      "Ġromanian": 8661,
      "Ġeducated": 8662,
      "Ġbroadway": 8663,
      "Ġvirus": 8664,
      "Ġinteger": 8665,
      "Ġ1905": 8666,
      "iii": 8667,
      "Ġinspiration": 8668,
      "Ġcognitive": 8669,
      "Ġvaluable": 8670,
      "44": 8671,
      "four": 8672,
      "sl": 8673,
      "Ġtap": 8674,
      "Ġwag": 8675,
      "Ġdisorders": 8676,
      "Ġ66": 8677,
      "Ġrelevant": 8678,
      "Ġelite": 8679,
      "Ġrecognize": 8680,
      "Ġtribe": 8681,
      "finally": 8682,
      "Ġequilib": 8683,
      "ico": 8684,
      "Ġrevel": 8685,
      "adi": 8686,
      "iffer": 8687,
      "ĠâĤ": 8688,
      "Ġregulation": 8689,
      "Ġhighlight": 8690,
      "Ġcorp": 8691,
      "Ġobserver": 8692,
      "Ġhamilton": 8693,
      "Ġiceland": 8694,
      "Ġorbital": 8695,
      "Ġgospel": 8696,
      "Ġbour": 8697,
      "Ġheir": 8698,
      "Ġsectors": 8699,
      "Ġnotice": 8700,
      "Ġprocessor": 8701,
      "ika": 8702,
      "Ġdestination": 8703,
      "Ġscientist": 8704,
      "Ġimmun": 8705,
      "Ġwooden": 8706,
      "Ġambass": 8707,
      "Ġthrust": 8708,
      "Ġpalestine": 8709,
      "rese": 8710,
      "icing": 8711,
      "Ġlod": 8712,
      "iga": 8713,
      "Ġminim": 8714,
      "Ġextensively": 8715,
      "Ġcollections": 8716,
      "Ġrecordings": 8717,
      "Ġregardless": 8718,
      "Ġcollaps": 8719,
      "Ġaristoc": 8720,
      "Ġrepeatedly": 8721,
      "Ġoscill": 8722,
      "fo": 8723,
      "iot": 8724,
      "jud": 8725,
      "mation": 8726,
      "produ": 8727,
      "Ġnu": 8728,
      "Ġammon": 8729,
      "Ġcentres": 8730,
      "Ġcrash": 8731,
      "Ġpredict": 8732,
      "Ġpraised": 8733,
      "Ġexcav": 8734,
      "various": 8735,
      "Ġinfection": 8736,
      "Ġprincess": 8737,
      "Ġlip": 8738,
      "ardo": 8739,
      "Ġinvaded": 8740,
      "Ġtrium": 8741,
      "Ġdeposits": 8742,
      "bat": 8743,
      "Ġgenerations": 8744,
      "Ġminerals": 8745,
      "atican": 8746,
      "Ġtraveled": 8747,
      "Ġmillions": 8748,
      "Ġvenice": 8749,
      "Ġsacram": 8750,
      "Ġplasma": 8751,
      "hing": 8752,
      "hew": 8753,
      "Ġmp": 8754,
      "Ġdod": 8755,
      "Ġunified": 8756,
      "Ġneo": 8757,
      "Ġserial": 8758,
      "Ġconfidence": 8759,
      "Ã©s": 8760,
      "coming": 8761,
      "Ġconvert": 8762,
      "Ġdollars": 8763,
      "65": 8764,
      "88": 8765,
      "iology": 8766,
      "tax": 8767,
      "Ġpad": 8768,
      "second": 8769,
      "Ġshakespeare": 8770,
      "Ġamph": 8771,
      "Ġwarri": 8772,
      "Ġsignificance": 8773,
      "Ġelementary": 8774,
      "Ġfurn": 8775,
      "Ġfaces": 8776,
      "Ġjane": 8777,
      "Ġquart": 8778,
      "Ġsubmitted": 8779,
      "Ġretreat": 8780,
      "anna": 8781,
      "Ġbrew": 8782,
      "Ġgrace": 8783,
      "Ġjacob": 8784,
      "Ġacknowledged": 8785,
      "Ġcash": 8786,
      "atra": 8787,
      "Ġchal": 8788,
      "Ġnorse": 8789,
      "Ġaviation": 8790,
      "Ġexplains": 8791,
      "Ġspeeds": 8792,
      "moreover": 8793,
      "Ġbulgar": 8794,
      "wald": 8795,
      "Î±": 8796,
      "Ġsard": 8797,
      "Ġsher": 8798,
      "Ġfinger": 8799,
      "Ġhouston": 8800,
      "Ġhera": 8801,
      "Ġjupiter": 8802,
      "Ġindians": 8803,
      "Ġweaken": 8804,
      "Ġedited": 8805,
      "Ġinsurance": 8806,
      "Ġcommercially": 8807,
      "Ġalternate": 8808,
      "Ġembra": 8809,
      "Ġprevented": 8810,
      "ilst": 8811,
      "imir": 8812,
      "ocation": 8813,
      "Ġdistant": 8814,
      "Ġentities": 8815,
      "Ġequally": 8816,
      "begin": 8817,
      "Ġsocialism": 8818,
      "ophy": 8819,
      "Ġdevoted": 8820,
      "Ġdioc": 8821,
      "Ġsubstances": 8822,
      "Ġpanel": 8823,
      "Ġfestivals": 8824,
      "Ġconnecting": 8825,
      "zing": 8826,
      "Ġtony": 8827,
      "Ġchest": 8828,
      "Ġgat": 8829,
      "Ġmoz": 8830,
      "Ġamino": 8831,
      "Ġconsolid": 8832,
      "Ġnorman": 8833,
      "Ġmonument": 8834,
      "Ġloan": 8835,
      "Ġidentification": 8836,
      "Ġ1915": 8837,
      "Ġlibr": 8838,
      "Ġcutting": 8839,
      "Ġappointment": 8840,
      "Ġgalaxy": 8841,
      "Ġmalaysia": 8842,
      "ping": 8843,
      "wind": 8844,
      "Ġ00": 8845,
      "Ġgap": 8846,
      "Ġsha": 8847,
      "Ġross": 8848,
      "Ġbrun": 8849,
      "Ġ57": 8850,
      "Ġreceives": 8851,
      "Ġgreeks": 8852,
      "Ġcompeting": 8853,
      "enedict": 8854,
      "bow": 8855,
      "oh": 8856,
      "pop": 8857,
      "ridge": 8858,
      "Ġoath": 8859,
      "Ġbath": 8860,
      "Ġdwar": 8861,
      "Ġsees": 8862,
      "Ġencl": 8863,
      "Ġrepair": 8864,
      "Ġequality": 8865,
      "Ġphysic": 8866,
      "Ġattempting": 8867,
      "Ġliberty": 8868,
      "Ġcrossing": 8869,
      "Ġmartial": 8870,
      "bod": 8871,
      "dav": 8872,
      "mem": 8873,
      "Ġwings": 8874,
      "Ġwake": 8875,
      "Ġfighters": 8876,
      "Ġvital": 8877,
      "Ġvatican": 8878,
      "Ġcloud": 8879,
      "Ġtea": 8880,
      "Ġ155": 8881,
      "Ġfunded": 8882,
      "Ġadopt": 8883,
      "Ġdisputes": 8884,
      "Ġsituated": 8885,
      "Ġfranklin": 8886,
      "Ġcollective": 8887,
      "Ġstayed": 8888,
      "Ġprohibited": 8889,
      "Ġmercury": 8890,
      "mc": 8891,
      "Î¿": 8892,
      "ishes": 8893,
      "iture": 8894,
      "alism": 8895,
      "Ġanch": 8896,
      "Ġmaps": 8897,
      "ige": 8898,
      "Ġconve": 8899,
      "eller": 8900,
      "Ġquoted": 8901,
      "Ġduchy": 8902,
      "Ġflows": 8903,
      "Ġrequirement": 8904,
      "Ġpriority": 8905,
      "Ġbaptist": 8906,
      "Ġamateur": 8907,
      "Ġie": 8908,
      "ario": 8909,
      "Ġhip": 8910,
      "Ġconfer": 8911,
      "Ġenerg": 8912,
      "Ġagreements": 8913,
      "Ġshifted": 8914,
      "Ġdatabase": 8915,
      "nt": 8916,
      "estone": 8917,
      "Ġdisapp": 8918,
      "Ġguil": 8919,
      "Ġcapabilities": 8920,
      "Ġkeys": 8921,
      "Ġ1926": 8922,
      "Ġdragon": 8923,
      "Ġ1913": 8924,
      "Ġmultiplic": 8925,
      "Ġtribute": 8926,
      "Ġconsiderably": 8927,
      "Ġcorrespondence": 8928,
      "Ġexhibit": 8929,
      "Ġorientation": 8930,
      "Ġingred": 8931,
      "'re": 8932,
      "gate": 8933,
      "tically": 8934,
      "eda": 8935,
      "Ġrect": 8936,
      "Ġstere": 8937,
      "Ġenorm": 8938,
      "Ġroger": 8939,
      "teenth": 8940,
      "Ġcomplement": 8941,
      "Ġhoward": 8942,
      "Ġstronger": 8943,
      "Ġcattle": 8944,
      "Ġcomposers": 8945,
      "Ġarchaeological": 8946,
      "pool": 8947,
      "Ġsut": 8948,
      "Ġms": 8949,
      "Ġmile": 8950,
      "Ġgy": 8951,
      "omon": 8952,
      "Ġros": 8953,
      "apor": 8954,
      "Ġabbre": 8955,
      "every": 8956,
      "Ġhandling": 8957,
      "Ġlatv": 8958,
      "Ġdevast": 8959,
      "Ġrealized": 8960,
      "Ġtourist": 8961,
      "Ġcamer": 8962,
      "Ġdollar": 8963,
      "Ġknights": 8964,
      "Ġmerchant": 8965,
      "Ġbureau": 8966,
      "Ġcrops": 8967,
      "Ġalexandria": 8968,
      "fast": 8969,
      "Ġcass": 8970,
      "Ġhull": 8971,
      "Ġni": 8972,
      "start": 8973,
      "Ġrna": 8974,
      "izers": 8975,
      "Ġreliable": 8976,
      "aware": 8977,
      "Ġeucl": 8978,
      "Ġfiled": 8979,
      "Ġexpon": 8980,
      "Ġrepublicans": 8981,
      "Ġpromoting": 8982,
      "Ġgrain": 8983,
      "Ġindicating": 8984,
      "Ġdigit": 8985,
      "Ġ1880": 8986,
      "Ġgravit": 8987,
      "Ġpatriarch": 8988,
      "Ġcoffee": 8989,
      "chen": 8990,
      "Ġtip": 8991,
      "Ġecl": 8992,
      "iva": 8993,
      "Ġarrow": 8994,
      "Ġpreserve": 8995,
      "Ġlanded": 8996,
      "Ġpromotion": 8997,
      "Ġtales": 8998,
      "Ġmirror": 8999
    },
    "merges": [
      "Ġ t",
      "Ġ a",
      "h e",
      "i n",
      "Ġt he",
      "e r",
      "o n",
      "Ġ s",
      "Ġ ,",
      "r e",
      "Ġ o",
      "Ġ c",
      "a t",
      "e n",
      "Ġ w",
      "e d",
      "a n",
      "i s",
      "Ġ b",
      "Ġ p",
      "i t",
      "o r",
      "e s",
      "Ġ f",
      "Ġo f",
      "a l",
      "Ġ in",
      "Ġa n",
      "Ġ m",
      "a r",
      "i c",
      "Ġan d",
      "Ġ d",
      "in g",
      "i on",
      "r o",
      "a s",
      "Ġt o",
      "Ġ \"",
      "Ġ h",
      "Ġ l",
      "Ġ e",
      "Ġ n",
      "en t",
      "Ġ re",
      "l e",
      "o u",
      "Ġ g",
      "Ġt h",
      "s t",
      "o m",
      "l y",
      "t he",
      "c t",
      "i l",
      "Ġ 1",
      "Ġb e",
      "Ġ u",
      "o l",
      "v e",
      "a m",
      "at ion",
      "Ġ is",
      "i m",
      "c e",
      "a d",
      "Ġf or",
      "u r",
      "Ġa s",
      "Ġ -",
      "i d",
      "c h",
      "Ġs t",
      "t h",
      "v er",
      "i g",
      "s e",
      "Ġ on",
      "i r",
      "t er",
      "Ġw as",
      "u l",
      "Ġc on",
      "u t",
      "o w",
      "it h",
      "Ġd e",
      "Ġ r",
      "Ġa l",
      "Ġ (",
      "Ġ )",
      "e t",
      "o t",
      "Ġw ith",
      "Ġth at",
      "Ġw h",
      "e l",
      "Ġb y",
      "Ġp ro",
      "is t",
      "a y",
      "u s",
      "Ġ he",
      "Ġ v",
      "Ġs u",
      "Ġo r",
      "r a",
      "an d",
      "Ġc om",
      "u n",
      "r i",
      "' s",
      "Ġ1 9",
      "Ġ 2",
      "ro m",
      "u m",
      "e m",
      "Ġ it",
      "Ġm o",
      "Ġ k",
      "o p",
      "Ġc h",
      "a g",
      "es t",
      "i f",
      "Ġu n",
      "er s",
      "Ġs e",
      "a c",
      "Ġ j",
      "a in",
      "at e",
      "Ġa re",
      "Ġe x",
      "Ġa t",
      "o s",
      "re s",
      "a b",
      "p e",
      "q u",
      "it y",
      "i es",
      "Ġf rom",
      "the r",
      "ou n",
      "o d",
      "i v",
      "m ent",
      "o c",
      "ic h",
      "l d",
      "Ġn e",
      "u d",
      "0 0",
      "i ve",
      "i an",
      "ar t",
      "es s",
      "an t",
      "i al",
      "ic al",
      "Ġh is",
      "p p",
      "or t",
      "at ed",
      "il l",
      "Ġ en",
      "Ġwh ich",
      "er e",
      "ig h",
      "al l",
      "p t",
      "Ġ y",
      "Ġl e",
      "a k",
      "Ġw ere",
      "ar d",
      "g e",
      "ct ion",
      "g h",
      "i a",
      "b er",
      "Ġa r",
      "Ġh a",
      "Ġs h",
      "u re",
      "Ġn ot",
      "Ġp l",
      "Ġw or",
      "d er",
      "c l",
      "Ġu s",
      "ar y",
      "p er",
      "am e",
      "o g",
[...]
